{
  "version": "1.0",
  "truncation": null,
  "padding": null,
  "added_tokens": [
    {
      "id": 0,
      "content": "[PAD]",
      "single_word": false,
      "lstrip": false,
      "rstrip": false,
      "normalized": false,
      "special": true
    },
    {
      "id": 1,
      "content": "[UNK]",
      "single_word": false,
      "lstrip": false,
      "rstrip": false,
      "normalized": false,
      "special": true
    }
  ],
  "normalizer": {
    "type": "Sequence",
    "normalizers": [
      {
        "type": "Lowercase"
      }
    ]
  },
  "pre_tokenizer": {
    "type": "Sequence",
    "pretokenizers": [
      {
        "type": "Digits",
        "individual_digits": true
      },
      {
        "type": "Whitespace"
      }
    ]
  },
  "post_processor": null,
  "decoder": {
    "type": "WordPiece",
    "prefix": "##",
    "cleanup": true
  },
  "model": {
    "type": "WordPiece",
    "unk_token": "[UNK]",
    "continuing_subword_prefix": "##",
    "max_input_chars_per_word": 100,
    "vocab": {
      "[PAD]": 0,
      "[UNK]": 1,
      "!": 2,
      "#": 3,
      "$": 4,
      "%": 5,
      "'": 6,
      "(": 7,
      ")": 8,
      ",": 9,
      ".": 10,
      "/": 11,
      "0": 12,
      "1": 13,
      "2": 14,
      "3": 15,
      "4": 16,
      "5": 17,
      "6": 18,
      "7": 19,
      "8": 20,
      "9": 21,
      ":": 22,
      ";": 23,
      "?": 24,
      "^": 25,
      "a": 26,
      "b": 27,
      "c": 28,
      "d": 29,
      "e": 30,
      "f": 31,
      "g": 32,
      "h": 33,
      "i": 34,
      "j": 35,
      "k": 36,
      "l": 37,
      "m": 38,
      "n": 39,
      "o": 40,
      "p": 41,
      "q": 42,
      "r": 43,
      "s": 44,
      "t": 45,
      "u": 46,
      "v": 47,
      "w": 48,
      "x": 49,
      "y": 50,
      "z": 51,
      "ß": 52,
      "ä": 53,
      "ö": 54,
      "ü": 55,
      "##a": 56,
      "##b": 57,
      "##e": 58,
      "##n": 59,
      "##u": 60,
      "##t": 61,
      "##z": 62,
      "##s": 63,
      "##m": 64,
      "##i": 65,
      "##h": 66,
      "##ä": 67,
      "##f": 68,
      "##g": 69,
      "##ö": 70,
      "##p": 71,
      "##k": 72,
      "##o": 73,
      "##r": 74,
      "##j": 75,
      "##c": 76,
      "##d": 77,
      "##l": 78,
      "##v": 79,
      "##w": 80,
      "##ß": 81,
      "##ü": 82,
      "##y": 83,
      "##x": 84,
      "##q": 85,
      "##.": 86,
      "##en": 87,
      "##er": 88,
      "##ch": 89,
      "##ie": 90,
      "##in": 91,
      "##nd": 92,
      "##ei": 93,
      "##st": 94,
      "##ng": 95,
      "die": 96,
      "##es": 97,
      "##ich": 98,
      "##on": 99,
      "##ung": 100,
      "##te": 101,
      "der": 102,
      "##sch": 103,
      "##ti": 104,
      "und": 105,
      "ein": 106,
      "au": 107,
      "##or": 108,
      "##ll": 109,
      "##as": 110,
      "##ar": 111,
      "in": 112,
      "##an": 113,
      "##it": 114,
      "##ur": 115,
      "##ten": 116,
      "##em": 117,
      "##al": 118,
      "##hr": 119,
      "##ge": 120,
      "zu": 121,
      "##ir": 122,
      "##den": 123,
      "##ra": 124,
      "##ter": 125,
      "##gen": 126,
      "ver": 127,
      "##el": 128,
      "##lich": 129,
      "##ein": 130,
      "##ür": 131,
      "be": 132,
      "un": 133,
      "##mm": 134,
      "er": 135,
      "##ss": 136,
      "##at": 137,
      "##der": 138,
      "##au": 139,
      "##eit": 140,
      "wir": 141,
      "##de": 142,
      "##ber": 143,
      "den": 144,
      "ge": 145,
      "mit": 146,
      "##isch": 147,
      "##ro": 148,
      "von": 149,
      "##ier": 150,
      "auf": 151,
      "##icht": 152,
      "##et": 153,
      "##tion": 154,
      "an": 155,
      "für": 156,
      "das": 157,
      "dies": 158,
      "##ol": 159,
      "sie": 160,
      "##ach": 161,
      "##ass": 162,
      "##am": 163,
      "##eu": 164,
      "##ben": 165,
      "##ed": 166,
      "##and": 167,
      "##ig": 168,
      "##is": 169,
      "##ck": 170,
      "des": 171,
      "sch": 172,
      "st": 173,
      "ist": 174,
      "aus": 175,
      "##eh": 176,
      "##und": 177,
      "im": 178,
      "##ft": 179,
      "##ent": 180,
      "##un": 181,
      "so": 182,
      "wer": 183,
      "##eich": 184,
      "ko": 185,
      "eine": 186,
      "##nt": 187,
      "##ell": 188,
      "##re": 189,
      "##ungen": 190,
      "##nder": 191,
      "##il": 192,
      "re": 193,
      "es": 194,
      "sich": 195,
      "##nen": 196,
      "vor": 197,
      "##ff": 198,
      "##op": 199,
      "##ischen": 200,
      "nicht": 201,
      "##sp": 202,
      "über": 203,
      "##ah": 204,
      "dem": 205,
      "##um": 206,
      "##kt": 207,
      "##le": 208,
      "##ion": 209,
      "ich": 210,
      "##ab": 211,
      "##die": 212,
      "##tz": 213,
      "uns": 214,
      "ent": 215,
      "##ation": 216,
      "al": 217,
      "##ind": 218,
      "eur": 219,
      "##iss": 220,
      "##ahr": 221,
      "ber": 222,
      "##ri": 223,
      "pro": 224,
      "ihr": 225,
      "unter": 226,
      "##ehr": 227,
      "auch": 228,
      "werden": 229,
      "##rä": 230,
      "bei": 231,
      "##wei": 232,
      "##etz": 233,
      "all": 234,
      "##zu": 235,
      "europ": 236,
      "##ien": 237,
      "##sten": 238,
      "##om": 239,
      "##ang": 240,
      "##ver": 241,
      "##och": 242,
      "##ag": 243,
      "##ungs": 244,
      "##ess": 245,
      "ges": 246,
      "##rei": 247,
      "##ann": 248,
      "ab": 249,
      "um": 250,
      "##hal": 251,
      "##scha": 252,
      "##tig": 253,
      "##men": 254,
      "her": 255,
      "##ön": 256,
      "##iel": 257,
      "sp": 258,
      "als": 259,
      "##mmen": 260,
      "##si": 261,
      "##lie": 262,
      "nach": 263,
      "##dass": 264,
      "##tel": 265,
      "##se": 266,
      "sind": 267,
      "##uch": 268,
      "ar": 269,
      "##ing": 270,
      "ha": 271,
      "##be": 272,
      "##he": 273,
      "zur": 274,
      "##li": 275,
      "##end": 276,
      "##for": 277,
      "##ern": 278,
      "oder": 279,
      "da": 280,
      "##urch": 281,
      "##eine": 282,
      "##fü": 283,
      "gr": 284,
      "wird": 285,
      "unser": 286,
      "##schaft": 287,
      "##stell": 288,
      "europä": 289,
      "##enn": 290,
      "wie": 291,
      "##aus": 292,
      "komm": 293,
      "##lichen": 294,
      "##ische": 295,
      "kön": 296,
      "einer": 297,
      "##igen": 298,
      "kon": 299,
      "ho": 300,
      "##ort": 301,
      "##eil": 302,
      "##ne": 303,
      "##oll": 304,
      "##lä": 305,
      "##ot": 306,
      "##uss": 307,
      "par": 308,
      "##aß": 309,
      "mö": 310,
      "durch": 311,
      "hat": 312,
      "##la": 313,
      "##cht": 314,
      "##wie": 315,
      "bes": 316,
      "##all": 317,
      "##us": 318,
      "##wer": 319,
      "##imm": 320,
      "##ul": 321,
      "##anz": 322,
      "diese": 323,
      "##iti": 324,
      "##ad": 325,
      "##ste": 326,
      "fra": 327,
      "##tet": 328,
      "##schen": 329,
      "ang": 330,
      "##ut": 331,
      "einen": 332,
      "dar": 333,
      "##heit": 334,
      "##liche": 335,
      "##tiv": 336,
      "##rü": 337,
      "wei": 338,
      "haben": 339,
      "##elt": 340,
      "##itä": 341,
      "wur": 342,
      "##gt": 343,
      "ste": 344,
      "##eiten": 345,
      "jahr": 346,
      "##lo": 347,
      "##ges": 348,
      "am": 349,
      "sein": 350,
      "##keit": 351,
      "kommiss": 352,
      "##ist": 353,
      "##ru": 354,
      "##edie": 355,
      "##auf": 356,
      "##tra": 357,
      "zum": 358,
      "##sa": 359,
      "##ner": 360,
      "##pf": 361,
      "##ik": 362,
      "inter": 363,
      "##ör": 364,
      "##eb": 365,
      "##chte": 366,
      "##est": 367,
      "neu": 368,
      "##eg": 369,
      "##oh": 370,
      "einem": 371,
      "##ige": 372,
      "##beit": 373,
      "##ssen": 374,
      "##ger": 375,
      "ander": 376,
      "dieser": 377,
      "##rie": 378,
      "##utz": 379,
      "nur": 380,
      "herr": 381,
      "##ktion": 382,
      "prä": 383,
      "##aten": 384,
      "##her": 385,
      "##hen": 386,
      "##oliti": 387,
      "##ick": 388,
      "##reich": 389,
      "können": 390,
      "##chen": 391,
      "europäischen": 392,
      "##sen": 393,
      "##bar": 394,
      "hin": 395,
      "man": 396,
      "##ko": 397,
      "gem": 398,
      "##ahl": 399,
      "war": 400,
      "##glich": 401,
      "##sta": 402,
      "##neh": 403,
      "##ant": 404,
      "verb": 405,
      "##onder": 406,
      "##är": 407,
      "mehr": 408,
      "##siden": 409,
      "##che": 410,
      "##ok": 411,
      "best": 412,
      "##iert": 413,
      "##ank": 414,
      "##ähr": 415,
      "##rit": 416,
      "gen": 417,
      "##ers": 418,
      "##ic": 419,
      "fin": 420,
      "##lei": 421,
      "zw": 422,
      "##ib": 423,
      "soll": 424,
      "##zi": 425,
      "gew": 426,
      "##ieren": 427,
      "for": 428,
      "mü": 429,
      "##ek": 430,
      "##mit": 431,
      "kann": 432,
      "##ierung": 433,
      "kommission": 434,
      "noch": 435,
      "##ück": 436,
      "bet": 437,
      "is": 438,
      "ihre": 439,
      "##ob": 440,
      "gegen": 441,
      "ih": 442,
      "##og": 443,
      "de": 444,
      "##ffen": 445,
      "##lam": 446,
      "##änd": 447,
      "##fen": 448,
      "##alen": 449,
      "reg": 450,
      "##ill": 451,
      "gl": 452,
      "##glie": 453,
      "##ech": 454,
      "gesch": 455,
      "präsiden": 456,
      "##führ": 457,
      "##wick": 458,
      "##fer": 459,
      "gro": 460,
      "##form": 461,
      "##ität": 462,
      "##du": 463,
      "##ehen": 464,
      "weiter": 465,
      "hotel": 466,
      "##pp": 467,
      "##ütz": 468,
      "##wir": 469,
      "##os": 470,
      "parlam": 471,
      "##nah": 472,
      "gel": 473,
      "##geb": 474,
      "##me": 475,
      "##ak": 476,
      "alle": 477,
      "##ht": 478,
      "mitglie": 479,
      "hab": 480,
      "kl": 481,
      "sehr": 482,
      "##tier": 483,
      "##iz": 484,
      "men": 485,
      "##age": 486,
      "##ün": 487,
      "##ord": 488,
      "##enz": 489,
      "##tschaft": 490,
      "##hä": 491,
      "bis": 492,
      "hier": 493,
      "##fahr": 494,
      "##lle": 495,
      "wurde": 496,
      "##vor": 497,
      "##tigen": 498,
      "fr": 499,
      "##ßen": 500,
      "parlament": 501,
      "le": 502,
      "mein": 503,
      "##äh": 504,
      "##lung": 505,
      "##ale": 506,
      "diesem": 507,
      "##was": 508,
      "entwick": 509,
      "##lin": 510,
      "zusa": 511,
      "##ßer": 512,
      "##etzt": 513,
      "##ekt": 514,
      "##fol": 515,
      "ger": 516,
      "or": 517,
      "ch": 518,
      "geb": 519,
      "##ken": 520,
      "zwei": 521,
      "##sam": 522,
      "lie": 523,
      "arbeit": 524,
      "##lu": 525,
      "ma": 526,
      "gemein": 527,
      "zusammen": 528,
      "##gra": 529,
      "##atz": 530,
      "##ati": 531,
      "##ts": 532,
      "wenn": 533,
      "##schie": 534,
      "dieses": 535,
      "union": 536,
      "##änder": 537,
      "viel": 538,
      "##mmer": 539,
      "je": 540,
      "beg": 541,
      "##ap": 542,
      "##bl": 543,
      "##über": 544,
      "mitglied": 545,
      "the": 546,
      "##tige": 547,
      "##gel": 548,
      "##yst": 549,
      "##dem": 550,
      "##edass": 551,
      "##sche": 552,
      "##assen": 553,
      "##teil": 554,
      "##ep": 555,
      "mar": 556,
      "##war": 557,
      "##det": 558,
      "müssen": 559,
      "sicher": 560,
      "##schl": 561,
      "besch": 562,
      "##nehmen": 563,
      "##unden": 564,
      "wich": 565,
      "recht": 566,
      "##alt": 567,
      "zeit": 568,
      "intern": 569,
      "möchte": 570,
      "politi": 571,
      "ex": 572,
      "##ystem": 573,
      "##gr": 574,
      "eines": 575,
      "vom": 576,
      "##mp": 577,
      "##ate": 578,
      "rat": 579,
      "##wenn": 580,
      "unterst": 581,
      "grund": 582,
      "##bei": 583,
      "ihnen": 584,
      "##gang": 585,
      "unsere": 586,
      "##id": 587,
      "mo": 588,
      "##ast": 589,
      "et": 590,
      "##hand": 591,
      "##zie": 592,
      "##mal": 593,
      "##ho": 594,
      "##ationen": 595,
      "##eut": 596,
      "to": 597,
      "##eund": 598,
      "##wend": 599,
      "##so": 600,
      "land": 601,
      "##äch": 602,
      "hand": 603,
      "werde": 604,
      "##trag": 605,
      "qu": 606,
      "##ha": 607,
      "jed": 608,
      "##halten": 609,
      "##qu": 610,
      "##ran": 611,
      "welt": 612,
      "##fin": 613,
      "##eist": 614,
      "##nung": 615,
      "##ließ": 616,
      "zwischen": 617,
      "unterstütz": 618,
      "möglich": 619,
      "##kommen": 620,
      "bericht": 621,
      "##fe": 622,
      "##llen": 623,
      "##ständ": 624,
      "gib": 625,
      "entsch": 626,
      "eu": 627,
      "##rin": 628,
      "##iv": 629,
      "sei": 630,
      "##daß": 631,
      "aber": 632,
      "po": 633,
      "mach": 634,
      "##iele": 635,
      "eigen": 636,
      "produ": 637,
      "mitgliedsta": 638,
      "sta": 639,
      "##io": 640,
      "##forder": 641,
      "europäische": 642,
      "##ma": 643,
      "##halb": 644,
      "##itz": 645,
      "sel": 646,
      "fü": 647,
      "ganz": 648,
      "inform": 649,
      "menschen": 650,
      "th": 651,
      "stra": 652,
      "##das": 653,
      "##bst": 654,
      "##blem": 655,
      "##ohl": 656,
      "teil": 657,
      "##setz": 658,
      "bereit": 659,
      "##amit": 660,
      "##sb": 661,
      "wieder": 662,
      "##pro": 663,
      "##einen": 664,
      "heu": 665,
      "sin": 666,
      "ihrer": 667,
      "##für": 668,
      "frau": 669,
      "vers": 670,
      "##igkeit": 671,
      "pers": 672,
      "ausge": 673,
      "##art": 674,
      "sol": 675,
      "sowie": 676,
      "##stat": 677,
      "keine": 678,
      "bed": 679,
      "##nis": 680,
      "##ften": 681,
      "##inder": 682,
      "wirtschaft": 683,
      "##rauch": 684,
      "gleich": 685,
      "##entr": 686,
      "##ativ": 687,
      "##egen": 688,
      "##ler": 689,
      "ak": 690,
      "bie": 691,
      "##ild": 692,
      "inst": 693,
      "gibt": 694,
      "einz": 695,
      "##gesch": 696,
      "##zeu": 697,
      "habe": 698,
      "##land": 699,
      "##halt": 700,
      "##stimm": 701,
      "tra": 702,
      "##aber": 703,
      "anderen": 704,
      "##ster": 705,
      "verfü": 706,
      "##niss": 707,
      "##erk": 708,
      "bür": 709,
      "problem": 710,
      "##itu": 711,
      "##lt": 712,
      "pl": 713,
      "##ert": 714,
      "##ellen": 715,
      "##iger": 716,
      "##gramm": 717,
      "nat": 718,
      "##erv": 719,
      "##ös": 720,
      "##ischer": 721,
      "##weise": 722,
      "immer": 723,
      "##fra": 724,
      "##stand": 725,
      "europa": 726,
      "##enden": 727,
      "##gie": 728,
      "ben": 729,
      "##ße": 730,
      "##fall": 731,
      "mitgliedstaaten": 732,
      "deut": 733,
      "haus": 734,
      "##sich": 735,
      "##ett": 736,
      "ind": 737,
      "eben": 738,
      "##ub": 739,
      "##ust": 740,
      "di": 741,
      "bereich": 742,
      "##mpf": 743,
      "fest": 744,
      "änder": 745,
      "##lick": 746,
      "##gend": 747,
      "min": 748,
      "muss": 749,
      "##ffent": 750,
      "##kte": 751,
      "was": 752,
      "führ": 753,
      "leben": 754,
      "##esonder": 755,
      "verw": 756,
      "##ere": 757,
      "##gung": 758,
      "##erung": 759,
      "##unkt": 760,
      "komp": 761,
      "finanz": 762,
      "diesen": 763,
      "länder": 764,
      "##ätz": 765,
      "##im": 766,
      "##arbeit": 767,
      "##zei": 768,
      "##eid": 769,
      "bede": 770,
      "##amen": 771,
      "##essen": 772,
      "##fach": 773,
      "internation": 774,
      "##tern": 775,
      "kont": 776,
      "maß": 777,
      "##ard": 778,
      "##innen": 779,
      "unserer": 780,
      "##gan": 781,
      "##mö": 782,
      "neue": 783,
      "schw": 784,
      "##zeich": 785,
      "heute": 786,
      "selbst": 787,
      "##keiten": 788,
      "mu": 789,
      "##per": 790,
      "fol": 791,
      "##äng": 792,
      "ihren": 793,
      "##di": 794,
      "##geben": 795,
      "##sicht": 796,
      "co": 797,
      "##chten": 798,
      "and": 799,
      "gu": 800,
      "##ew": 801,
      "##ende": 802,
      "##wort": 803,
      "##olog": 804,
      "sti": 805,
      "##satz": 806,
      "##spiel": 807,
      "##als": 808,
      "##äu": 809,
      "##tur": 810,
      "##nahmen": 811,
      "seine": 812,
      "##mittel": 813,
      "##schieden": 814,
      "##ac": 815,
      "##pl": 816,
      "hau": 817,
      "##adt": 818,
      "##alis": 819,
      "##zeit": 820,
      "vert": 821,
      "##aub": 822,
      "wür": 823,
      "##elle": 824,
      "##echn": 825,
      "##richt": 826,
      "wirk": 827,
      "##ionen": 828,
      "##eum": 829,
      "gemeinsam": 830,
      "frei": 831,
      "##ats": 832,
      "verein": 833,
      "##eln": 834,
      "##hör": 835,
      "##lage": 836,
      "lang": 837,
      "##tik": 838,
      "##ia": 839,
      "mittel": 840,
      "##len": 841,
      "wen": 842,
      "##min": 843,
      "bek": 844,
      "aut": 845,
      "##ov": 846,
      "wor": 847,
      "voll": 848,
      "te": 849,
      "##licher": 850,
      "sozi": 851,
      "bereits": 852,
      "se": 853,
      "##stellt": 854,
      "##ow": 855,
      "zahl": 856,
      "frage": 857,
      "##nde": 858,
      "la": 859,
      "##immer": 860,
      "##acht": 861,
      "jedoch": 862,
      "##fahren": 863,
      "unternehmen": 864,
      "not": 865,
      "com": 866,
      "wichtig": 867,
      "nutz": 868,
      "grö": 869,
      "##okra": 870,
      "##ont": 871,
      "fall": 872,
      "##ichte": 873,
      "wiss": 874,
      "##ritt": 875,
      "erfol": 876,
      "rei": 877,
      "pri": 878,
      "##ruck": 879,
      "mich": 880,
      "##rechen": 881,
      "erreich": 882,
      "spiel": 883,
      "##pt": 884,
      "neuen": 885,
      "system": 886,
      "techn": 887,
      "stand": 888,
      "##ommen": 889,
      "aller": 890,
      "##att": 891,
      "richt": 892,
      "aussch": 893,
      "viele": 894,
      "##kehr": 895,
      "könn": 896,
      "##ke": 897,
      "andere": 898,
      "kr": 899,
      "besonder": 900,
      "bew": 901,
      "seit": 902,
      "##leich": 903,
      "person": 904,
      "##von": 905,
      "präsident": 906,
      "entsp": 907,
      "entwicklung": 908,
      "ins": 909,
      "##ce": 910,
      "ro": 911,
      "daten": 912,
      "du": 913,
      "dann": 914,
      "wurden": 915,
      "sollte": 916,
      "##stellung": 917,
      "##els": 918,
      "woll": 919,
      "dien": 920,
      "##ierte": 921,
      "jahren": 922,
      "en": 923,
      "##kun": 924,
      "bürger": 925,
      "##nahme": 926,
      "##nisse": 927,
      "hö": 928,
      "verschieden": 929,
      "dis": 930,
      "tag": 931,
      "##gem": 932,
      "dazu": 933,
      "erk": 934,
      "##zen": 935,
      "##net": 936,
      "##schlag": 937,
      "##alität": 938,
      "##wor": 939,
      "auss": 940,
      "gef": 941,
      "außer": 942,
      "damit": 943,
      "##ährend": 944,
      "spe": 945,
      "bel": 946,
      "##nehm": 947,
      "kur": 948,
      "dir": 949,
      "##wohl": 950,
      "nation": 951,
      "ur": 952,
      "##tionen": 953,
      "nie": 954,
      "letz": 955,
      "##fte": 956,
      "sa": 957,
      "part": 958,
      "web": 959,
      "einige": 960,
      "sicherheit": 961,
      "##lic": 962,
      "##lär": 963,
      "verl": 964,
      "##lagen": 965,
      "##unter": 966,
      "jetzt": 967,
      "of": 968,
      "dah": 969,
      "##ite": 970,
      "##kei": 971,
      "##weil": 972,
      "##olitik": 973,
      "them": 974,
      "##zahl": 975,
      "##unktion": 976,
      "at": 977,
      "scha": 978,
      "bestimm": 979,
      "bo": 980,
      "##hne": 981,
      "programm": 982,
      "##ät": 983,
      "lin": 984,
      "##esse": 985,
      "tran": 986,
      "##luss": 987,
      "##hei": 988,
      "##wa": 989,
      "ziel": 990,
      "##leist": 991,
      "##wo": 992,
      "dank": 993,
      "per": 994,
      "##reis": 995,
      "einfach": 996,
      "bit": 997,
      "##bau": 998,
      "##ktur": 999,
      "su": 1000,
      "allen": 1001,
      "gar": 1002,
      "##ens": 1003,
      "##ierten": 1004,
      "##bewer": 1005,
      "kein": 1006,
      "##da": 1007,
      "##ahmen": 1008,
      "schon": 1009,
      "form": 1010,
      "seiner": 1011,
      "##mus": 1012,
      "##lug": 1013,
      "öffent": 1014,
      "beit": 1015,
      "##mar": 1016,
      "##dern": 1017,
      "##kunft": 1018,
      "##stellen": 1019,
      "einge": 1020,
      "nun": 1021,
      "abge": 1022,
      "##arbei": 1023,
      "##ganis": 1024,
      "ersten": 1025,
      "schn": 1026,
      "bietet": 1027,
      "##welt": 1028,
      "##grund": 1029,
      "mon": 1030,
      "##sätz": 1031,
      "##äß": 1032,
      "eng": 1033,
      "##ade": 1034,
      "rahmen": 1035,
      "ad": 1036,
      "denen": 1037,
      "##sk": 1038,
      "lei": 1039,
      "##ftig": 1040,
      "sollten": 1041,
      "##igung": 1042,
      "gut": 1043,
      "##zw": 1044,
      "##häng": 1045,
      "ob": 1046,
      "me": 1047,
      "##aler": 1048,
      "finden": 1049,
      "vorsch": 1050,
      "br": 1051,
      "##fass": 1052,
      "##lü": 1053,
      "natür": 1054,
      "ter": 1055,
      "beispiel": 1056,
      "gra": 1057,
      "stell": 1058,
      "zentr": 1059,
      "##zep": 1060,
      "liegt": 1061,
      "dab": 1062,
      "##zug": 1063,
      "##ks": 1064,
      "ern": 1065,
      "##eren": 1066,
      "##fr": 1067,
      "##voll": 1068,
      "##ultur": 1069,
      "ohne": 1070,
      "##eicht": 1071,
      "hei": 1072,
      "lu": 1073,
      "daher": 1074,
      "ener": 1075,
      "##our": 1076,
      "##hn": 1077,
      "op": 1078,
      "##eder": 1079,
      "##rech": 1080,
      "res": 1081,
      "##oren": 1082,
      "jahre": 1083,
      "##hält": 1084,
      "kosten": 1085,
      "li": 1086,
      "funktion": 1087,
      "##cken": 1088,
      "##öl": 1089,
      "berich": 1090,
      "notwend": 1091,
      "hal": 1092,
      "mir": 1093,
      "##ven": 1094,
      "##ine": 1095,
      "stadt": 1096,
      "ne": 1097,
      "##abe": 1098,
      "star": 1099,
      "zurück": 1100,
      "ung": 1101,
      "gest": 1102,
      "##eht": 1103,
      "informationen": 1104,
      "hil": 1105,
      "gesam": 1106,
      "##än": 1107,
      "##mo": 1108,
      "frü": 1109,
      "##äl": 1110,
      "##ings": 1111,
      "rechts": 1112,
      "zei": 1113,
      "##sbesonder": 1114,
      "##umen": 1115,
      "##recht": 1116,
      "##ren": 1117,
      "dabei": 1118,
      "drei": 1119,
      "befin": 1120,
      "##ervic": 1121,
      "proj": 1122,
      "##antwort": 1123,
      "allem": 1124,
      "##iet": 1125,
      "bin": 1126,
      "rich": 1127,
      "dass": 1128,
      "el": 1129,
      "##aben": 1130,
      "maßnahmen": 1131,
      "lo": 1132,
      "##uten": 1133,
      "demokra": 1134,
      "hoch": 1135,
      "darauf": 1136,
      "on": 1137,
      "##sto": 1138,
      "##riff": 1139,
      "##sbesondere": 1140,
      "##ement": 1141,
      "lös": 1142,
      "##tischen": 1143,
      "groß": 1144,
      "unseren": 1145,
      "it": 1146,
      "erst": 1147,
      "##ünd": 1148,
      "verbess": 1149,
      "##spro": 1150,
      "##lichkeit": 1151,
      "beim": 1152,
      "fort": 1153,
      "ru": 1154,
      "lage": 1155,
      "geschä": 1156,
      "##yp": 1157,
      "disk": 1158,
      "##falls": 1159,
      "empf": 1160,
      "sor": 1161,
      "##des": 1162,
      "region": 1163,
      "##vers": 1164,
      "##tem": 1165,
      "##ander": 1166,
      "##tiert": 1167,
      "get": 1168,
      "##möglich": 1169,
      "will": 1170,
      "##lossen": 1171,
      "pra": 1172,
      "gemeinschaft": 1173,
      "##ruktur": 1174,
      "umf": 1175,
      "##bs": 1176,
      "##reten": 1177,
      "einzel": 1178,
      "erfolg": 1179,
      "##punkt": 1180,
      "bar": 1181,
      "##elche": 1182,
      "##ker": 1183,
      "##kon": 1184,
      "herrn": 1185,
      "##lungen": 1186,
      "##annt": 1187,
      "deshalb": 1188,
      "##gar": 1189,
      "##aum": 1190,
      "##ations": 1191,
      "##örder": 1192,
      "##herr": 1193,
      "umwelt": 1194,
      "ph": 1195,
      "##ondern": 1196,
      "##genden": 1197,
      "##bt": 1198,
      "##heiten": 1199,
      "##üh": 1200,
      "##fri": 1201,
      "##tedie": 1202,
      "##hin": 1203,
      "kolle": 1204,
      "dafür": 1205,
      "##ahn": 1206,
      "##uß": 1207,
      "inner": 1208,
      "##weis": 1209,
      "##amil": 1210,
      "##co": 1211,
      "##ug": 1212,
      "zimmer": 1213,
      "mill": 1214,
      "##hol": 1215,
      "##denn": 1216,
      "änderungs": 1217,
      "machen": 1218,
      "##linie": 1219,
      "fahr": 1220,
      "##ktu": 1221,
      "geht": 1222,
      "##zieh": 1223,
      "##ätig": 1224,
      "posi": 1225,
      "verst": 1226,
      "med": 1227,
      "benutz": 1228,
      "meine": 1229,
      "namen": 1230,
      "kam": 1231,
      "einmal": 1232,
      "letzten": 1233,
      "##beiten": 1234,
      "ihrem": 1235,
      "angeb": 1236,
      "##rache": 1237,
      "##licht": 1238,
      "würde": 1239,
      "vorschlag": 1240,
      "##ließlich": 1241,
      "bitte": 1242,
      "markt": 1243,
      "##ordnung": 1244,
      "ant": 1245,
      "regel": 1246,
      "nä": 1247,
      "##druck": 1248,
      "##lungs": 1249,
      "lassen": 1250,
      "tats": 1251,
      "##zü": 1252,
      "verantwort": 1253,
      "etwas": 1254,
      "bild": 1255,
      "doch": 1256,
      "wissen": 1257,
      "##esch": 1258,
      "während": 1259,
      "##führt": 1260,
      "##äre": 1261,
      "fraktion": 1262,
      "aktiv": 1263,
      "parlaments": 1264,
      "##esen": 1265,
      "waren": 1266,
      "##räge": 1267,
      "##setzung": 1268,
      "proz": 1269,
      "##mb": 1270,
      "##los": 1271,
      "##ve": 1272,
      "##ekte": 1273,
      "##zeug": 1274,
      "bil": 1275,
      "##stimmung": 1276,
      "kinder": 1277,
      "##tieren": 1278,
      "verg": 1279,
      "darüber": 1280,
      "inte": 1281,
      "ide": 1282,
      "natürlich": 1283,
      "stu": 1284,
      "bedeut": 1285,
      "##ünf": 1286,
      "##ian": 1287,
      "##ringen": 1288,
      "arbeits": 1289,
      "jeder": 1290,
      "stehen": 1291,
      "##aut": 1292,
      "dienst": 1293,
      "energie": 1294,
      "us": 1295,
      "##rich": 1296,
      "##ffe": 1297,
      "##edaß": 1298,
      "##ip": 1299,
      "art": 1300,
      "klar": 1301,
      "unterstützung": 1302,
      "##auer": 1303,
      "kunden": 1304,
      "zusammenarbeit": 1305,
      "gesetz": 1306,
      "erforder": 1307,
      "##altung": 1308,
      "bem": 1309,
      "geschäft": 1310,
      "##eig": 1311,
      "##pr": 1312,
      "##rom": 1313,
      "flug": 1314,
      "##lan": 1315,
      "##akt": 1316,
      "##wendung": 1317,
      "##führung": 1318,
      "organis": 1319,
      "##uchen": 1320,
      "euro": 1321,
      "bess": 1322,
      "bas": 1323,
      "##komm": 1324,
      "##ise": 1325,
      "##iell": 1326,
      "offen": 1327,
      "seiten": 1328,
      "##stra": 1329,
      "##ald": 1330,
      "meiner": 1331,
      "kultur": 1332,
      "priv": 1333,
      "##wirk": 1334,
      "##hö": 1335,
      "bef": 1336,
      "wi": 1337,
      "heraus": 1338,
      "##under": 1339,
      "##lex": 1340,
      "##terstat": 1341,
      "sehen": 1342,
      "##äd": 1343,
      "##xt": 1344,
      "wett": 1345,
      "##ign": 1346,
      "strate": 1347,
      "##ellschaft": 1348,
      "vertrag": 1349,
      "##az": 1350,
      "##eiden": 1351,
      "kommissar": 1352,
      "weitere": 1353,
      "##itäten": 1354,
      "##wert": 1355,
      "wahr": 1356,
      "vielen": 1357,
      "ir": 1358,
      "erklär": 1359,
      "##fiz": 1360,
      "großen": 1361,
      "##schaften": 1362,
      "lebens": 1363,
      "##wirtschaft": 1364,
      "con": 1365,
      "##ehmen": 1366,
      "##angen": 1367,
      "fragen": 1368,
      "ergeb": 1369,
      "##gew": 1370,
      "##asser": 1371,
      "##olle": 1372,
      "##rän": 1373,
      "##weiter": 1374,
      "##laub": 1375,
      "eff": 1376,
      "seinen": 1377,
      "servic": 1378,
      "tro": 1379,
      "kommen": 1380,
      "regierung": 1381,
      "stär": 1382,
      "##ative": 1383,
      "##auch": 1384,
      "##inn": 1385,
      "große": 1386,
      "statt": 1387,
      "##isten": 1388,
      "seite": 1389,
      "##chn": 1390,
      "famil": 1391,
      "##raft": 1392,
      "##ument": 1393,
      "##ichts": 1394,
      "##gangen": 1395,
      "##ohn": 1396,
      "##erik": 1397,
      "sk": 1398,
      "##asse": 1399,
      "##kten": 1400,
      "##fort": 1401,
      "##ppe": 1402,
      "gehör": 1403,
      "##obil": 1404,
      "entscheid": 1405,
      "kontro": 1406,
      "verk": 1407,
      "gewähr": 1408,
      "##tive": 1409,
      "##ustrie": 1410,
      "prof": 1411,
      "##blick": 1412,
      "##edas": 1413,
      "rück": 1414,
      "##ium": 1415,
      "##eld": 1416,
      "aktu": 1417,
      "son": 1418,
      "internationalen": 1419,
      "gä": 1420,
      "##tisch": 1421,
      "weg": 1422,
      "##ware": 1423,
      "sü": 1424,
      "##staur": 1425,
      "##iere": 1426,
      "schutz": 1427,
      "##man": 1428,
      "ländern": 1429,
      "##ina": 1430,
      "ja": 1431,
      "##eile": 1432,
      "stellen": 1433,
      "##od": 1434,
      "kurz": 1435,
      "erw": 1436,
      "##ele": 1437,
      "zug": 1438,
      "##bereich": 1439,
      "##markt": 1440,
      "berichterstat": 1441,
      "wettbewer": 1442,
      "mor": 1443,
      "wa": 1444,
      "ser": 1445,
      "##halts": 1446,
      "##ismus": 1447,
      "##ünst": 1448,
      "unterschie": 1449,
      "deb": 1450,
      "inv": 1451,
      "internet": 1452,
      "ange": 1453,
      "##weit": 1454,
      "direkt": 1455,
      "##sse": 1456,
      "##uer": 1457,
      "##undheit": 1458,
      "aufge": 1459,
      "zukunft": 1460,
      "situ": 1461,
      "ele": 1462,
      "beschä": 1463,
      "erhalten": 1464,
      "ju": 1465,
      "##fern": 1466,
      "blei": 1467,
      "##tigt": 1468,
      "##gabe": 1469,
      "##sei": 1470,
      "näch": 1471,
      "##gehen": 1472,
      "##lleg": 1473,
      "politik": 1474,
      "##gende": 1475,
      "##gele": 1476,
      "nor": 1477,
      "##ond": 1478,
      "begrü": 1479,
      "##prä": 1480,
      "pf": 1481,
      "##abil": 1482,
      "haupt": 1483,
      "##ämpf": 1484,
      "##ingungen": 1485,
      "vol": 1486,
      "feh": 1487,
      "anges": 1488,
      "##bild": 1489,
      "kar": 1490,
      "also": 1491,
      "##alien": 1492,
      "mus": 1493,
      "##ogen": 1494,
      "##rück": 1495,
      "pol": 1496,
      "end": 1497,
      "verfügung": 1498,
      "##ide": 1499,
      "##beh": 1500,
      "gru": 1501,
      "##agt": 1502,
      "schnell": 1503,
      "##rechte": 1504,
      "institu": 1505,
      "##oten": 1506,
      "##uf": 1507,
      "dort": 1508,
      "##ucht": 1509,
      "##tische": 1510,
      "fer": 1511,
      "##echs": 1512,
      "##rift": 1513,
      "##bung": 1514,
      "ende": 1515,
      "##ierungs": 1516,
      "eigenen": 1517,
      "grenz": 1518,
      "##hang": 1519,
      "pr": 1520,
      "ta": 1521,
      "denn": 1522,
      "we": 1523,
      "##ppen": 1524,
      "artik": 1525,
      "erg": 1526,
      "gegenüber": 1527,
      "##schutz": 1528,
      "wahl": 1529,
      "allgem": 1530,
      "##ritte": 1531,
      "hervor": 1532,
      "##fäh": 1533,
      "##ment": 1534,
      "transp": 1535,
      "mal": 1536,
      "versch": 1537,
      "##dien": 1538,
      "##schein": 1539,
      "leist": 1540,
      "##durch": 1541,
      "##kl": 1542,
      "pa": 1543,
      "zwar": 1544,
      "dat": 1545,
      "restaur": 1546,
      "##länder": 1547,
      "steht": 1548,
      "innerhalb": 1549,
      "##lob": 1550,
      "kan": 1551,
      "brauch": 1552,
      "##igt": 1553,
      "##reffen": 1554,
      "besonders": 1555,
      "macht": 1556,
      "##ph": 1557,
      "ausschuss": 1558,
      "wollen": 1559,
      "politischen": 1560,
      "##ingt": 1561,
      "wach": 1562,
      "bedeutung": 1563,
      "tun": 1564,
      "preis": 1565,
      "##ziel": 1566,
      "##halte": 1567,
      "##mlich": 1568,
      "##werk": 1569,
      "verschiedenen": 1570,
      "##anischen": 1571,
      "##rieden": 1572,
      "##ys": 1573,
      "thema": 1574,
      "verm": 1575,
      "##bet": 1576,
      "nah": 1577,
      "sowohl": 1578,
      "verbrauch": 1579,
      "alles": 1580,
      "wirklich": 1581,
      "weise": 1582,
      "soft": 1583,
      "weit": 1584,
      "kollegen": 1585,
      "qualität": 1586,
      "entfer": 1587,
      "besteht": 1588,
      "fir": 1589,
      "aussp": 1590,
      "sage": 1591,
      "##hof": 1592,
      "met": 1593,
      "worden": 1594,
      "##ferenz": 1595,
      "wes": 1596,
      "vo": 1597,
      "behand": 1598,
      "staaten": 1599,
      "erwar": 1600,
      "richtlinie": 1601,
      "##wand": 1602,
      "invest": 1603,
      "##eso": 1604,
      "woch": 1605,
      "wohl": 1606,
      "bieten": 1607,
      "klein": 1608,
      "geben": 1609,
      "##rag": 1610,
      "muß": 1611,
      "##atur": 1612,
      "erste": 1613,
      "##raum": 1614,
      "##indung": 1615,
      "wäre": 1616,
      "##rieb": 1617,
      "sy": 1618,
      "schwer": 1619,
      "tür": 1620,
      "verpf": 1621,
      "glob": 1622,
      "kü": 1623,
      "kri": 1624,
      "##tlich": 1625,
      "##unde": 1626,
      "mil": 1627,
      "##ordne": 1628,
      "stimm": 1629,
      "##politik": 1630,
      "##ister": 1631,
      "forsch": 1632,
      "fl": 1633,
      "##bed": 1634,
      "##hil": 1635,
      "probleme": 1636,
      "schwier": 1637,
      "genau": 1638,
      "beschäftig": 1639,
      "##mäß": 1640,
      "##ron": 1641,
      "erweiter": 1642,
      "##ute": 1643,
      "##undie": 1644,
      "##igten": 1645,
      "befindet": 1646,
      "##anken": 1647,
      "##maß": 1648,
      "hinter": 1649,
      "##riften": 1650,
      "unterschied": 1651,
      "##reise": 1652,
      "wurd": 1653,
      "##zip": 1654,
      "größ": 1655,
      "persön": 1656,
      "##merk": 1657,
      "bau": 1658,
      "##dings": 1659,
      "gener": 1660,
      "neben": 1661,
      "##rach": 1662,
      "##verb": 1663,
      "##zentr": 1664,
      "##gesetzt": 1665,
      "dür": 1666,
      "red": 1667,
      "uhr": 1668,
      "forder": 1669,
      "##gegen": 1670,
      "##atte": 1671,
      "##endet": 1672,
      "##lätz": 1673,
      "kor": 1674,
      "##wär": 1675,
      "hoff": 1676,
      "##igkeiten": 1677,
      "frauen": 1678,
      "partner": 1679,
      "##ruch": 1680,
      "pal": 1681,
      "förder": 1682,
      "einzu": 1683,
      "technolog": 1684,
      "berichterstatter": 1685,
      "gesundheit": 1686,
      "rolle": 1687,
      "bezug": 1688,
      "wert": 1689,
      "##fft": 1690,
      "gelegen": 1691,
      "moder": 1692,
      "##frage": 1693,
      "##po": 1694,
      "außerdem": 1695,
      "spezi": 1696,
      "davon": 1697,
      "##gaben": 1698,
      "##sweise": 1699,
      "sozial": 1700,
      "##wür": 1701,
      "##hau": 1702,
      "erfahr": 1703,
      "könnte": 1704,
      "fil": 1705,
      "glaub": 1706,
      "hinaus": 1707,
      "artikel": 1708,
      "anzu": 1709,
      "as": 1710,
      "##opp": 1711,
      "##rieben": 1712,
      "kli": 1713,
      "##ring": 1714,
      "früh": 1715,
      "wesent": 1716,
      "##cher": 1717,
      "verhand": 1718,
      "##cen": 1719,
      "##prü": 1720,
      "hel": 1721,
      "##sst": 1722,
      "##ehn": 1723,
      "entschließ": 1724,
      "##ct": 1725,
      "##glichen": 1726,
      "##ater": 1727,
      "beiden": 1728,
      "##antrag": 1729,
      "sitz": 1730,
      "##one": 1731,
      "##bie": 1732,
      "zusammenhang": 1733,
      "unserem": 1734,
      "##ache": 1735,
      "absch": 1736,
      "##eien": 1737,
      "natur": 1738,
      "vier": 1739,
      "lösung": 1740,
      "##hinder": 1741,
      "##achten": 1742,
      "staat": 1743,
      "##ka": 1744,
      "vertra": 1745,
      "terr": 1746,
      "tour": 1747,
      "hatte": 1748,
      "projekt": 1749,
      "##setzen": 1750,
      "zweiten": 1751,
      "entfernt": 1752,
      "üb": 1753,
      "##esondern": 1754,
      "freund": 1755,
      "##teilung": 1756,
      "insbesondere": 1757,
      "schön": 1758,
      "##lik": 1759,
      "schluss": 1760,
      "##wird": 1761,
      "gemeinsamen": 1762,
      "russ": 1763,
      "angel": 1764,
      "##alten": 1765,
      "erreichen": 1766,
      "##genommen": 1767,
      "inn": 1768,
      "bu": 1769,
      "##bur": 1770,
      "##zeitig": 1771,
      "angen": 1772,
      "zahlreich": 1773,
      "gerade": 1774,
      "mei": 1775,
      "zusätz": 1776,
      "nich": 1777,
      "##ial": 1778,
      "##nehmer": 1779,
      "##sondern": 1780,
      "gesellschaft": 1781,
      "km": 1782,
      "zie": 1783,
      "gil": 1784,
      "personen": 1785,
      "schul": 1786,
      "hilfe": 1787,
      "amerik": 1788,
      "jeden": 1789,
      "hät": 1790,
      "##spolitik": 1791,
      "##stück": 1792,
      "##sitz": 1793,
      "##abhäng": 1794,
      "allerdings": 1795,
      "geschäfts": 1796,
      "sh": 1797,
      "##ktionen": 1798,
      "##unge": 1799,
      "wel": 1800,
      "##tie": 1801,
      "##racht": 1802,
      "abgeordne": 1803,
      "situation": 1804,
      "##gestellt": 1805,
      "##ativen": 1806,
      "##part": 1807,
      "dan": 1808,
      "##eck": 1809,
      "entsprechen": 1810,
      "autom": 1811,
      "##dition": 1812,
      "dienstleist": 1813,
      "##wur": 1814,
      "##par": 1815,
      "etwa": 1816,
      "##str": 1817,
      "##ive": 1818,
      "##ächst": 1819,
      "ihn": 1820,
      "##agement": 1821,
      "##baren": 1822,
      "vorschlä": 1823,
      "musi": 1824,
      "##line": 1825,
      "##ack": 1826,
      "kap": 1827,
      "##fä": 1828,
      "aufgrund": 1829,
      "##annten": 1830,
      "hinsicht": 1831,
      "##zogen": 1832,
      "besuch": 1833,
      "##ente": 1834,
      "##enten": 1835,
      "haushalts": 1836,
      "##euer": 1837,
      "san": 1838,
      "gäste": 1839,
      "##ase": 1840,
      "del": 1841,
      "##ou": 1842,
      "##läss": 1843,
      "restaurant": 1844,
      "rel": 1845,
      "interess": 1846,
      "uni": 1847,
      "initi": 1848,
      "##eitung": 1849,
      "##ücksich": 1850,
      "wasser": 1851,
      "##anst": 1852,
      "mensch": 1853,
      "größer": 1854,
      "gute": 1855,
      "konk": 1856,
      "weniger": 1857,
      "ansp": 1858,
      "##völ": 1859,
      "##alisierung": 1860,
      "ac": 1861,
      "##haus": 1862,
      "##stum": 1863,
      "bzw": 1864,
      "struktur": 1865,
      "##liches": 1866,
      "ken": 1867,
      "##ity": 1868,
      "##itt": 1869,
      "millionen": 1870,
      "##ze": 1871,
      "produkte": 1872,
      "##tim": 1873,
      "lauf": 1874,
      "comp": 1875,
      "ebenfalls": 1876,
      "verfahren": 1877,
      "##ote": 1878,
      "##wach": 1879,
      "fern": 1880,
      "usa": 1881,
      "##sol": 1882,
      "app": 1883,
      "off": 1884,
      "konn": 1885,
      "##lass": 1886,
      "ca": 1887,
      "##arm": 1888,
      "handel": 1889,
      "vergangen": 1890,
      "##ielleicht": 1891,
      "gern": 1892,
      "freu": 1893,
      "ort": 1894,
      "dok": 1895,
      "##roffen": 1896,
      "gründ": 1897,
      "standard": 1898,
      "##ächlich": 1899,
      "meisten": 1900,
      "##oc": 1901,
      "##tragen": 1902,
      "verfüg": 1903,
      "besten": 1904,
      "##ette": 1905,
      "jahres": 1906,
      "port": 1907,
      "übern": 1908,
      "##asst": 1909,
      "##verkehr": 1910,
      "pass": 1911,
      "industrie": 1912,
      "buch": 1913,
      "service": 1914,
      "entwicklungs": 1915,
      "außen": 1916,
      "sogar": 1917,
      "##weg": 1918,
      "möchten": 1919,
      "##inner": 1920,
      "berücksich": 1921,
      "##frei": 1922,
      "zugang": 1923,
      "fä": 1924,
      "##ehm": 1925,
      "schrift": 1926,
      "##tr": 1927,
      "politische": 1928,
      "##istor": 1929,
      "möglichkeit": 1930,
      "##ssystem": 1931,
      "##aussch": 1932,
      "bus": 1933,
      "##ritten": 1934,
      "verkehr": 1935,
      "bezieh": 1936,
      "pla": 1937,
      "punkt": 1938,
      "netz": 1939,
      "seinem": 1940,
      "kolleg": 1941,
      "##reg": 1942,
      "rechte": 1943,
      "##inen": 1944,
      "##ember": 1945,
      "bestehen": 1946,
      "produkt": 1947,
      "wider": 1948,
      "software": 1949,
      "deutschl": 1950,
      "##wahl": 1951,
      "##forderungen": 1952,
      "fortsch": 1953,
      "go": 1954,
      "##isches": 1955,
      "##rigen": 1956,
      "nu": 1957,
      "##ies": 1958,
      "veränder": 1959,
      "##ußer": 1960,
      "##iff": 1961,
      "plan": 1962,
      "äußer": 1963,
      "nichts": 1964,
      "jahrh": 1965,
      "##ierungen": 1966,
      "aussprache": 1967,
      "##if": 1968,
      "ra": 1969,
      "ihm": 1970,
      "##hl": 1971,
      "##tigung": 1972,
      "##ator": 1973,
      "hotels": 1974,
      "##drück": 1975,
      "##legen": 1976,
      "##site": 1977,
      "##eits": 1978,
      "unterstützen": 1979,
      "##tes": 1980,
      "nationalen": 1981,
      "mär": 1982,
      "gleichzeitig": 1983,
      "##ser": 1984,
      "ag": 1985,
      "kommun": 1986,
      "##ogra": 1987,
      "weiterhin": 1988,
      "##alog": 1989,
      "##amp": 1990,
      "spezie": 1991,
      "##vo": 1992,
      "zer": 1993,
      "##tiven": 1994,
      "##fig": 1995,
      "öffentlichen": 1996,
      "führen": 1997,
      "erfü": 1998,
      "unver": 1999,
      "rates": 2000,
      "install": 2001,
      "stellt": 2002,
      "rech": 2003,
      "verbunden": 2004,
      "si": 2005,
      "spä": 2006,
      "##urs": 2007,
      "abstimmung": 2008,
      "mail": 2009,
      "deren": 2010,
      "ebene": 2011,
      "##hre": 2012,
      "zun": 2013,
      "produktion": 2014,
      "##are": 2015,
      "##werden": 2016,
      "##zer": 2017,
      "##bare": 2018,
      "##ition": 2019,
      "arbeiten": 2020,
      "einigen": 2021,
      "##ehe": 2022,
      "genie": 2023,
      "geld": 2024,
      "##fs": 2025,
      "##welche": 2026,
      "gol": 2027,
      "erhö": 2028,
      "nutzen": 2029,
      "asp": 2030,
      "char": 2031,
      "reich": 2032,
      "europas": 2033,
      "##unk": 2034,
      "wün": 2035,
      "vielleicht": 2036,
      "far": 2037,
      "##räsiden": 2038,
      "##reifen": 2039,
      "betra": 2040,
      "bl": 2041,
      "website": 2042,
      "fot": 2043,
      "gilt": 2044,
      "##stadt": 2045,
      "##iges": 2046,
      "instr": 2047,
      "vereinbar": 2048,
      "entscheiden": 2049,
      "besser": 2050,
      "##deck": 2051,
      "##führen": 2052,
      "wichtige": 2053,
      "##ain": 2054,
      "##uter": 2055,
      "##stehen": 2056,
      "##öff": 2057,
      "solche": 2058,
      "##icher": 2059,
      "keinen": 2060,
      "ermöglich": 2061,
      "##atisch": 2062,
      "##mu": 2063,
      "##oder": 2064,
      "ev": 2065,
      "histor": 2066,
      "anf": 2067,
      "schaff": 2068,
      "##ohne": 2069,
      "änderungsant": 2070,
      "kat": 2071,
      "##gebung": 2072,
      "trotz": 2073,
      "##bo": 2074,
      "##na": 2075,
      "##port": 2076,
      "##schluss": 2077,
      "versuch": 2078,
      "verbraucher": 2079,
      "höch": 2080,
      "stabil": 2081,
      "##ählen": 2082,
      "##tis": 2083,
      "##gor": 2084,
      "darf": 2085,
      "nehmen": 2086,
      "kun": 2087,
      "##ame": 2088,
      "rund": 2089,
      "##bel": 2090,
      "##dest": 2091,
      "##to": 2092,
      "einsch": 2093,
      "abkommen": 2094,
      "##hem": 2095,
      "##äum": 2096,
      "bevöl": 2097,
      "##onds": 2098,
      "ober": 2099,
      "wirtschafts": 2100,
      "süd": 2101,
      "prü": 2102,
      "##öffent": 2103,
      "##leben": 2104,
      "meinung": 2105,
      "kommt": 2106,
      "##ore": 2107,
      "##org": 2108,
      "les": 2109,
      "jede": 2110,
      "einger": 2111,
      "##vorsch": 2112,
      "##ital": 2113,
      "wenig": 2114,
      "##einer": 2115,
      "##fassung": 2116,
      "strategie": 2117,
      "##ßt": 2118,
      "##jen": 2119,
      "leg": 2120,
      "online": 2121,
      "fischer": 2122,
      "prak": 2123,
      "rom": 2124,
      "tradition": 2125,
      "##züglich": 2126,
      "park": 2127,
      "new": 2128,
      "nächsten": 2129,
      "vorgesch": 2130,
      "auszu": 2131,
      "oft": 2132,
      "##ly": 2133,
      "deutschland": 2134,
      "meer": 2135,
      "##unkte": 2136,
      "##mals": 2137,
      "arbei": 2138,
      "folgen": 2139,
      "benö": 2140,
      "##kar": 2141,
      "nähe": 2142,
      "innov": 2143,
      "anwendung": 2144,
      "setz": 2145,
      "##reiben": 2146,
      "blick": 2147,
      "##izien": 2148,
      "##produ": 2149,
      "##ssel": 2150,
      "##gru": 2151,
      "fre": 2152,
      "##schaf": 2153,
      "##ult": 2154,
      "##rieg": 2155,
      "gemeinsame": 2156,
      "umsetzung": 2157,
      "kom": 2158,
      "##richtung": 2159,
      "elekt": 2160,
      "##eten": 2161,
      "##ession": 2162,
      "ihres": 2163,
      "##ance": 2164,
      "erfolgreich": 2165,
      "##verständ": 2166,
      "##por": 2167,
      "information": 2168,
      "##ange": 2169,
      "unabhäng": 2170,
      "such": 2171,
      "chr": 2172,
      "geh": 2173,
      "##ay": 2174,
      "##ure": 2175,
      "##frist": 2176,
      "##ans": 2177,
      "anst": 2178,
      "tr": 2179,
      "lag": 2180,
      "##ließen": 2181,
      "nieder": 2182,
      "qual": 2183,
      "bekannt": 2184,
      "unterstützt": 2185,
      "aben": 2186,
      "##zun": 2187,
      "raum": 2188,
      "druck": 2189,
      "##lag": 2190,
      "gebiet": 2191,
      "steuer": 2192,
      "weiteren": 2193,
      "##zimmer": 2194,
      "##rinzip": 2195,
      "wegen": 2196,
      "##haltung": 2197,
      "prozess": 2198,
      "##inge": 2199,
      "##ül": 2200,
      "tages": 2201,
      "beteil": 2202,
      "liefer": 2203,
      "sen": 2204,
      "fünf": 2205,
      "fa": 2206,
      "wort": 2207,
      "gemacht": 2208,
      "richtung": 2209,
      "mitarbei": 2210,
      "empfeh": 2211,
      "klima": 2212,
      "##lauf": 2213,
      "##achen": 2214,
      "##tung": 2215,
      "##ca": 2216,
      "##prochen": 2217,
      "auswirk": 2218,
      "hinzu": 2219,
      "##sprü": 2220,
      "jedes": 2221,
      "vis": 2222,
      "##ühr": 2223,
      "##isik": 2224,
      "gehen": 2225,
      "luft": 2226,
      "gi": 2227,
      "unters": 2228,
      "einsatz": 2229,
      "zunächst": 2230,
      "version": 2231,
      "##mer": 2232,
      "internationale": 2233,
      "west": 2234,
      "##eun": 2235,
      "schritt": 2236,
      "##emit": 2237,
      "##anten": 2238,
      "dürfen": 2239,
      "platz": 2240,
      "aufmerk": 2241,
      "##ategor": 2242,
      "tätig": 2243,
      "einf": 2244,
      "ebenso": 2245,
      "reihe": 2246,
      "##stelle": 2247,
      "wissenschaft": 2248,
      "kleinen": 2249,
      "italien": 2250,
      "univers": 2251,
      "arch": 2252,
      "##ublik": 2253,
      "angelegen": 2254,
      "he": 2255,
      "frank": 2256,
      "##rifft": 2257,
      "daran": 2258,
      "sport": 2259,
      "akzep": 2260,
      "grundlage": 2261,
      "##ligen": 2262,
      "##mitt": 2263,
      "##llig": 2264,
      "##llt": 2265,
      "##system": 2266,
      "##amt": 2267,
      "erziel": 2268,
      "bisher": 2269,
      "nord": 2270,
      "kunst": 2271,
      "einzelnen": 2272,
      "##arbeiten": 2273,
      "ged": 2274,
      "##zeichnet": 2275,
      "pak": 2276,
      "ic": 2277,
      "ster": 2278,
      "mitt": 2279,
      "##würd": 2280,
      "##ith": 2281,
      "anw": 2282,
      "ersch": 2283,
      "##verfahren": 2284,
      "aufmerksam": 2285,
      "##kr": 2286,
      "tu": 2287,
      "##undert": 2288,
      "##sie": 2289,
      "besitz": 2290,
      "grü": 2291,
      "ka": 2292,
      "##mt": 2293,
      "bringen": 2294,
      "##tungen": 2295,
      "do": 2296,
      "veröffent": 2297,
      "wettbewerbs": 2298,
      "arbeitsp": 2299,
      "##eta": 2300,
      "##issen": 2301,
      "##ivi": 2302,
      "mobil": 2303,
      "sep": 2304,
      "text": 2305,
      "damen": 2306,
      "schließlich": 2307,
      "##able": 2308,
      "##fung": 2309,
      "verschiedene": 2310,
      "findet": 2311,
      "interesse": 2312,
      "könne": 2313,
      "##burg": 2314,
      "entscheidung": 2315,
      "vollständ": 2316,
      "herz": 2317,
      "fast": 2318,
      "##tete": 2319,
      "ziele": 2320,
      "wachstum": 2321,
      "##inter": 2322,
      "##heb": 2323,
      "##ürz": 2324,
      "sc": 2325,
      "bedingungen": 2326,
      "anerk": 2327,
      "vertrau": 2328,
      "verantwortung": 2329,
      "##immt": 2330,
      "mark": 2331,
      "jen": 2332,
      "lange": 2333,
      "behör": 2334,
      "##arbeitung": 2335,
      "leider": 2336,
      "##yn": 2337,
      "hinblick": 2338,
      "blo": 2339,
      "##fel": 2340,
      "lok": 2341,
      "musik": 2342,
      "##auft": 2343,
      "terror": 2344,
      "##ektor": 2345,
      "erl": 2346,
      "##spräsiden": 2347,
      "##ober": 2348,
      "##lätze": 2349,
      "##ähl": 2350,
      "##struktur": 2351,
      "##stens": 2352,
      "##kerung": 2353,
      "##reiten": 2354,
      "rad": 2355,
      "wo": 2356,
      "brauchen": 2357,
      "##damit": 2358,
      "binnen": 2359,
      "zentrum": 2360,
      "kraft": 2361,
      "minuten": 2362,
      "bri": 2363,
      "sozialen": 2364,
      "##linien": 2365,
      "diskuss": 2366,
      "span": 2367,
      "##schn": 2368,
      "deutlich": 2369,
      "##umente": 2370,
      "##annte": 2371,
      "weltweit": 2372,
      "erwäh": 2373,
      "gegeben": 2374,
      "##ari": 2375,
      "denk": 2376,
      "##auber": 2377,
      "ti": 2378,
      "menschenrechte": 2379,
      "frieden": 2380,
      "##geh": 2381,
      "hol": 2382,
      "##met": 2383,
      "##wel": 2384,
      "vorschläge": 2385,
      "ren": 2386,
      "mag": 2387,
      "debatte": 2388,
      "##nissen": 2389,
      "sicherheits": 2390,
      "gesamten": 2391,
      "überprü": 2392,
      "anal": 2393,
      "##gern": 2394,
      "##arf": 2395,
      "##treten": 2396,
      "mitglieder": 2397,
      "##frau": 2398,
      "handelt": 2399,
      "##auss": 2400,
      "nachhal": 2401,
      "##urop": 2402,
      "##istischen": 2403,
      "wind": 2404,
      "dr": 2405,
      "defin": 2406,
      "##uld": 2407,
      "##itär": 2408,
      "franz": 2409,
      "##we": 2410,
      "##ividu": 2411,
      "läng": 2412,
      "landwirtschaft": 2413,
      "finanzie": 2414,
      "##weisen": 2415,
      "imm": 2416,
      "demokratie": 2417,
      "##uni": 2418,
      "mode": 2419,
      "fach": 2420,
      "ansch": 2421,
      "bekämpf": 2422,
      "verfol": 2423,
      "überein": 2424,
      "bi": 2425,
      "##sel": 2426,
      "gegenwär": 2427,
      "erinner": 2428,
      "air": 2429,
      "##ba": 2430,
      "car": 2431,
      "##rachten": 2432,
      "##ekten": 2433,
      "sagen": 2434,
      "##kung": 2435,
      "##grü": 2436,
      "##tigkeit": 2437,
      "geschichte": 2438,
      "währ": 2439,
      "##rat": 2440,
      "veranst": 2441,
      "beispielsweise": 2442,
      "haushalt": 2443,
      "hohen": 2444,
      "##gelegt": 2445,
      "##atten": 2446,
      "ausdruck": 2447,
      "auswirkungen": 2448,
      "##ome": 2449,
      "vö": 2450,
      "zuständ": 2451,
      "sicht": 2452,
      "liste": 2453,
      "später": 2454,
      "##uz": 2455,
      "##gleich": 2456,
      "##ichtet": 2457,
      "##anc": 2458,
      "ergebnis": 2459,
      "änderungsantrag": 2460,
      "werk": 2461,
      "ausgestat": 2462,
      "mater": 2463,
      "##zeichne": 2464,
      "##stru": 2465,
      "##scher": 2466,
      "##haben": 2467,
      "tatsächlich": 2468,
      "##ante": 2469,
      "##dr": 2470,
      "zuge": 2471,
      "bal": 2472,
      "##üssen": 2473,
      "sollen": 2474,
      "##stellungen": 2475,
      "kolleginnen": 2476,
      "abzu": 2477,
      "garan": 2478,
      "tä": 2479,
      "##rop": 2480,
      "##scht": 2481,
      "reform": 2482,
      "interessen": 2483,
      "##up": 2484,
      "##ight": 2485,
      "notwendig": 2486,
      "transpar": 2487,
      "zeich": 2488,
      "jedem": 2489,
      "##immen": 2490,
      "pe": 2491,
      "kompl": 2492,
      "##önnen": 2493,
      "wär": 2494,
      "gebie": 2495,
      "##eint": 2496,
      "##platz": 2497,
      "verwendet": 2498,
      "sto": 2499,
      "verhandlungen": 2500,
      "##ches": 2501,
      "familien": 2502,
      "verpflicht": 2503,
      "stelle": 2504,
      "##bildung": 2505,
      "vereinigten": 2506,
      "##edig": 2507,
      "kn": 2508,
      "zudem": 2509,
      "individu": 2510,
      "lö": 2511,
      "vertre": 2512,
      "##eda": 2513,
      "typ": 2514,
      "schwei": 2515,
      "##orden": 2516,
      "sinn": 2517,
      "erreicht": 2518,
      "##deu": 2519,
      "##alle": 2520,
      "##gesetz": 2521,
      "angebot": 2522,
      "derzeit": 2523,
      "schaffen": 2524,
      "verfügt": 2525,
      "##fl": 2526,
      "no": 2527,
      "##zur": 2528,
      "kleine": 2529,
      "institutionen": 2530,
      "vide": 2531,
      "unseres": 2532,
      "verhinder": 2533,
      "up": 2534,
      "miss": 2535,
      "angesichts": 2536,
      "enthalten": 2537,
      "risik": 2538,
      "##dann": 2539,
      "alt": 2540,
      "prot": 2541,
      "vern": 2542,
      "##ordin": 2543,
      "gruppe": 2544,
      "strateg": 2545,
      "ganze": 2546,
      "verbindung": 2547,
      "ganzen": 2548,
      "schlussel": 2549,
      "##zess": 2550,
      "gerne": 2551,
      "##flä": 2552,
      "sub": 2553,
      "##jahr": 2554,
      "kons": 2555,
      "##teile": 2556,
      "##gesehen": 2557,
      "vorlie": 2558,
      "landes": 2559,
      "team": 2560,
      "sal": 2561,
      "##stoff": 2562,
      "gast": 2563,
      "integr": 2564,
      "hinsichtlich": 2565,
      "##ino": 2566,
      "##ingen": 2567,
      "morgen": 2568,
      "gesagt": 2569,
      "handels": 2570,
      "log": 2571,
      "dadurch": 2572,
      "glau": 2573,
      "em": 2574,
      "meines": 2575,
      "antwort": 2576,
      "##iten": 2577,
      "##wiesen": 2578,
      "##teilt": 2579,
      "rep": 2580,
      "wohn": 2581,
      "gelten": 2582,
      "##isen": 2583,
      "##zum": 2584,
      "##steller": 2585,
      "##bank": 2586,
      "str": 2587,
      "mehrere": 2588,
      "beziehungen": 2589,
      "würden": 2590,
      "dienstleistungen": 2591,
      "kauf": 2592,
      "##standen": 2593,
      "bra": 2594,
      "##obei": 2595,
      "wirtschaftlichen": 2596,
      "tex": 2597,
      "belie": 2598,
      "tie": 2599,
      "wichtigen": 2600,
      "häu": 2601,
      "regionen": 2602,
      "somit": 2603,
      "##ix": 2604,
      "möglichkeiten": 2605,
      "##idie": 2606,
      "##etzung": 2607,
      "##nahm": 2608,
      "angem": 2609,
      "umfassen": 2610,
      "erweiterung": 2611,
      "beitrag": 2612,
      "##techn": 2613,
      "klick": 2614,
      "änderungsanträge": 2615,
      "förderung": 2616,
      "gehört": 2617,
      "dialog": 2618,
      "##lexib": 2619,
      "stimme": 2620,
      "benutzer": 2621,
      "##kan": 2622,
      "##bahn": 2623,
      "gestimm": 2624,
      "einzig": 2625,
      "##ontro": 2626,
      "höher": 2627,
      "flü": 2628,
      "verordnung": 2629,
      "kampf": 2630,
      "sä": 2631,
      "##vol": 2632,
      "hä": 2633,
      "fischerei": 2634,
      "vergleich": 2635,
      "bevölkerung": 2636,
      "##staat": 2637,
      "bereichen": 2638,
      "lä": 2639,
      "##üt": 2640,
      "##pe": 2641,
      "ruh": 2642,
      "reise": 2643,
      "abend": 2644,
      "##grenz": 2645,
      "##reck": 2646,
      "trans": 2647,
      "##fähigkeit": 2648,
      "frühstück": 2649,
      "##rang": 2650,
      "##tember": 2651,
      "abgeordneten": 2652,
      "anfang": 2653,
      "##barkeit": 2654,
      "##arität": 2655,
      "##seite": 2656,
      "bro": 2657,
      "augen": 2658,
      "##abel": 2659,
      "##alter": 2660,
      "##eute": 2661,
      "##leg": 2662,
      "zimm": 2663,
      "fuß": 2664,
      "aufent": 2665,
      "wichti": 2666,
      "china": 2667,
      "kir": 2668,
      "länd": 2669,
      "##ikation": 2670,
      "verstär": 2671,
      "##agen": 2672,
      "umfang": 2673,
      "integra": 2674,
      "national": 2675,
      "mul": 2676,
      "wunder": 2677,
      "##laden": 2678,
      "##folge": 2679,
      "hätte": 2680,
      "nutzung": 2681,
      "verteid": 2682,
      "nov": 2683,
      "##itionen": 2684,
      "kontrolle": 2685,
      "liss": 2686,
      "bahn": 2687,
      "bleiben": 2688,
      "prior": 2689,
      "gewährleist": 2690,
      "##ländern": 2691,
      "##sor": 2692,
      "##fli": 2693,
      "##haft": 2694,
      "##ählt": 2695,
      "verz": 2696,
      "##fäl": 2697,
      "##eller": 2698,
      "jan": 2699,
      "halten": 2700,
      "##eigen": 2701,
      "gefähr": 2702,
      "##ution": 2703,
      "##ef": 2704,
      "vorgeschlagen": 2705,
      "lissab": 2706,
      "##sion": 2707,
      "chin": 2708,
      "komfort": 2709,
      "kontroll": 2710,
      "entwickel": 2711,
      "aufzu": 2712,
      "angenommen": 2713,
      "##ichten": 2714,
      "##renz": 2715,
      "stat": 2716,
      "wichtigsten": 2717,
      "design": 2718,
      "verbesserung": 2719,
      "aktion": 2720,
      "koordin": 2721,
      "stunden": 2722,
      "tele": 2723,
      "dam": 2724,
      "beruf": 2725,
      "daß": 2726,
      "jü": 2727,
      "##essour": 2728,
      "ausschusses": 2729,
      "##entwick": 2730,
      "führt": 2731,
      "##gedie": 2732,
      "mic": 2733,
      "##erweise": 2734,
      "gere": 2735,
      "##oper": 2736,
      "gewalt": 2737,
      "konferenz": 2738,
      "konnte": 2739,
      "##mehr": 2740,
      "mitarbeiter": 2741,
      "##nden": 2742,
      "##onen": 2743,
      "finde": 2744,
      "halte": 2745,
      "##fragen": 2746,
      "verkauf": 2747,
      "fehler": 2748,
      "auswahl": 2749,
      "##programm": 2750,
      "bedeuten": 2751,
      "##ämlich": 2752,
      "##hafen": 2753,
      "##mitteln": 2754,
      "##vention": 2755,
      "einheit": 2756,
      "anwend": 2757,
      "fe": 2758,
      "treffen": 2759,
      "vorber": 2760,
      "urlaub": 2761,
      "ord": 2762,
      "wochen": 2763,
      "lux": 2764,
      "##ziehen": 2765,
      "durchge": 2766,
      "##gesamt": 2767,
      "deta": 2768,
      "wirksam": 2769,
      "krise": 2770,
      "##jähr": 2771,
      "isra": 2772,
      "##uns": 2773,
      "hohe": 2774,
      "russland": 2775,
      "##haupt": 2776,
      "##gliche": 2777,
      "##seh": 2778,
      "##während": 2779,
      "liber": 2780,
      "ansicht": 2781,
      "##ließend": 2782,
      "##ausch": 2783,
      "guten": 2784,
      "dessen": 2785,
      "juni": 2786,
      "volk": 2787,
      "dopp": 2788,
      "türkei": 2789,
      "innen": 2790,
      "ermöglicht": 2791,
      "kern": 2792,
      "##liz": 2793,
      "entschließung": 2794,
      "könig": 2795,
      "künst": 2796,
      "ziv": 2797,
      "##ums": 2798,
      "welche": 2799,
      "zentral": 2800,
      "gab": 2801,
      "##rak": 2802,
      "geeig": 2803,
      "##rechend": 2804,
      "##etten": 2805,
      "vorhand": 2806,
      "##ennung": 2807,
      "herren": 2808,
      "##kann": 2809,
      "ständ": 2810,
      "isdass": 2811,
      "fal": 2812,
      "tage": 2813,
      "nahe": 2814,
      "##arbeitet": 2815,
      "militär": 2816,
      "ed": 2817,
      "französ": 2818,
      "stark": 2819,
      "grundsätz": 2820,
      "themen": 2821,
      "ernst": 2822,
      "tem": 2823,
      "insel": 2824,
      "##fahrt": 2825,
      "forschung": 2826,
      "international": 2827,
      "##undass": 2828,
      "##kom": 2829,
      "##undes": 2830,
      "gebäu": 2831,
      "##gäng": 2832,
      "##dies": 2833,
      "zweck": 2834,
      "formul": 2835,
      "test": 2836,
      "##formen": 2837,
      "##usst": 2838,
      "##kauf": 2839,
      "engl": 2840,
      "schaffung": 2841,
      "absol": 2842,
      "bemüh": 2843,
      "strand": 2844,
      "lissabon": 2845,
      "eigent": 2846,
      "##no": 2847,
      "acht": 2848,
      "sprechen": 2849,
      "flexib": 2850,
      "insgesamt": 2851,
      "stad": 2852,
      "übrigen": 2853,
      "##ice": 2854,
      "##zept": 2855,
      "##av": 2856,
      "##besch": 2857,
      "##rechts": 2858,
      "behörden": 2859,
      "##lang": 2860,
      "optim": 2861,
      "position": 2862,
      "adr": 2863,
      "##own": 2864,
      "##freund": 2865,
      "##riter": 2866,
      "##ott": 2867,
      "allgemeinen": 2868,
      "##je": 2869,
      "gesamte": 2870,
      "befinden": 2871,
      "verwendung": 2872,
      "##finden": 2873,
      "spielen": 2874,
      "könnten": 2875,
      "with": 2876,
      "betroffen": 2877,
      "völlig": 2878,
      "##idass": 2879,
      "neuer": 2880,
      "dritten": 2881,
      "gipf": 2882,
      "##fon": 2883,
      "anzahl": 2884,
      "##riffen": 2885,
      "darin": 2886,
      "mai": 2887,
      "großer": 2888,
      "room": 2889,
      "ehr": 2890,
      "##rachen": 2891,
      "dig": 2892,
      "genießen": 2893,
      "allein": 2894,
      "städ": 2895,
      "zahlreiche": 2896,
      "##mäßig": 2897,
      "mehrheit": 2898,
      "afri": 2899,
      "##vis": 2900,
      "vorauss": 2901,
      "ähn": 2902,
      "schle": 2903,
      "##heim": 2904,
      "zivil": 2905,
      "herzen": 2906,
      "##pen": 2907,
      "eigene": 2908,
      "bank": 2909,
      "binnenmarkt": 2910,
      "müss": 2911,
      "##akter": 2912,
      "institution": 2913,
      "richtig": 2914,
      "##teten": 2915,
      "staats": 2916,
      "##hat": 2917,
      "apart": 2918,
      "ergebnisse": 2919,
      "arm": 2920,
      "##reibung": 2921,
      "ferien": 2922,
      "meinem": 2923,
      "mot": 2924,
      "mom": 2925,
      "##eben": 2926,
      "lösungen": 2927,
      "gestellt": 2928,
      "tre": 2929,
      "effizien": 2930,
      "##äst": 2931,
      "irgend": 2932,
      "##echan": 2933,
      "sonder": 2934,
      "##onnen": 2935,
      "disku": 2936,
      "ther": 2937,
      "selbstverständ": 2938,
      "bestand": 2939,
      "liegen": 2940,
      "mod": 2941,
      "##res": 2942,
      "berg": 2943,
      "wettbewerb": 2944,
      "integration": 2945,
      "##ologie": 2946,
      "aufgabe": 2947,
      "##ried": 2948,
      "entwickelt": 2949,
      "##ktor": 2950,
      "##isierung": 2951,
      "##gedass": 2952,
      "##fonds": 2953,
      "##ness": 2954,
      "woche": 2955,
      "geschlossen": 2956,
      "gleichen": 2957,
      "krieg": 2958,
      "##örper": 2959,
      "berlin": 2960,
      "jugend": 2961,
      "gescha": 2962,
      "##tio": 2963,
      "grie": 2964,
      "wein": 2965,
      "##reib": 2966,
      "##teilen": 2967,
      "cas": 2968,
      "einw": 2969,
      "##luß": 2970,
      "familie": 2971,
      "##öhn": 2972,
      "##chter": 2973,
      "gek": 2974,
      "##öst": 2975,
      "##sehen": 2976,
      "##ender": 2977,
      "bein": 2978,
      "##ins": 2979,
      "meinen": 2980,
      "##les": 2981,
      "##okoll": 2982,
      "##indem": 2983,
      "##sicher": 2984,
      "##länd": 2985,
      "deutschen": 2986,
      "metho": 2987,
      "solid": 2988,
      "##vorschriften": 2989,
      "schriftlich": 2990,
      "##politi": 2991,
      "anbie": 2992,
      "setzen": 2993,
      "ass": 2994,
      "sag": 2995,
      "komprom": 2996,
      "soziale": 2997,
      "gemäß": 2998,
      "vertrags": 2999,
      "einführung": 3000,
      "erster": 3001,
      "vill": 3002,
      "##richtungen": 3003,
      "ratspräsiden": 3004,
      "##gten": 3005,
      "##pass": 3006,
      "##nern": 3007,
      "##edit": 3008,
      "kennt": 3009,
      "by": 3010,
      "computer": 3011,
      "eindeu": 3012,
      "effek": 3013,
      "##rägt": 3014,
      "erachten": 3015,
      "max": 3016,
      "betrifft": 3017,
      "##ürf": 3018,
      "##ediglich": 3019,
      "zweite": 3020,
      "stellung": 3021,
      "darum": 3022,
      "hum": 3023,
      "gesp": 3024,
      "möglichkei": 3025,
      "untersuch": 3026,
      "äußerst": 3027,
      "##ret": 3028,
      "größten": 3029,
      "inhalt": 3030,
      "kontakt": 3031,
      "lehr": 3032,
      "konfli": 3033,
      "##dio": 3034,
      "##angel": 3035,
      "##utet": 3036,
      "##lusi": 3037,
      "dor": 3038,
      "##leb": 3039,
      "##artige": 3040,
      "##häre": 3041,
      "privat": 3042,
      "##splan": 3043,
      "unterb": 3044,
      "##bek": 3045,
      "betrieb": 3046,
      "##iew": 3047,
      "dez": 3048,
      "altern": 3049,
      "tat": 3050,
      "##ire": 3051,
      "##worten": 3052,
      "##stu": 3053,
      "dennoch": 3054,
      "hervorra": 3055,
      "##va": 3056,
      "##nach": 3057,
      "höhe": 3058,
      "hatten": 3059,
      "##ausschuss": 3060,
      "bevor": 3061,
      "gesamt": 3062,
      "server": 3063,
      "vorzu": 3064,
      "jähr": 3065,
      "##pfer": 3066,
      "##einander": 3067,
      "alten": 3068,
      "##unt": 3069,
      "##hung": 3070,
      "erfahrung": 3071,
      "##frieden": 3072,
      "ausreich": 3073,
      "##iar": 3074,
      "früher": 3075,
      "##iden": 3076,
      "sommer": 3077,
      "##geschlossen": 3078,
      "##armon": 3079,
      "##sterreich": 3080,
      "##text": 3081,
      "##svor": 3082,
      "erheb": 3083,
      "weiß": 3084,
      "reserv": 3085,
      "erforderlich": 3086,
      "datei": 3087,
      "öff": 3088,
      "##int": 3089,
      "##nicht": 3090,
      "##istische": 3091,
      "dokument": 3092,
      "angemessen": 3093,
      "beschäftigung": 3094,
      "##ritts": 3095,
      "leicht": 3096,
      "##ets": 3097,
      "beste": 3098,
      "prinzip": 3099,
      "iden": 3100,
      "##mosp": 3101,
      "frag": 3102,
      "sign": 3103,
      "lediglich": 3104,
      "hom": 3105,
      "befür": 3106,
      "##cker": 3107,
      "##ows": 3108,
      "##buch": 3109,
      "##stelledass": 3110,
      "##kosten": 3111,
      "##istr": 3112,
      "präsidenti": 3113,
      "erachtens": 3114,
      "bekämpfung": 3115,
      "kand": 3116,
      "##echsel": 3117,
      "##tiger": 3118,
      "kre": 3119,
      "##diese": 3120,
      "host": 3121,
      "überzeu": 3122,
      "##yl": 3123,
      "geist": 3124,
      "##ec": 3125,
      "##aren": 3126,
      "##minister": 3127,
      "vorhanden": 3128,
      "##atio": 3129,
      "hinweis": 3130,
      "##xis": 3131,
      "##atis": 3132,
      "##ents": 3133,
      "zeigt": 3134,
      "##sprüng": 3135,
      "enthält": 3136,
      "##etter": 3137,
      "anderer": 3138,
      "##hilfe": 3139,
      "diskussion": 3140,
      "post": 3141,
      "links": 3142,
      "umgebung": 3143,
      "dro": 3144,
      "##organis": 3145,
      "bestimmten": 3146,
      "##get": 3147,
      "ereig": 3148,
      "leistungs": 3149,
      "dra": 3150,
      "##reisen": 3151,
      "cor": 3152,
      "bedeutet": 3153,
      "oper": 3154,
      "dom": 3155,
      "##ule": 3156,
      "abhäng": 3157,
      "mass": 3158,
      "jüng": 3159,
      "##za": 3160,
      "basis": 3161,
      "##maßnahmen": 3162,
      "minister": 3163,
      "anspruch": 3164,
      "beginn": 3165,
      "bestimmte": 3166,
      "schütz": 3167,
      "##inden": 3168,
      "agr": 3169,
      "okt": 3170,
      "fri": 3171,
      "untersch": 3172,
      "änderungen": 3173,
      "##möglichen": 3174,
      "##loss": 3175,
      "bot": 3176,
      "##gelung": 3177,
      "doppel": 3178,
      "##ewie": 3179,
      "##spart": 3180,
      "vorher": 3181,
      "bleibt": 3182,
      "agen": 3183,
      "beschrän": 3184,
      "##ona": 3185,
      "##lös": 3186,
      "##ld": 3187,
      "##zeigt": 3188,
      "flughafen": 3189,
      "##ration": 3190,
      "verbesser": 3191,
      "##unsch": 3192,
      "gewiss": 3193,
      "israel": 3194,
      "ausführ": 3195,
      "diejen": 3196,
      "can": 3197,
      "initiative": 3198,
      "ursprüng": 3199,
      "präsen": 3200,
      "tur": 3201,
      "jahrhundert": 3202,
      "dauer": 3203,
      "wirtschaftliche": 3204,
      "##hoben": 3205,
      "##emen": 3206,
      "beru": 3207,
      "september": 3208,
      "obj": 3209,
      "##essourcen": 3210,
      "eigentlich": 3211,
      "woh": 3212,
      "##reng": 3213,
      "reduz": 3214,
      "##bes": 3215,
      "##schinen": 3216,
      "unterk": 3217,
      "##bewertungen": 3218,
      "##berg": 3219,
      "##einem": 3220,
      "##lose": 3221,
      "exper": 3222,
      "##etzungen": 3223,
      "solchen": 3224,
      "einzige": 3225,
      "protokoll": 3226,
      "vergangenen": 3227,
      "verab": 3228,
      "mont": 3229,
      "##ue": 3230,
      "kontin": 3231,
      "eg": 3232,
      "##ons": 3233,
      "fäh": 3234,
      "technologie": 3235,
      "##altungs": 3236,
      "dezember": 3237,
      "##schw": 3238,
      "sprache": 3239,
      "klicken": 3240,
      "##uar": 3241,
      "##bil": 3242,
      "erlaub": 3243,
      "##inst": 3244,
      "stabilität": 3245,
      "standpunkt": 3246,
      "selbstverständlich": 3247,
      "haup": 3248,
      "##sprogramm": 3249,
      "##werte": 3250,
      "preise": 3251,
      "##edamit": 3252,
      "brü": 3253,
      "##liegen": 3254,
      "##tensi": 3255,
      "extr": 3256,
      "erklärung": 3257,
      "aktivitäten": 3258,
      "zeitpunkt": 3259,
      "wenige": 3260,
      "##daten": 3261,
      "drin": 3262,
      "verpflich": 3263,
      "##err": 3264,
      "sprach": 3265,
      "grundle": 3266,
      "atmosp": 3267,
      "##wurf": 3268,
      "##erseits": 3269,
      "rede": 3270,
      "sagedass": 3271,
      "film": 3272,
      "##wegen": 3273,
      "personal": 3274,
      "bezüglich": 3275,
      "keiner": 3276,
      "##legung": 3277,
      "präsidentschaft": 3278,
      "##isc": 3279,
      "##reite": 3280,
      "##ategorien": 3281,
      "##lassen": 3282,
      "volks": 3283,
      "speich": 3284,
      "juli": 3285,
      "anti": 3286,
      "wiederhol": 3287,
      "##volle": 3288,
      "##zeuge": 3289,
      "gästebewertungen": 3290,
      "nachfol": 3291,
      "instrument": 3292,
      "##önen": 3293,
      "europäischer": 3294,
      "regierungen": 3295,
      "##gestell": 3296,
      "##lub": 3297,
      "angeh": 3298,
      "##utter": 3299,
      "##insbesondere": 3300,
      "jewei": 3301,
      "sektor": 3302,
      "##deren": 3303,
      "dritt": 3304,
      "überwach": 3305,
      "##rete": 3306,
      "häufig": 3307,
      "paar": 3308,
      "nr": 3309,
      "beide": 3310,
      "verkehrs": 3311,
      "lässt": 3312,
      "sofort": 3313,
      "are": 3314,
      "eröff": 3315,
      "gehören": 3316,
      "erken": 3317,
      "anfrage": 3318,
      "auc": 3319,
      "regeln": 3320,
      "verständ": 3321,
      "##kraft": 3322,
      "##anzen": 3323,
      "bestimmungen": 3324,
      "##ied": 3325,
      "##ieg": 3326,
      "rein": 3327,
      "bekommen": 3328,
      "##denken": 3329,
      "##dienst": 3330,
      "glück": 3331,
      "fo": 3332,
      "##plan": 3333,
      "berüh": 3334,
      "ba": 3335,
      "nacht": 3336,
      "gemeinschafts": 3337,
      "##igkei": 3338,
      "berei": 3339,
      "##geber": 3340,
      "bundes": 3341,
      "heim": 3342,
      "christ": 3343,
      "verhält": 3344,
      "fortschritte": 3345,
      "che": 3346,
      "tri": 3347,
      "##iegel": 3348,
      "offiz": 3349,
      "##urt": 3350,
      "medien": 3351,
      "märz": 3352,
      "mittler": 3353,
      "##läng": 3354,
      "##han": 3355,
      "##industrie": 3356,
      "##lege": 3357,
      "obwohl": 3358,
      "beob": 3359,
      "minder": 3360,
      "anforderungen": 3361,
      "##que": 3362,
      "agrar": 3363,
      "konzentr": 3364,
      "entdeck": 3365,
      "stre": 3366,
      "##ielt": 3367,
      "##klusi": 3368,
      "##sent": 3369,
      "##erst": 3370,
      "punkte": 3371,
      "weil": 3372,
      "programme": 3373,
      "jap": 3374,
      "##hlen": 3375,
      "kenn": 3376,
      "verring": 3377,
      "grenzen": 3378,
      "##bew": 3379,
      "##fik": 3380,
      "tatsach": 3381,
      "seh": 3382,
      "##gien": 3383,
      "beitra": 3384,
      "komb": 3385,
      "gruppen": 3386,
      "##dedie": 3387,
      "profession": 3388,
      "##ungedie": 3389,
      "##beg": 3390,
      "aufmerksamkeit": 3391,
      "##utzt": 3392,
      "zehn": 3393,
      "beweg": 3394,
      "##tt": 3395,
      "stil": 3396,
      "##ünftig": 3397,
      "neues": 3398,
      "unmittel": 3399,
      "wand": 3400,
      "bedürf": 3401,
      "zahlen": 3402,
      "##kra": 3403,
      "beein": 3404,
      "real": 3405,
      "##ions": 3406,
      "##ierter": 3407,
      "tab": 3408,
      "##abkommen": 3409,
      "gesundheits": 3410,
      "##räum": 3411,
      "januar": 3412,
      "österreich": 3413,
      "öffentliche": 3414,
      "dist": 3415,
      "oktober": 3416,
      "gering": 3417,
      "##ckt": 3418,
      "vorschriften": 3419,
      "##eister": 3420,
      "schlü": 3421,
      "har": 3422,
      "konz": 3423,
      "harmon": 3424,
      "auto": 3425,
      "##schung": 3426,
      "dafü": 3427,
      "this": 3428,
      "gründen": 3429,
      "unternehmens": 3430,
      "män": 3431,
      "verfügen": 3432,
      "##ose": 3433,
      "##orn": 3434,
      "##zeichnung": 3435,
      "##samm": 3436,
      "erhält": 3437,
      "##ernen": 3438,
      "weder": 3439,
      "##flü": 3440,
      "##rägen": 3441,
      "##angeb": 3442,
      "rot": 3443,
      "##cel": 3444,
      "dinge": 3445,
      "elektron": 3446,
      "begrüße": 3447,
      "tagesordnung": 3448,
      "ausgestattet": 3449,
      "gmb": 3450,
      "verbind": 3451,
      "##gesellschaft": 3452,
      "##tit": 3453,
      "kommissio": 3454,
      "organisation": 3455,
      "aufenthalt": 3456,
      "very": 3457,
      "##sprozess": 3458,
      "stimmen": 3459,
      "verwenden": 3460,
      "hör": 3461,
      "aktuellen": 3462,
      "ww": 3463,
      "schl": 3464,
      "##räfte": 3465,
      "##möglichkeiten": 3466,
      "samm": 3467,
      "##ux": 3468,
      "archite": 3469,
      "entsprechend": 3470,
      "falls": 3471,
      "belieb": 3472,
      "abw": 3473,
      "loc": 3474,
      "för": 3475,
      "##atischen": 3476,
      "sorgen": 3477,
      "down": 3478,
      "moment": 3479,
      "##will": 3480,
      "##licdass": 3481,
      "besondere": 3482,
      "sw": 3483,
      "poten": 3484,
      "linie": 3485,
      "frankreich": 3486,
      "vorsitz": 3487,
      "charakter": 3488,
      "öffentlichkeit": 3489,
      "##lück": 3490,
      "##omm": 3491,
      "##richten": 3492,
      "registr": 3493,
      "##rimin": 3494,
      "pap": 3495,
      "auftrag": 3496,
      "amerikan": 3497,
      "verbessern": 3498,
      "modern": 3499,
      "tier": 3500,
      "kombin": 3501,
      "##zt": 3502,
      "aufgenommen": 3503,
      "##vert": 3504,
      "##laf": 3505,
      "vorgesehen": 3506,
      "##äss": 3507,
      "vertrauen": 3508,
      "##ände": 3509,
      "gebracht": 3510,
      "##low": 3511,
      "steu": 3512,
      "alter": 3513,
      "##nü": 3514,
      "##vel": 3515,
      "##ograf": 3516,
      "sämt": 3517,
      "pan": 3518,
      "jahrhunder": 3519,
      "super": 3520,
      "schlusselwor": 3521,
      "##astrop": 3522,
      "##rien": 3523,
      "##hafte": 3524,
      "völ": 3525,
      "##nu": 3526,
      "analy": 3527,
      "erzeu": 3528,
      "bestätig": 3529,
      "apr": 3530,
      "##fu": 3531,
      "##ex": 3532,
      "##falt": 3533,
      "präsidenten": 3534,
      "berichts": 3535,
      "sitzung": 3536,
      "wichtiger": 3537,
      "##stung": 3538,
      "kürz": 3539,
      "werdedie": 3540,
      "##edoch": 3541,
      "nachbar": 3542,
      "entsprechenden": 3543,
      "apartment": 3544,
      "wählen": 3545,
      "##riterien": 3546,
      "vertreter": 3547,
      "##achtung": 3548,
      "resp": 3549,
      "##ktiv": 3550,
      "ausgezeichne": 3551,
      "zunehmen": 3552,
      "##üb": 3553,
      "human": 3554,
      "ausdrück": 3555,
      "##tierung": 3556,
      "ansatz": 3557,
      "sechs": 3558,
      "aufbau": 3559,
      "projekte": 3560,
      "firma": 3561,
      "##nungen": 3562,
      "entscheidungen": 3563,
      "##ierenden": 3564,
      "##dam": 3565,
      "ergän": 3566,
      "##ax": 3567,
      "##verw": 3568,
      "wann": 3569,
      "euch": 3570,
      "wahrschein": 3571,
      "richtige": 3572,
      "##ada": 3573,
      "##doch": 3574,
      "erd": 3575,
      "klass": 3576,
      "folge": 3577,
      "bemerk": 3578,
      "deine": 3579,
      "##zunehmen": 3580,
      "##bezogen": 3581,
      "vir": 3582,
      "ost": 3583,
      "##iens": 3584,
      "bürgerinnen": 3585,
      "bezahl": 3586,
      "##ark": 3587,
      "teile": 3588,
      "arbeitnehmer": 3589,
      "lebensmittel": 3590,
      "sinne": 3591,
      "äl": 3592,
      "site": 3593,
      "##izi": 3594,
      "##ager": 3595,
      "##unternehmen": 3596,
      "sach": 3597,
      "bereiche": 3598,
      "langfrist": 3599,
      "geführt": 3600,
      "##aktion": 3601,
      "änderung": 3602,
      "##statt": 3603,
      "##alisiert": 3604,
      "##bringen": 3605,
      "gelegenheit": 3606,
      "##alte": 3607,
      "##altet": 3608,
      "bürgern": 3609,
      "paläst": 3610,
      "uner": 3611,
      "anders": 3612,
      "##losen": 3613,
      "ehem": 3614,
      "##izin": 3615,
      "bilder": 3616,
      "##orgung": 3617,
      "körper": 3618,
      "notwendigkeit": 3619,
      "mitte": 3620,
      "##wobei": 3621,
      "##lichkeiten": 3622,
      "comm": 3623,
      "genannten": 3624,
      "##eden": 3625,
      "sonst": 3626,
      "tsch": 3627,
      "##zimm": 3628,
      "##wertung": 3629,
      "##stet": 3630,
      "präsidenich": 3631,
      "modell": 3632,
      "republik": 3633,
      "krank": 3634,
      "##fil": 3635,
      "##mär": 3636,
      "mess": 3637,
      "see": 3638,
      "eher": 3639,
      "verfass": 3640,
      "rie": 3641,
      "##th": 3642,
      "prozent": 3643,
      "straßen": 3644,
      "tragen": 3645,
      "komplex": 3646,
      "##tu": 3647,
      "##tien": 3648,
      "präsidentin": 3649,
      "erneut": 3650,
      "bad": 3651,
      "informations": 3652,
      "windows": 3653,
      "##indest": 3654,
      "af": 3655,
      "##ützt": 3656,
      "##spoliti": 3657,
      "bildung": 3658,
      "##ja": 3659,
      "bedro": 3660,
      "perf": 3661,
      "behandlung": 3662,
      "günst": 3663,
      "praxis": 3664,
      "##nungs": 3665,
      "zweitens": 3666,
      "##rad": 3667,
      "##eindem": 3668,
      "##annen": 3669,
      "##ace": 3670,
      "danken": 3671,
      "lau": 3672,
      "##bezieh": 3673,
      "stei": 3674,
      "spezif": 3675,
      "entfern": 3676,
      "##forderung": 3677,
      "würd": 3678,
      "##tifiz": 3679,
      "##gest": 3680,
      "##ana": 3681,
      "eingeb": 3682,
      "milliar": 3683,
      "##reichen": 3684,
      "##igedie": 3685,
      "##mann": 3686,
      "frem": 3687,
      "besteh": 3688,
      "you": 3689,
      "helfen": 3690,
      "management": 3691,
      "kooper": 3692,
      "##anlage": 3693,
      "bald": 3694,
      "##ibt": 3695,
      "relig": 3696,
      "anderem": 3697,
      "##stör": 3698,
      "folgenden": 3699,
      "sorg": 3700,
      "schwar": 3701,
      "betriff": 3702,
      "##ci": 3703,
      "konstru": 3704,
      "##äte": 3705,
      "##iter": 3706,
      "tagen": 3707,
      "##mand": 3708,
      "##rah": 3709,
      "##obwohl": 3710,
      "monaten": 3711,
      "aug": 3712,
      "##handel": 3713,
      "aufgaben": 3714,
      "handeln": 3715,
      "webs": 3716,
      "danke": 3717,
      "##weder": 3718,
      "##igin": 3719,
      "##sequ": 3720,
      "teilen": 3721,
      "gmbh": 3722,
      "zufrieden": 3723,
      "verhalten": 3724,
      "gefü": 3725,
      "multi": 3726,
      "##tiges": 3727,
      "investitionen": 3728,
      "finanzierung": 3729,
      "technischen": 3730,
      "größte": 3731,
      "november": 3732,
      "##ament": 3733,
      "verd": 3734,
      "leich": 3735,
      "berech": 3736,
      "kompromiss": 3737,
      "##stimmen": 3738,
      "transparenz": 3739,
      "spieler": 3740,
      "##eff": 3741,
      "gerichts": 3742,
      "erfahren": 3743,
      "don": 3744,
      "##liefer": 3745,
      "##iveau": 3746,
      "##konom": 3747,
      "verurs": 3748,
      "##reif": 3749,
      "##wind": 3750,
      "golf": 3751,
      "sterne": 3752,
      "ii": 3753,
      "neg": 3754,
      "##wün": 3755,
      "durchgeführt": 3756,
      "veröffentlich": 3757,
      "april": 3758,
      "ansich": 3759,
      "los": 3760,
      "well": 3761,
      "just": 3762,
      "transport": 3763,
      "jeweiligen": 3764,
      "berühm": 3765,
      "nationen": 3766,
      "zahlreichen": 3767,
      "organ": 3768,
      "fällen": 3769,
      "video": 3770,
      "ermöglichen": 3771,
      "kompeten": 3772,
      "##ynam": 3773,
      "from": 3774,
      "fördern": 3775,
      "##steh": 3776,
      "##stag": 3777,
      "##othe": 3778,
      "außerhalb": 3779,
      "eingesetzt": 3780,
      "forschungs": 3781,
      "kontext": 3782,
      "gefunden": 3783,
      "##era": 3784,
      "winter": 3785,
      "##behör": 3786,
      "##ifiz": 3787,
      "amb": 3788,
      "solidarität": 3789,
      "kredit": 3790,
      "##stausch": 3791,
      "intensi": 3792,
      "zusätzlich": 3793,
      "##tin": 3794,
      "extrem": 3795,
      "arg": 3796,
      "##uren": 3797,
      "play": 3798,
      "##br": 3799,
      "##ink": 3800,
      "fisch": 3801,
      "begrenz": 3802,
      "##endes": 3803,
      "##stein": 3804,
      "letzte": 3805,
      "pu": 3806,
      "wünschen": 3807,
      "betreffen": 3808,
      "leit": 3809,
      "prov": 3810,
      "##arch": 3811,
      "##hren": 3812,
      "rec": 3813,
      "stet": 3814,
      "##iness": 3815,
      "ec": 3816,
      "##ünftigen": 3817,
      "verwende": 3818,
      "##do": 3819,
      "##zehn": 3820,
      "##press": 3821,
      "freiheit": 3822,
      "genommen": 3823,
      "werte": 3824,
      "bill": 3825,
      "##hotel": 3826,
      "moderne": 3827,
      "##ds": 3828,
      "##ps": 3829,
      "##dessen": 3830,
      "##utt": 3831,
      "##glic": 3832,
      "est": 3833,
      "##können": 3834,
      "gefahr": 3835,
      "historischen": 3836,
      "gebäude": 3837,
      "que": 3838,
      "##riebs": 3839,
      "komplett": 3840,
      "einrichtung": 3841,
      "ressourcen": 3842,
      "##bis": 3843,
      "wil": 3844,
      "angeboten": 3845,
      "hy": 3846,
      "seines": 3847,
      "geänder": 3848,
      "automatisch": 3849,
      "überw": 3850,
      "heißt": 3851,
      "entschließungs": 3852,
      "bedarf": 3853,
      "liz": 3854,
      "erhol": 3855,
      "sache": 3856,
      "##sition": 3857,
      "fehl": 3858,
      "##gl": 3859,
      "persönlichen": 3860,
      "www": 3861,
      "##tiver": 3862,
      "vertreten": 3863,
      "##ider": 3864,
      "gebe": 3865,
      "suchen": 3866,
      "ven": 3867,
      "##dat": 3868,
      "fu": 3869,
      "##legt": 3870,
      "zuk": 3871,
      "heutigen": 3872,
      "einfluss": 3873,
      "##atische": 3874,
      "##auen": 3875,
      "schiff": 3876,
      "nämlich": 3877,
      "unbe": 3878,
      "gesprä": 3879,
      "##feld": 3880,
      "##barer": 3881,
      "herunter": 3882,
      "speziell": 3883,
      "##fre": 3884,
      "##ry": 3885,
      "##gangs": 3886,
      "verwaltung": 3887,
      "überhaupt": 3888,
      "##meer": 3889,
      "künstler": 3890,
      "##use": 3891,
      "dateien": 3892,
      "spezial": 3893,
      "illeg": 3894,
      "karte": 3895,
      "küche": 3896,
      "finanziellen": 3897,
      "##gruppe": 3898,
      "kennen": 3899,
      "detail": 3900,
      "opfer": 3901,
      "freien": 3902,
      "book": 3903,
      "##aden": 3904,
      "##fläche": 3905,
      "##frastruktur": 3906,
      "gewährlei": 3907,
      "produz": 3908,
      "sur": 3909,
      "##züg": 3910,
      "unternehm": 3911,
      "wunsch": 3912,
      "demokratischen": 3913,
      "stets": 3914,
      "mi": 3915,
      "##amb": 3916,
      "stärk": 3917,
      "berat": 3918,
      "ausschließlich": 3919,
      "gerecht": 3920,
      "##tert": 3921,
      "irak": 3922,
      "##sektor": 3923,
      "##zwischen": 3924,
      "erfahrungen": 3925,
      "attra": 3926,
      "downlo": 3927,
      "##leh": 3928,
      "##dung": 3929,
      "bemühungen": 3930,
      "haft": 3931,
      "leb": 3932,
      "halb": 3933,
      "unten": 3934,
      "##achsen": 3935,
      "versp": 3936,
      "behandelt": 3937,
      "agentur": 3938,
      "regierungs": 3939,
      "erfolgt": 3940,
      "##viel": 3941,
      "warum": 3942,
      "atmosphäre": 3943,
      "systems": 3944,
      "jem": 3945,
      "##ierende": 3946,
      "##fallen": 3947,
      "erschein": 3948,
      "out": 3949,
      "##preis": 3950,
      "rechtsvorschriften": 3951,
      "##fordert": 3952,
      "privaten": 3953,
      "armut": 3954,
      "bewer": 3955,
      "##sbed": 3956,
      "partei": 3957,
      "berichte": 3958,
      "##spe": 3959,
      "sil": 3960,
      "bedeute": 3961,
      "schritte": 3962,
      "gebrauch": 3963,
      "vollständig": 3964,
      "sieht": 3965,
      "my": 3966,
      "net": 3967,
      "##rau": 3968,
      "bessere": 3969,
      "##ors": 3970,
      "ehemal": 3971,
      "##steht": 3972,
      "verabschie": 3973,
      "falle": 3974,
      "doll": 3975,
      "bud": 3976,
      "unbed": 3977,
      "termin": 3978,
      "schlüssel": 3979,
      "mann": 3980,
      "exp": 3981,
      "wesentlichen": 3982,
      "zuver": 3983,
      "firmen": 3984,
      "konsequ": 3985,
      "deutsche": 3986,
      "has": 3987,
      "entgegen": 3988,
      "vergangenheit": 3989,
      "##ünftige": 3990,
      "abschließend": 3991,
      "origin": 3992,
      "##grö": 3993,
      "aspekte": 3994,
      "##ms": 3995,
      "gesag": 3996,
      "scheint": 3997,
      "ausger": 3998,
      "##cc": 3999,
      "##ffer": 4000,
      "##stände": 4001,
      "modernen": 4002,
      "##staaten": 4003,
      "##eilen": 4004,
      "straf": 4005,
      "adresse": 4006,
      "angelegenheit": 4007,
      "entwickeln": 4008,
      "är": 4009,
      "immobil": 4010,
      "##enter": 4011,
      "##alismus": 4012,
      "begriff": 4013,
      "hig": 4014,
      "stärker": 4015,
      "alb": 4016,
      "##gründ": 4017,
      "##amerik": 4018,
      "##also": 4019,
      "##wasser": 4020,
      "politisch": 4021,
      "verstehen": 4022,
      "reag": 4023,
      "##destens": 4024,
      "##karte": 4025,
      "besonderen": 4026,
      "konnten": 4027,
      "folgt": 4028,
      "pre": 4029,
      "rest": 4030,
      "##bevor": 4031,
      "##meine": 4032,
      "suche": 4033,
      "werd": 4034,
      "##son": 4035,
      "##ennen": 4036,
      "nö": 4037,
      "geschaffen": 4038,
      "oben": 4039,
      "##cke": 4040,
      "erwarten": 4041,
      "zweif": 4042,
      "##ano": 4043,
      "##hilfen": 4044,
      "##ama": 4045,
      "##sport": 4046,
      "##gehend": 4047,
      "##rib": 4048,
      "##ison": 4049,
      "nimmt": 4050,
      "behinder": 4051,
      "prote": 4052,
      "erstens": 4053,
      "leisten": 4054,
      "##ath": 4055,
      "##gemein": 4056,
      "vorgehen": 4057,
      "gipfel": 4058,
      "korre": 4059,
      "##gte": 4060,
      "geworden": 4061,
      "iss": 4062,
      "technik": 4063,
      "milliarden": 4064,
      "terrorismus": 4065,
      "lizenz": 4066,
      "verur": 4067,
      "zeichen": 4068,
      "##gef": 4069,
      "antrag": 4070,
      "gleiche": 4071,
      "jeg": 4072,
      "endlich": 4073,
      "##ellschaften": 4074,
      "nationale": 4075,
      "zusätzliche": 4076,
      "##gül": 4077,
      "##reu": 4078,
      "##arischen": 4079,
      "sic": 4080,
      "kla": 4081,
      "##chtet": 4082,
      "überzeug": 4083,
      "ausschuß": 4084,
      "schaden": 4085,
      "kaum": 4086,
      "isdie": 4087,
      "profiti": 4088,
      "band": 4089,
      "##emente": 4090,
      "mitgliedstaat": 4091,
      "kind": 4092,
      "##mbol": 4093,
      "bur": 4094,
      "##eide": 4095,
      "##umenten": 4096,
      "sprachen": 4097,
      "##isk": 4098,
      "zul": 4099,
      "ändern": 4100,
      "##vollen": 4101,
      "gre": 4102,
      "freuen": 4103,
      "größere": 4104,
      "iran": 4105,
      "##minist": 4106,
      "##edann": 4107,
      "##komp": 4108,
      "bringt": 4109,
      "mer": 4110,
      "annahme": 4111,
      "verantwortlich": 4112,
      "hause": 4113,
      "willkommen": 4114,
      "schließ": 4115,
      "van": 4116,
      "tätigkeit": 4117,
      "##ile": 4118,
      "##itten": 4119,
      "völker": 4120,
      "palästin": 4121,
      "##pers": 4122,
      "##ringe": 4123,
      "verfassung": 4124,
      "abschluss": 4125,
      "widersp": 4126,
      "##inform": 4127,
      "zustand": 4128,
      "##spar": 4129,
      "##zustellen": 4130,
      "##ewenn": 4131,
      "aktuelle": 4132,
      "##demokra": 4133,
      "lernen": 4134,
      "bre": 4135,
      "getan": 4136,
      "phil": 4137,
      "rechn": 4138,
      "parteien": 4139,
      "unbedingt": 4140,
      "netzwerk": 4141,
      "konflikt": 4142,
      "las": 4143,
      "anpass": 4144,
      "bequ": 4145,
      "tatsachdass": 4146,
      "##figur": 4147,
      "##ösen": 4148,
      "telefon": 4149,
      "kommunikation": 4150,
      "bezie": 4151,
      "##haf": 4152,
      "##out": 4153,
      "##zusa": 4154,
      "bade": 4155,
      "sagt": 4156,
      "##ales": 4157,
      "bewusst": 4158,
      "##ary": 4159,
      "##ites": 4160,
      "auft": 4161,
      "partnerschaft": 4162,
      "getroffen": 4163,
      "##zeiten": 4164,
      "##ots": 4165,
      "##akte": 4166,
      "##mel": 4167,
      "berücksichtigt": 4168,
      "##mitglie": 4169,
      "dringend": 4170,
      "zustimmung": 4171,
      "sho": 4172,
      "öl": 4173,
      "mindestens": 4174,
      "##gs": 4175,
      "##sichtlich": 4176,
      "##esie": 4177,
      "##losigkeit": 4178,
      "unterschiedlichen": 4179,
      "##ehnt": 4180,
      "licht": 4181,
      "##altungen": 4182,
      "normal": 4183,
      "##flug": 4184,
      "eint": 4185,
      "pati": 4186,
      "exist": 4187,
      "sam": 4188,
      "##istan": 4189,
      "medizin": 4190,
      "ps": 4191,
      "fried": 4192,
      "homep": 4193,
      "ferner": 4194,
      "mehreren": 4195,
      "paris": 4196,
      "event": 4197,
      "chines": 4198,
      "meter": 4199,
      "##gebiet": 4200,
      "möglicherweise": 4201,
      "erzeug": 4202,
      "##einsch": 4203,
      "##hnen": 4204,
      "##ehrte": 4205,
      "##tic": 4206,
      "wh": 4207,
      "durchführung": 4208,
      "zerstör": 4209,
      "eindeutig": 4210,
      "##heben": 4211,
      "hochwer": 4212,
      "ers": 4213,
      "ziehen": 4214,
      "entsprechende": 4215,
      "##öpf": 4216,
      "##denk": 4217,
      "ara": 4218,
      "##gruppen": 4219,
      "besuchen": 4220,
      "##alk": 4221,
      "##ufen": 4222,
      "regul": 4223,
      "gestimmt": 4224,
      "landwir": 4225,
      "erfr": 4226,
      "garten": 4227,
      "derzei": 4228,
      "anerkennung": 4229,
      "sehens": 4230,
      "fei": 4231,
      "##strate": 4232,
      "##icherheit": 4233,
      "dynam": 4234,
      "##haften": 4235,
      "##gebie": 4236,
      "darau": 4237,
      "mio": 4238,
      "##fälle": 4239,
      "benötigen": 4240,
      "feb": 4241,
      "palästinens": 4242,
      "option": 4243,
      "##artigen": 4244,
      "voran": 4245,
      "##regel": 4246,
      "##sh": 4247,
      "beitritt": 4248,
      "diskrimin": 4249,
      "zurückzu": 4250,
      "mand": 4251,
      "##atik": 4252,
      "##ungsver": 4253,
      "##pack": 4254,
      "schick": 4255,
      "enor": 4256,
      "av": 4257,
      "sicherlich": 4258,
      "##wogen": 4259,
      "##rengungen": 4260,
      "##reiber": 4261,
      "wundersch": 4262,
      "##ischem": 4263,
      "beton": 4264,
      "glaube": 4265,
      "werdeund": 4266,
      "##wes": 4267,
      "mitteilung": 4268,
      "norm": 4269,
      "hintergrund": 4270,
      "##stechn": 4271,
      "##decken": 4272,
      "mad": 4273,
      "kriterien": 4274,
      "##gerung": 4275,
      "wahrscheinlich": 4276,
      "##gn": 4277,
      "paket": 4278,
      "paten": 4279,
      "##esind": 4280,
      "höchst": 4281,
      "mel": 4282,
      "verfügbar": 4283,
      "sand": 4284,
      "zumindest": 4285,
      "zeigen": 4286,
      "lesen": 4287,
      "globalen": 4288,
      "vereinbarung": 4289,
      "emiss": 4290,
      "arbeitsplätze": 4291,
      "##sl": 4292,
      "##ewas": 4293,
      "serv": 4294,
      "boden": 4295,
      "bedien": 4296,
      "business": 4297,
      "homepage": 4298,
      "##ash": 4299,
      "##deut": 4300,
      "tor": 4301,
      "##igte": 4302,
      "ham": 4303,
      "trag": 4304,
      "##til": 4305,
      "unio": 4306,
      "amerikanischen": 4307,
      "kollege": 4308,
      "##svorsitz": 4309,
      "##esich": 4310,
      "kol": 4311,
      "erleich": 4312,
      "produkten": 4313,
      "fund": 4314,
      "setzt": 4315,
      "kapital": 4316,
      "##ologischen": 4317,
      "##ehme": 4318,
      "wesentlich": 4319,
      "sorge": 4320,
      "sim": 4321,
      "technische": 4322,
      "verpflichtungen": 4323,
      "mak": 4324,
      "gewährleisten": 4325,
      "bestehenden": 4326,
      "bü": 4327,
      "unterkategorien": 4328,
      "tief": 4329,
      "usw": 4330,
      "hätten": 4331,
      "besucher": 4332,
      "beitritts": 4333,
      "wahlen": 4334,
      "alte": 4335,
      "positiv": 4336,
      "erf": 4337,
      "manch": 4338,
      "niemand": 4339,
      "gas": 4340,
      "kompon": 4341,
      "genehm": 4342,
      "##vier": 4343,
      "mün": 4344,
      "nachdem": 4345,
      "fel": 4346,
      "bon": 4347,
      "mangel": 4348,
      "poliz": 4349,
      "nahr": 4350,
      "##warum": 4351,
      "last": 4352,
      "##spunkt": 4353,
      "##tedass": 4354,
      "##ritann": 4355,
      "finanzielle": 4356,
      "taus": 4357,
      "##gegeben": 4358,
      "herausforderungen": 4359,
      "lond": 4360,
      "notwendigen": 4361,
      "##zwei": 4362,
      "vereinten": 4363,
      "##ständen": 4364,
      "train": 4365,
      "##räger": 4366,
      "rum": 4367,
      "top": 4368,
      "##wissen": 4369,
      "##innt": 4370,
      "fakt": 4371,
      "zuletzt": 4372,
      "katastrop": 4373,
      "sonnen": 4374,
      "systeme": 4375,
      "##itein": 4376,
      "freie": 4377,
      "august": 4378,
      "##handels": 4379,
      "##mack": 4380,
      "laut": 4381,
      "begrüßen": 4382,
      "dollar": 4383,
      "##ling": 4384,
      "##dar": 4385,
      "##ica": 4386,
      "monat": 4387,
      "angegeben": 4388,
      "erfüllen": 4389,
      "##ball": 4390,
      "##adem": 4391,
      "##stoffe": 4392,
      "##ograph": 4393,
      "schlaf": 4394,
      "angelegenheiten": 4395,
      "##führer": 4396,
      "weltwei": 4397,
      "ukra": 4398,
      "download": 4399,
      "monate": 4400,
      "chem": 4401,
      "waffen": 4402,
      "werdeum": 4403,
      "ausgaben": 4404,
      "museum": 4405,
      "mechan": 4406,
      "start": 4407,
      "##achtet": 4408,
      "titel": 4409,
      "##reche": 4410,
      "##tierte": 4411,
      "##gab": 4412,
      "bran": 4413,
      "roll": 4414,
      "ausgang": 4415,
      "schwierigkeiten": 4416,
      "fortschritt": 4417,
      "könnt": 4418,
      "zeitraum": 4419,
      "inhalte": 4420,
      "heiß": 4421,
      "##tere": 4422,
      "trotzdem": 4423,
      "genug": 4424,
      "rand": 4425,
      "##weils": 4426,
      "anstrengungen": 4427,
      "angew": 4428,
      "danach": 4429,
      "mittelmeer": 4430,
      "##oph": 4431,
      "##haber": 4432,
      "##rik": 4433,
      "möglic": 4434,
      "digit": 4435,
      "richtlinien": 4436,
      "haupts": 4437,
      "##fo": 4438,
      "japan": 4439,
      "vereinfach": 4440,
      "dritte": 4441,
      "##geschrän": 4442,
      "##stattung": 4443,
      "febru": 4444,
      "barcel": 4445,
      "pc": 4446,
      "##leitet": 4447,
      "wechsel": 4448,
      "##eim": 4449,
      "cd": 4450,
      "##auben": 4451,
      "kostenlos": 4452,
      "prem": 4453,
      "allgemein": 4454,
      "##arn": 4455,
      "anderes": 4456,
      "funktionen": 4457,
      "tv": 4458,
      "gewün": 4459,
      "präsidenherr": 4460,
      "##kommt": 4461,
      "nachfolgend": 4462,
      "##ish": 4463,
      "##pa": 4464,
      "mitgliedstaate": 4465,
      "engagement": 4466,
      "übersch": 4467,
      "##eaber": 4468,
      "übernachten": 4469,
      "aufnahme": 4470,
      "hilf": 4471,
      "##uropä": 4472,
      "##netz": 4473,
      "##zentrum": 4474,
      "ku": 4475,
      "gegensei": 4476,
      "gegenwärtig": 4477,
      "col": 4478,
      "genutzt": 4479,
      "##zeigen": 4480,
      "##roso": 4481,
      "konzept": 4482,
      "fen": 4483,
      "holz": 4484,
      "##zial": 4485,
      "##britann": 4486,
      "##user": 4487,
      "progra": 4488,
      "einkauf": 4489,
      "cap": 4490,
      "berichterstatterin": 4491,
      "private": 4492,
      "sollt": 4493,
      "steh": 4494,
      "camp": 4495,
      "verhältnis": 4496,
      "that": 4497,
      "kritik": 4498,
      "sau": 4499,
      "währung": 4500,
      "##gefü": 4501,
      "##greifen": 4502,
      "sek": 4503,
      "##fest": 4504,
      "##ihre": 4505,
      "fac": 4506,
      "webseite": 4507,
      "schen": 4508,
      "haltung": 4509,
      "##gerungen": 4510,
      "überra": 4511,
      "general": 4512,
      "regelung": 4513,
      "##kontro": 4514,
      "letzt": 4515,
      "##ress": 4516,
      "vorteile": 4517,
      "##reiche": 4518,
      "##by": 4519,
      "umzu": 4520,
      "arten": 4521,
      "hor": 4522,
      "symbol": 4523,
      "näher": 4524,
      "erwartet": 4525,
      "##schul": 4526,
      "reisen": 4527,
      "##tein": 4528,
      "acc": 4529,
      "ausbildung": 4530,
      "##schine": 4531,
      "stamm": 4532,
      "vorteil": 4533,
      "kong": 4534,
      "##bür": 4535,
      "##ären": 4536,
      "pfl": 4537,
      "##spiele": 4538,
      "durchzu": 4539,
      "kop": 4540,
      "tru": 4541,
      "##arten": 4542,
      "indust": 4543,
      "##angt": 4544,
      "##sein": 4545,
      "erleb": 4546,
      "osten": 4547,
      "müsse": 4548,
      "##aktiv": 4549,
      "pop": 4550,
      "nütz": 4551,
      "##tierten": 4552,
      "##bad": 4553,
      "sämtliche": 4554,
      "spitz": 4555,
      "jeweils": 4556,
      "##meld": 4557,
      "gestat": 4558,
      "##igungs": 4559,
      "deleg": 4560,
      "menge": 4561,
      "leiden": 4562,
      "##erken": 4563,
      "##atist": 4564,
      "wünsche": 4565,
      "autor": 4566,
      "infrastruktur": 4567,
      "##tischer": 4568,
      "motor": 4569,
      "länger": 4570,
      "siehe": 4571,
      "fein": 4572,
      "fahren": 4573,
      "jederzeit": 4574,
      "entweder": 4575,
      "##unkten": 4576,
      "absolut": 4577,
      "persönlich": 4578,
      "##egt": 4579,
      "betroffenen": 4580,
      "bequem": 4581,
      "##zung": 4582,
      "fordern": 4583,
      "umgesetzt": 4584,
      "ständig": 4585,
      "##omen": 4586,
      "cent": 4587,
      "plen": 4588,
      "angriff": 4589,
      "kommenden": 4590,
      "##ssp": 4591,
      "##rid": 4592,
      "##ader": 4593,
      "gewesen": 4594,
      "zuverläss": 4595,
      "hinge": 4596,
      "##ohner": 4597,
      "##ester": 4598,
      "##qualität": 4599,
      "##zeichnen": 4600,
      "##ancen": 4601,
      "debian": 4602,
      "##ction": 4603,
      "erleben": 4604,
      "##riebe": 4605,
      "##dlich": 4606,
      "universität": 4607,
      "##ängt": 4608,
      "glauben": 4609,
      "ep": 4610,
      "city": 4611,
      "gebühr": 4612,
      "##nete": 4613,
      "türk": 4614,
      "verwaltungs": 4615,
      "##sc": 4616,
      "##funktion": 4617,
      "##irm": 4618,
      "zentrale": 4619,
      "ap": 4620,
      "##fast": 4621,
      "##kur": 4622,
      "##teren": 4623,
      "allgemeine": 4624,
      "##entwicklung": 4625,
      "##brauch": 4626,
      "dienste": 4627,
      "lib": 4628,
      "besei": 4629,
      "mitein": 4630,
      "organisationen": 4631,
      "kommissarin": 4632,
      "rezep": 4633,
      "status": 4634,
      "bilden": 4635,
      "unterstütze": 4636,
      "leute": 4637,
      "worte": 4638,
      "tal": 4639,
      "zuvor": 4640,
      "name": 4641,
      "fertig": 4642,
      "##rahmen": 4643,
      "vergessen": 4644,
      "straße": 4645,
      "sehe": 4646,
      "schützen": 4647,
      "wachsen": 4648,
      "##ript": 4649,
      "dawas": 4650,
      "februar": 4651,
      "technologien": 4652,
      "kannst": 4653,
      "##kam": 4654,
      "geändert": 4655,
      "sm": 4656,
      "na": 4657,
      "installation": 4658,
      "mig": 4659,
      "anteil": 4660,
      "##sicherheit": 4661,
      "##park": 4662,
      "übernehmen": 4663,
      "einiger": 4664,
      "beginnen": 4665,
      "cli": 4666,
      "##nei": 4667,
      "##licherweise": 4668,
      "kil": 4669,
      "entstehen": 4670,
      "erlaubt": 4671,
      "andererseits": 4672,
      "einver": 4673,
      "benach": 4674,
      "niedr": 4675,
      "klimawand": 4676,
      "slow": 4677,
      "##see": 4678,
      "reformen": 4679,
      "nächste": 4680,
      "griechen": 4681,
      "grundsatz": 4682,
      "##uellen": 4683,
      "##werke": 4684,
      "##gi": 4685,
      "zoll": 4686,
      "leistung": 4687,
      "vielfalt": 4688,
      "##äußer": 4689,
      "investition": 4690,
      "renov": 4691,
      "ausland": 4692,
      "##haup": 4693,
      "schätz": 4694,
      "##ehl": 4695,
      "wettbewerbsfähigkeit": 4696,
      "entspricht": 4697,
      "lab": 4698,
      "restaurants": 4699,
      "abgeordnete": 4700,
      "bib": 4701,
      "##freiheit": 4702,
      "##stimmt": 4703,
      "material": 4704,
      "lokalen": 4705,
      "gesetzt": 4706,
      "absatz": 4707,
      "angesprochen": 4708,
      "daraus": 4709,
      "por": 4710,
      "##bedingungen": 4711,
      "##wanderung": 4712,
      "yor": 4713,
      "##hle": 4714,
      "spiele": 4715,
      "fonds": 4716,
      "world": 4717,
      "open": 4718,
      "##verkehrs": 4719,
      "verlei": 4720,
      "##ologische": 4721,
      "##leisch": 4722,
      "##wurde": 4723,
      "##testen": 4724,
      "wenigen": 4725,
      "wege": 4726,
      "anwendungen": 4727,
      "essen": 4728,
      "imp": 4729,
      "verf": 4730,
      "club": 4731,
      "##anlagen": 4732,
      "##spek": 4733,
      "erzielt": 4734,
      "##elles": 4735,
      "##nehme": 4736,
      "##abl": 4737,
      "##enzen": 4738,
      "kämpf": 4739,
      "##rank": 4740,
      "mat": 4741,
      "täglich": 4742,
      "hafen": 4743,
      "##iein": 4744,
      "##ych": 4745,
      "ausgew": 4746,
      "analyse": 4747,
      "##äck": 4748,
      "sehenswürd": 4749,
      "freue": 4750,
      "geeignet": 4751,
      "rele": 4752,
      "##seits": 4753,
      "##lige": 4754,
      "##leitung": 4755,
      "##lätzen": 4756,
      "teilweise": 4757,
      "bemü": 4758,
      "kenntnis": 4759,
      "aspekt": 4760,
      "##geschä": 4761,
      "immobilien": 4762,
      "sem": 4763,
      "##entsch": 4764,
      "gesehen": 4765,
      "element": 4766,
      "hoffdass": 4767,
      "ök": 4768,
      "wid": 4769,
      "##mme": 4770,
      "##führten": 4771,
      "dimen": 4772,
      "##bruch": 4773,
      "ideal": 4774,
      "##übersch": 4775,
      "##gewicht": 4776,
      "##rt": 4777,
      "##schnitt": 4778,
      "herzlich": 4779,
      "##bericht": 4780,
      "idee": 4781,
      "formen": 4782,
      "ausdrücklich": 4783,
      "erfüll": 4784,
      "liebe": 4785,
      "pat": 4786,
      "leistungen": 4787,
      "##ards": 4788,
      "##iellen": 4789,
      "versicher": 4790,
      "##läge": 4791,
      "geöff": 4792,
      "##ete": 4793,
      "gutes": 4794,
      "risiko": 4795,
      "##auern": 4796,
      "ratsvorsitz": 4797,
      "booking": 4798,
      "herstellung": 4799,
      "##mode": 4800,
      "standards": 4801,
      "##gdie": 4802,
      "einhaltung": 4803,
      "appar": 4804,
      "währungs": 4805,
      "gül": 4806,
      "bestimmt": 4807,
      "vorgelegt": 4808,
      "##auftrag": 4809,
      "statist": 4810,
      "##pag": 4811,
      "##ated": 4812,
      "##red": 4813,
      "hersteller": 4814,
      "sauber": 4815,
      "##chem": 4816,
      "erm": 4817,
      "beweis": 4818,
      "konkrete": 4819,
      "##läu": 4820,
      "##maßen": 4821,
      "daru": 4822,
      "gebieten": 4823,
      "deswegen": 4824,
      "ausgewogen": 4825,
      "jur": 4826,
      "unterschiedliche": 4827,
      "dv": 4828,
      "##ala": 4829,
      "flücht": 4830,
      "var": 4831,
      "amster": 4832,
      "sex": 4833,
      "##lligen": 4834,
      "verbessert": 4835,
      "maschinen": 4836,
      "##ini": 4837,
      "anlage": 4838,
      "antworten": 4839,
      "durchaus": 4840,
      "flexibil": 4841,
      "rö": 4842,
      "achtung": 4843,
      "##raucher": 4844,
      "##sidi": 4845,
      "positive": 4846,
      "##instr": 4847,
      "eisen": 4848,
      "stellungnahme": 4849,
      "einrichtungen": 4850,
      "einigung": 4851,
      "##spr": 4852,
      "denke": 4853,
      "genü": 4854,
      "foto": 4855,
      "villa": 4856,
      "beitragen": 4857,
      "übereinkommen": 4858,
      "endgül": 4859,
      "beachten": 4860,
      "zugäng": 4861,
      "französischen": 4862,
      "angaben": 4863,
      "eingerichtet": 4864,
      "reicht": 4865,
      "tschech": 4866,
      "block": 4867,
      "zugriff": 4868,
      "##pla": 4869,
      "bege": 4870,
      "##fügen": 4871,
      "dich": 4872,
      "rechnung": 4873,
      "fand": 4874,
      "##ara": 4875,
      "klare": 4876,
      "##sammlung": 4877,
      "dagegen": 4878,
      "##welches": 4879,
      "##sbedingungen": 4880,
      "jetz": 4881,
      "stück": 4882,
      "farb": 4883,
      "vielzahl": 4884,
      "##ding": 4885,
      "##mail": 4886,
      "möglichst": 4887,
      "##ller": 4888,
      "kindern": 4889,
      "##ony": 4890,
      "mindest": 4891,
      "##reff": 4892,
      "meist": 4893,
      "##ij": 4894,
      "programms": 4895,
      "##ags": 4896,
      "erklärt": 4897,
      "##reibt": 4898,
      "##zone": 4899,
      "##mmern": 4900,
      "menschenrechts": 4901,
      "##lau": 4902,
      "##adas": 4903,
      "##lust": 4904,
      "häl": 4905,
      "erforderlichen": 4906,
      "erfüllt": 4907,
      "schönen": 4908,
      "entschieden": 4909,
      "##ielle": 4910,
      "schm": 4911,
      "hü": 4912,
      "überwachung": 4913,
      "koso": 4914,
      "##ime": 4915,
      "genannt": 4916,
      "landschaft": 4917,
      "##gelegten": 4918,
      "polizei": 4919,
      "##hes": 4920,
      "##einschließlich": 4921,
      "##plätze": 4922,
      "##rig": 4923,
      "##oo": 4924,
      "richtigen": 4925,
      "benutzen": 4926,
      "zugleich": 4927,
      "##öse": 4928,
      "##kap": 4929,
      "gründe": 4930,
      "verwirk": 4931,
      "meeres": 4932,
      "forderung": 4933,
      "london": 4934,
      "##inde": 4935,
      "##eting": 4936,
      "denken": 4937,
      "link": 4938,
      "##aller": 4939,
      "##punkte": 4940,
      "deutsch": 4941,
      "instrumente": 4942,
      "##ars": 4943,
      "##stellten": 4944,
      "lesung": 4945,
      "##ierun": 4946,
      "zweifel": 4947,
      "##einsbesondere": 4948,
      "ann": 4949,
      "voraus": 4950,
      "folgende": 4951,
      "brow": 4952,
      "erwähnt": 4953,
      "linux": 4954,
      "nahrungs": 4955,
      "ei": 4956,
      "erstellt": 4957,
      "spanien": 4958,
      "##arbeite": 4959,
      "##läuf": 4960,
      "wiederauf": 4961,
      "entschließungsantrag": 4962,
      "val": 4963,
      "##plom": 4964,
      "##itor": 4965,
      "laden": 4966,
      "diejenigedie": 4967,
      "##leistungen": 4968,
      "veränderungen": 4969,
      "##räng": 4970,
      "stärkung": 4971,
      "kirche": 4972,
      "prioritäten": 4973,
      "##schlü": 4974,
      "merk": 4975,
      "besorg": 4976,
      "mik": 4977,
      "##verl": 4978,
      "stärken": 4979,
      "##här": 4980,
      "brüssel": 4981,
      "wollte": 4982,
      "krimin": 4983,
      "geleist": 4984,
      "##ient": 4985,
      "supp": 4986,
      "##zy": 4987,
      "manchmal": 4988,
      "##ruf": 4989,
      "beschreibung": 4990,
      "##eitet": 4991,
      "heimat": 4992,
      "weiterer": 4993,
      "erstellen": 4994,
      "entspannen": 4995,
      "miteinander": 4996,
      "##ieh": 4997,
      "gegründ": 4998,
      "##versorgung": 4999,
      "os": 5000,
      "##wirken": 5001,
      "initiativen": 5002,
      "festgelegt": 5003,
      "einst": 5004,
      "stren": 5005,
      "##itution": 5006,
      "##uc": 5007,
      "##tul": 5008,
      "kandid": 5009,
      "##ruc": 5010,
      "innovation": 5011,
      "##achte": 5012,
      "ruhe": 5013,
      "nutzer": 5014,
      "##vent": 5015,
      "überall": 5016,
      "rechnungs": 5017,
      "rati": 5018,
      "exklusi": 5019,
      "abgeschlossen": 5020,
      "werdes": 5021,
      "##zeichen": 5022,
      "##ffet": 5023,
      "beant": 5024,
      "##atoren": 5025,
      "vorliegenden": 5026,
      "erwähn": 5027,
      "##bas": 5028,
      "hauses": 5029,
      "übersetz": 5030,
      "##eihre": 5031,
      "##leiten": 5032,
      "##orien": 5033,
      "spezielle": 5034,
      "inc": 5035,
      "unterkunft": 5036,
      "banken": 5037,
      "rumän": 5038,
      "gepl": 5039,
      "forderungen": 5040,
      "kopf": 5041,
      "cr": 5042,
      "jungen": 5043,
      "leu": 5044,
      "##gro": 5045,
      "konfigur": 5046,
      "kro": 5047,
      "großes": 5048,
      "zeiten": 5049,
      "stock": 5050,
      "damals": 5051,
      "##emüssen": 5052,
      "texte": 5053,
      "internationaler": 5054,
      "bedürfnisse": 5055,
      "ausges": 5056,
      "blu": 5057,
      "bewertung": 5058,
      "eingehen": 5059,
      "karten": 5060,
      "##zo": 5061,
      "möcht": 5062,
      "patienten": 5063,
      "materi": 5064,
      "festzu": 5065,
      "##ey": 5066,
      "##sowie": 5067,
      "##uropa": 5068,
      "##tzentr": 5069,
      "etc": 5070,
      "##ollten": 5071,
      "entwurf": 5072,
      "tatsache": 5073,
      "stattfinden": 5074,
      "grand": 5075,
      "exter": 5076,
      "gesprochen": 5077,
      "gewünsch": 5078,
      "ideale": 5079,
      "relativ": 5080,
      "bedauer": 5081,
      "spei": 5082,
      "studen": 5083,
      "einfache": 5084,
      "icdass": 5085,
      "königreich": 5086,
      "hostels": 5087,
      "fes": 5088,
      "##terdie": 5089,
      "riesi": 5090,
      "break": 5091,
      "vorbeh": 5092,
      "##genda": 5093,
      "teilnehmer": 5094,
      "bat": 5095,
      "werdedass": 5096,
      "schreiben": 5097,
      "vorrang": 5098,
      "aussicht": 5099,
      "##läne": 5100,
      "##ometer": 5101,
      "##kungen": 5102,
      "verteidigung": 5103,
      "##denen": 5104,
      "geschmack": 5105,
      "##woh": 5106,
      "schä": 5107,
      "##zusammen": 5108,
      "abgel": 5109,
      "ank": 5110,
      "##häl": 5111,
      "##ervice": 5112,
      "fair": 5113,
      "langen": 5114,
      "herausforderung": 5115,
      "ip": 5116,
      "##wies": 5117,
      "verhindern": 5118,
      "##gebaut": 5119,
      "lan": 5120,
      "##ollte": 5121,
      "schöne": 5122,
      "keinerlei": 5123,
      "bio": 5124,
      "braucht": 5125,
      "jahrhunderts": 5126,
      "##lösung": 5127,
      "schweiz": 5128,
      "räum": 5129,
      "##stands": 5130,
      "verloren": 5131,
      "station": 5132,
      "reaktion": 5133,
      "profitieren": 5134,
      "sant": 5135,
      "tool": 5136,
      "##selben": 5137,
      "stein": 5138,
      "rechten": 5139,
      "drogen": 5140,
      "ging": 5141,
      "staff": 5142,
      "veröffentlicht": 5143,
      "amsterdam": 5144,
      "produktions": 5145,
      "##preise": 5146,
      "##sprach": 5147,
      "mm": 5148,
      "größeren": 5149,
      "erwer": 5150,
      "wichtigste": 5151,
      "##wagen": 5152,
      "ratifiz": 5153,
      "##gdass": 5154,
      "lösen": 5155,
      "high": 5156,
      "gal": 5157,
      "dorf": 5158,
      "##bus": 5159,
      "regionalen": 5160,
      "gratul": 5161,
      "##ulgar": 5162,
      "verbundenen": 5163,
      "ableh": 5164,
      "late": 5165,
      "präsidenmeine": 5166,
      "gegenwärtigen": 5167,
      "beur": 5168,
      "##igungen": 5169,
      "##finanz": 5170,
      "##krieg": 5171,
      "kulturellen": 5172,
      "##ular": 5173,
      "vollkommen": 5174,
      "flä": 5175,
      "gü": 5176,
      "wellness": 5177,
      "auffassung": 5178,
      "anlagen": 5179,
      "islam": 5180,
      "##ourn": 5181,
      "entwicklungen": 5182,
      "##iertes": 5183,
      "mutter": 5184,
      "sieben": 5185,
      "##rige": 5186,
      "führung": 5187,
      "##onn": 5188,
      "##amm": 5189,
      "hard": 5190,
      "erneuer": 5191,
      "isund": 5192,
      "krie": 5193,
      "behaup": 5194,
      "##ungsverfahren": 5195,
      "##management": 5196,
      "##asen": 5197,
      "datenschutz": 5198,
      "gold": 5199,
      "solcher": 5200,
      "##lückwün": 5201,
      "umfassende": 5202,
      "umfasst": 5203,
      "##ellos": 5204,
      "speziellen": 5205,
      "beteiligung": 5206,
      "kohä": 5207,
      "wald": 5208,
      "wander": 5209,
      "##onom": 5210,
      "funktionieren": 5211,
      "großbritann": 5212,
      "priorität": 5213,
      "ausreichend": 5214,
      "##fluss": 5215,
      "vari": 5216,
      "##ect": 5217,
      "center": 5218,
      "##antie": 5219,
      "scho": 5220,
      "rob": 5221,
      "irland": 5222,
      "##ssysteme": 5223,
      "gerichtshof": 5224,
      "jemand": 5225,
      "##lichem": 5226,
      "##öder": 5227,
      "##karten": 5228,
      "barcelona": 5229,
      "services": 5230,
      "##ta": 5231,
      "##eidung": 5232,
      "##osition": 5233,
      "wto": 5234,
      "todes": 5235,
      "##orte": 5236,
      "diesbe": 5237,
      "fit": 5238,
      "urs": 5239,
      "##mon": 5240,
      "eindruck": 5241,
      "berücksichtigen": 5242,
      "gewährleistet": 5243,
      "##änger": 5244,
      "effektiv": 5245,
      "schau": 5246,
      "platt": 5247,
      "##ado": 5248,
      "mittels": 5249,
      "roh": 5250,
      "britischen": 5251,
      "##mark": 5252,
      "prin": 5253,
      "hinder": 5254,
      "chance": 5255,
      "##wä": 5256,
      "##schaff": 5257,
      "##asil": 5258,
      "datenbank": 5259,
      "griechenland": 5260,
      "vermitt": 5261,
      "übertragen": 5262,
      "politischer": 5263,
      "freiwill": 5264,
      "sehenswürdigkeiten": 5265,
      "##mögen": 5266,
      "sogen": 5267,
      "arab": 5268,
      "##fa": 5269,
      "##zin": 5270,
      "tar": 5271,
      "##itel": 5272,
      "were": 5273,
      "kategor": 5274,
      "live": 5275,
      "##oto": 5276,
      "erwachsen": 5277,
      "##lern": 5278,
      "habedie": 5279,
      "##sätze": 5280,
      "bahnhof": 5281,
      "niveau": 5282,
      "##sind": 5283,
      "empfehlen": 5284,
      "verlassen": 5285,
      "spielt": 5286,
      "##union": 5287,
      "wien": 5288,
      "vielmehr": 5289,
      "dienen": 5290,
      "abschn": 5291,
      "len": 5292,
      "##gut": 5293,
      "asyl": 5294,
      "##gewöhn": 5295,
      "mini": 5296,
      "##konferenz": 5297,
      "qualifiz": 5298,
      "breite": 5299,
      "##itut": 5300,
      "geschehen": 5301,
      "menü": 5302,
      "informieren": 5303,
      "##zig": 5304,
      "sing": 5305,
      "humanitä": 5306,
      "geleistet": 5307,
      "gegensatz": 5308,
      "jo": 5309,
      "##wirt": 5310,
      "präz": 5311,
      "erkenn": 5312,
      "##ble": 5313,
      "händ": 5314,
      "fass": 5315,
      "menschenrecht": 5316,
      "code": 5317,
      "geschäftsordnung": 5318,
      "roman": 5319,
      "abstimm": 5320,
      "trägt": 5321,
      "##ud": 5322,
      "##mater": 5323,
      "diplom": 5324,
      "mitglieds": 5325,
      "messe": 5326,
      "praktisch": 5327,
      "dafüdass": 5328,
      "kal": 5329,
      "##auso": 5330,
      "kohäsion": 5331,
      "möglichen": 5332,
      "bekannte": 5333,
      "offensichtlich": 5334,
      "opp": 5335,
      "hoffe": 5336,
      "klim": 5337,
      "cle": 5338,
      "tot": 5339,
      "größe": 5340,
      "##iefer": 5341,
      "erh": 5342,
      "ware": 5343,
      "eis": 5344,
      "ökonom": 5345,
      "##rup": 5346,
      "prüf": 5347,
      "garantiert": 5348,
      "##ml": 5349,
      "##iken": 5350,
      "flor": 5351,
      "##pool": 5352,
      "afg": 5353,
      "##reb": 5354,
      "elemente": 5355,
      "##windigkeit": 5356,
      "arbeitet": 5357,
      "städte": 5358,
      "einzelne": 5359,
      "jung": 5360,
      "benutzt": 5361,
      "##klang": 5362,
      "untern": 5363,
      "##eichen": 5364,
      "enter": 5365,
      "##sik": 5366,
      "gewinn": 5367,
      "funktioniert": 5368,
      "deiner": 5369,
      "##forschung": 5370,
      "##tele": 5371,
      "guter": 5372,
      "gerichte": 5373,
      "pil": 5374,
      "betriebs": 5375,
      "entdecken": 5376,
      "entschlossen": 5377,
      "##verein": 5378,
      "rh": 5379,
      "ausländ": 5380,
      "selten": 5381,
      "gebiete": 5382,
      "kurs": 5383,
      "##ella": 5384,
      "##ebei": 5385,
      "view": 5386,
      "umfass": 5387,
      "##äufer": 5388,
      "befürwor": 5389,
      "ans": 5390,
      "darstellt": 5391,
      "alternative": 5392,
      "##inne": 5393,
      "dek": 5394,
      "europäer": 5395,
      "starke": 5396,
      "fernseh": 5397,
      "hatt": 5398,
      "##istisch": 5399,
      "beglückwün": 5400,
      "diesel": 5401,
      "afrika": 5402,
      "außerorden": 5403,
      "schli": 5404,
      "##haltet": 5405,
      "orien": 5406,
      "unabhängig": 5407,
      "regelungen": 5408,
      "auffass": 5409,
      "persönliche": 5410,
      "laufe": 5411,
      "verbr": 5412,
      "ideen": 5413,
      "erkennt": 5414,
      "mitteln": 5415,
      "erzielen": 5416,
      "jüngsten": 5417,
      "angebote": 5418,
      "stadtzentr": 5419,
      "administ": 5420,
      "legis": 5421,
      "problemen": 5422,
      "inzwischen": 5423,
      "##reic": 5424,
      "gelangen": 5425,
      "lob": 5426,
      "revol": 5427,
      "tourismus": 5428,
      "bewäl": 5429,
      "##fältig": 5430,
      "junge": 5431,
      "elegan": 5432,
      "betrachtet": 5433,
      "stol": 5434,
      "heil": 5435,
      "##ergie": 5436,
      "##esowie": 5437,
      "vi": 5438,
      "##bert": 5439,
      "nichdass": 5440,
      "##gei": 5441,
      "gott": 5442,
      "fremden": 5443,
      "verschw": 5444,
      "##zeugen": 5445,
      "märkte": 5446,
      "maße": 5447,
      "##edem": 5448,
      "audio": 5449,
      "appartem": 5450,
      "globalisierung": 5451,
      "kund": 5452,
      "chancen": 5453,
      "pool": 5454,
      "##aun": 5455,
      "vorgeschlagenen": 5456,
      "wirdie": 5457,
      "schwierig": 5458,
      "zuerst": 5459,
      "gestern": 5460,
      "##organisation": 5461,
      "##leun": 5462,
      "legen": 5463,
      "##rochen": 5464,
      "##alisieren": 5465,
      "grunde": 5466,
      "jene": 5467,
      "tel": 5468,
      "sn": 5469,
      "##ages": 5470,
      "farben": 5471,
      "bezeichnet": 5472,
      "bestandteil": 5473,
      "einkommen": 5474,
      "flexibilität": 5475,
      "##aul": 5476,
      "##steuer": 5477,
      "kürzlich": 5478,
      "##sm": 5479,
      "hält": 5480,
      "##liothe": 5481,
      "konzep": 5482,
      "erklärungen": 5483,
      "sindie": 5484,
      "cont": 5485,
      "##uel": 5486,
      "##hebung": 5487,
      "benötigt": 5488,
      "##ike": 5489,
      "##effizien": 5490,
      "good": 5491,
      "grünen": 5492,
      "griech": 5493,
      "publik": 5494,
      "austausch": 5495,
      "##ektiv": 5496,
      "drit": 5497,
      "##tent": 5498,
      "gemüt": 5499,
      "beschluss": 5500,
      "beteiligt": 5501,
      "##inz": 5502,
      "willen": 5503,
      "unabhängigkeit": 5504,
      "architektur": 5505,
      "dur": 5506,
      "konkur": 5507,
      "kunde": 5508,
      "##räch": 5509,
      "gekommen": 5510,
      "altstadt": 5511,
      "##latz": 5512,
      "modi": 5513,
      "weiteres": 5514,
      "##uche": 5515,
      "have": 5516,
      "##metho": 5517,
      "legiti": 5518,
      "##räume": 5519,
      "mitgliedern": 5520,
      "mac": 5521,
      "##ted": 5522,
      "kosovo": 5523,
      "vieler": 5524,
      "##problem": 5525,
      "studien": 5526,
      "##ole": 5527,
      "format": 5528,
      "besseren": 5529,
      "experten": 5530,
      "hilfs": 5531,
      "##arta": 5532,
      "passen": 5533,
      "##date": 5534,
      "##ienen": 5535,
      "gerech": 5536,
      "erhalte": 5537,
      "via": 5538,
      "##ewo": 5539,
      "##hel": 5540,
      "prüfung": 5541,
      "##euerung": 5542,
      "spekt": 5543,
      "##lärung": 5544,
      "##ads": 5545,
      "glaubdass": 5546,
      "##andt": 5547,
      "beschlossen": 5548,
      "##ters": 5549,
      "##rücken": 5550,
      "gesetzgebung": 5551,
      "strom": 5552,
      "realität": 5553,
      "##ählten": 5554,
      "geg": 5555,
      "demon": 5556,
      "tod": 5557,
      "ungleich": 5558,
      "##mittag": 5559,
      "kleiner": 5560,
      "fas": 5561,
      "##ori": 5562,
      "grün": 5563,
      "mr": 5564,
      "geschützt": 5565,
      "##ftigen": 5566,
      "versuchen": 5567,
      "seidass": 5568,
      "bulgar": 5569,
      "wirkung": 5570,
      "##öh": 5571,
      "schuld": 5572,
      "##far": 5573,
      "##kle": 5574,
      "entstanden": 5575,
      "##idas": 5576,
      "##hop": 5577,
      "erhöhen": 5578,
      "##ikations": 5579,
      "verständnis": 5580,
      "demokratische": 5581,
      "##überschreiten": 5582,
      "einzigen": 5583,
      "regen": 5584,
      "spa": 5585,
      "##ces": 5586,
      "one": 5587,
      "##peratur": 5588,
      "apartments": 5589,
      "##cks": 5590,
      "fenster": 5591,
      "erfolgen": 5592,
      "##med": 5593,
      "##proj": 5594,
      "##strategie": 5595,
      "##inger": 5596,
      "nachhaltige": 5597,
      "##uver": 5598,
      "##kor": 5599,
      "##reitet": 5600,
      "kontinu": 5601,
      "got": 5602,
      "##oni": 5603,
      "darstell": 5604,
      "##linge": 5605,
      "süden": 5606,
      "##aufen": 5607,
      "regional": 5608,
      "##ünfte": 5609,
      "echte": 5610,
      "ziff": 5611,
      "##atell": 5612,
      "traum": 5613,
      "angep": 5614,
      "bevölker": 5615,
      "##produktion": 5616,
      "arbeitslosigkeit": 5617,
      "regelmäßig": 5618,
      "##ausschusses": 5619,
      "teilnahme": 5620,
      "verwei": 5621,
      "ul": 5622,
      "##rum": 5623,
      "seitens": 5624,
      "hauptstadt": 5625,
      "gegründet": 5626,
      "##tigten": 5627,
      "überprüfung": 5628,
      "wären": 5629,
      "schi": 5630,
      "##pak": 5631,
      "breit": 5632,
      "liberalisierung": 5633,
      "##view": 5634,
      "##schafte": 5635,
      "nationaler": 5636,
      "maxim": 5637,
      "gericht": 5638,
      "glaubwürd": 5639,
      "erkennen": 5640,
      "back": 5641,
      "##spartner": 5642,
      "künftig": 5643,
      "##ost": 5644,
      "eind": 5645,
      "qualitäts": 5646,
      "##ördert": 5647,
      "pok": 5648,
      "lass": 5649,
      "beihilfen": 5650,
      "territ": 5651,
      "geöffnet": 5652,
      "verläng": 5653,
      "erhöhung": 5654,
      "aktionen": 5655,
      "modul": 5656,
      "engag": 5657,
      "respek": 5658,
      "identit": 5659,
      "terrasse": 5660,
      "##berech": 5661,
      "gewinnen": 5662,
      "fotos": 5663,
      "wesentliche": 5664,
      "läu": 5665,
      "mos": 5666,
      "##gendes": 5667,
      "fluss": 5668,
      "pub": 5669,
      "##ival": 5670,
      "hälfte": 5671,
      "unein": 5672,
      "##wachstum": 5673,
      "##itte": 5674,
      "##zif": 5675,
      "dimension": 5676,
      "agenda": 5677,
      "akte": 5678,
      "norden": 5679,
      "vorbereitung": 5680,
      "tisch": 5681,
      "eig": 5682,
      "bez": 5683,
      "##bauen": 5684,
      "##angs": 5685,
      "beschäftigungs": 5686,
      "ukraine": 5687,
      "##aund": 5688,
      "einerseits": 5689,
      "email": 5690,
      "impl": 5691,
      "##last": 5692,
      "gross": 5693,
      "id": 5694,
      "##liegt": 5695,
      "##verbind": 5696,
      "justiz": 5697,
      "##xi": 5698,
      "##richtlinie": 5699,
      "tut": 5700,
      "reprä": 5701,
      "##eue": 5702,
      "empfehlungen": 5703,
      "sensi": 5704,
      "methode": 5705,
      "kurzem": 5706,
      "##fähig": 5707,
      "voraussetzungen": 5708,
      "erde": 5709,
      "##bef": 5710,
      "##rate": 5711,
      "grenzüberschreiten": 5712,
      "##liste": 5713,
      "anpassung": 5714,
      "dol": 5715,
      "##jährigen": 5716,
      "##anen": 5717,
      "##its": 5718,
      "hauptsächlich": 5719,
      "einschrän": 5720,
      "vorge": 5721,
      "##gesundheit": 5722,
      "traditionellen": 5723,
      "grundrechte": 5724,
      "##ean": 5725,
      "akzeptieren": 5726,
      "##ita": 5727,
      "schein": 5728,
      "##endung": 5729,
      "globale": 5730,
      "beginnt": 5731,
      "autob": 5732,
      "##wen": 5733,
      "##uell": 5734,
      "haut": 5735,
      "ausb": 5736,
      "geschle": 5737,
      "##idaß": 5738,
      "feld": 5739,
      "nahen": 5740,
      "exc": 5741,
      "##ally": 5742,
      "##allen": 5743,
      "##gu": 5744,
      "##kommun": 5745,
      "beschleun": 5746,
      "##eite": 5747,
      "eingeführt": 5748,
      "verpflichtung": 5749,
      "##com": 5750,
      "schlusselwortern": 5751,
      "##ames": 5752,
      "finn": 5753,
      "##ungsbereich": 5754,
      "zweifellos": 5755,
      "perspek": 5756,
      "original": 5757,
      "schlusselworterdie": 5758,
      "york": 5759,
      "verbrechen": 5760,
      "##lassung": 5761,
      "portug": 5762,
      "ländlichen": 5763,
      "koordinierung": 5764,
      "ereignisse": 5765,
      "berühmten": 5766,
      "treten": 5767,
      "serie": 5768,
      "il": 5769,
      "ve": 5770,
      "bedenken": 5771,
      "straß": 5772,
      "positiven": 5773,
      "gedanken": 5774,
      "führenden": 5775,
      "##kultur": 5776,
      "sicherzu": 5777,
      "erz": 5778,
      "studie": 5779,
      "botschaft": 5780,
      "mol": 5781,
      "##annung": 5782,
      "enterpr": 5783,
      "zeu": 5784,
      "atom": 5785,
      "##absich": 5786,
      "arbeitsmarkt": 5787,
      "ausnahme": 5788,
      "schwerpunkt": 5789,
      "kommer": 5790,
      "jahrzehn": 5791,
      "menschedie": 5792,
      "##muss": 5793,
      "teilnehmen": 5794,
      "beinhaltet": 5795,
      "##ssicherheit": 5796,
      "zurückge": 5797,
      "erb": 5798,
      "bla": 5799,
      "##go": 5800,
      "##anien": 5801,
      "##wegs": 5802,
      "erscheint": 5803,
      "generation": 5804,
      "##aff": 5805,
      "geheim": 5806,
      "verfolgen": 5807,
      "kombination": 5808,
      "##ida": 5809,
      "##iode": 5810,
      "fraktionen": 5811,
      "wiederher": 5812,
      "##ios": 5813,
      "##arische": 5814,
      "##asc": 5815,
      "phase": 5816,
      "verpflichtet": 5817,
      "gästen": 5818,
      "##mittelt": 5819,
      "veranstaltung": 5820,
      "schneller": 5821,
      "beeindruck": 5822,
      "how": 5823,
      "##ieht": 5824,
      "##passen": 5825,
      "##bindung": 5826,
      "##ährung": 5827,
      "formular": 5828,
      "##üc": 5829,
      "##ewelche": 5830,
      "ehemaligen": 5831,
      "##anders": 5832,
      "##df": 5833,
      "versucht": 5834,
      "##iente": 5835,
      "wichtidass": 5836,
      "##unsten": 5837,
      "breakfast": 5838,
      "stunde": 5839,
      "##uelle": 5840,
      "höchste": 5841,
      "grenze": 5842,
      "##nämlich": 5843,
      "shop": 5844,
      "diver": 5845,
      "einklang": 5846,
      "schloss": 5847,
      "##swert": 5848,
      "zahlungs": 5849,
      "aufsicht": 5850,
      "##ablen": 5851,
      "para": 5852,
      "bedeutedass": 5853,
      "beteiligten": 5854,
      "englisch": 5855,
      "haushaltsplan": 5856,
      "fro": 5857,
      "lern": 5858,
      "presse": 5859,
      "oste": 5860,
      "touristen": 5861,
      "niederland": 5862,
      "##ato": 5863,
      "prakti": 5864,
      "##tist": 5865,
      "extra": 5866,
      "sec": 5867,
      "wichtiges": 5868,
      "definition": 5869,
      "##sens": 5870,
      "##bereit": 5871,
      "##undaß": 5872,
      "maßnahme": 5873,
      "##kanischen": 5874,
      "gewissen": 5875,
      "goog": 5876,
      "##rosoft": 5877,
      "massen": 5878,
      "afghan": 5879,
      "dach": 5880,
      "##wesen": 5881,
      "kooperation": 5882,
      "##neten": 5883,
      "##jedoch": 5884,
      "##leit": 5885,
      "belast": 5886,
      "erhöht": 5887,
      "derzeitigen": 5888,
      "##gebe": 5889,
      "anmerk": 5890,
      "bekannten": 5891,
      "##ola": 5892,
      "##utzung": 5893,
      "##oler": 5894,
      "dän": 5895,
      "gefordert": 5896,
      "##kat": 5897,
      "hoher": 5898,
      "münd": 5899,
      "männer": 5900,
      "erör": 5901,
      "arme": 5902,
      "ref": 5903,
      "besitzt": 5904,
      "##lun": 5905,
      "your": 5906,
      "dient": 5907,
      "gestalten": 5908,
      "fahrzeug": 5909,
      "##technik": 5910,
      "glas": 5911,
      "nachrichten": 5912,
      "##osoph": 5913,
      "eingerichte": 5914,
      "verfolgt": 5915,
      "##orgt": 5916,
      "keines": 5917,
      "ing": 5918,
      "distrib": 5919,
      "##uri": 5920,
      "##abilität": 5921,
      "reichen": 5922,
      "##isiert": 5923,
      "##stehenden": 5924,
      "free": 5925,
      "gewisse": 5926,
      "##ieten": 5927,
      "kompliz": 5928,
      "##mitten": 5929,
      "##findet": 5930,
      "vermeiden": 5931,
      "berücksichtigung": 5932,
      "hierbei": 5933,
      "power": 5934,
      "##iums": 5935,
      "armen": 5936,
      "nennen": 5937,
      "koll": 5938,
      "##deten": 5939,
      "polen": 5940,
      "gespeich": 5941,
      "bürokra": 5942,
      "wissedass": 5943,
      "##zahlt": 5944,
      "digital": 5945,
      "langsam": 5946,
      "ski": 5947,
      "virtu": 5948,
      "stud": 5949,
      "##zellen": 5950,
      "nochmals": 5951,
      "gleicher": 5952,
      "##beziehung": 5953,
      "italienischen": 5954,
      "cre": 5955,
      "beträ": 5956,
      "verzö": 5957,
      "##orf": 5958,
      "starken": 5959,
      "konkreten": 5960,
      "übertrag": 5961,
      "##gere": 5962,
      "außergewöhn": 5963,
      "##iedie": 5964,
      "angezeigt": 5965,
      "informiert": 5966,
      "darstellen": 5967,
      "##ni": 5968,
      "verfügbarkeit": 5969,
      "zusatz": 5970,
      "mehrwert": 5971,
      "##herrn": 5972,
      "##krise": 5973,
      "amt": 5974,
      "minderheiten": 5975,
      "zut": 5976,
      "##meldung": 5977,
      "spiegel": 5978,
      "##ournal": 5979,
      "wiederum": 5980,
      "##eunter": 5981,
      "szen": 5982,
      "warten": 5983,
      "tim": 5984,
      "zü": 5985,
      "##ero": 5986,
      "##ismen": 5987,
      "bewahr": 5988,
      "boot": 5989,
      "historische": 5990,
      "marken": 5991,
      "empfehlung": 5992,
      "inseln": 5993,
      "salz": 5994,
      "cal": 5995,
      "##itter": 5996,
      "pflanzen": 5997,
      "##heber": 5998,
      "untersuchung": 5999,
      "zählen": 6000,
      "##mach": 6001,
      "cam": 6002,
      "plus": 6003,
      "enterprise": 6004,
      "effizienz": 6005,
      "ew": 6006,
      "##ya": 6007,
      "garantie": 6008,
      "##hi": 6009,
      "##gelt": 6010,
      "umständen": 6011,
      "unmittelbar": 6012,
      "hu": 6013,
      "##pol": 6014,
      "sagte": 6015,
      "list": 6016,
      "##gas": 6017,
      "interessante": 6018,
      "politiker": 6019,
      "betru": 6020,
      "intensiv": 6021,
      "weis": 6022,
      "unterschiede": 6023,
      "##adass": 6024,
      "##ql": 6025,
      "ausü": 6026,
      "##obald": 6027,
      "##gelassen": 6028,
      "##oom": 6029,
      "##folgerungen": 6030,
      "know": 6031,
      "schnitt": 6032,
      "daz": 6033,
      "hote": 6034,
      "risiken": 6035,
      "gerät": 6036,
      "ordnung": 6037,
      "rasch": 6038,
      "diskriminierung": 6039,
      "##ozi": 6040,
      "tagung": 6041,
      "subst": 6042,
      "bewegung": 6043,
      "friend": 6044,
      "refer": 6045,
      "php": 6046,
      "übernommen": 6047,
      "kranken": 6048,
      "temperatur": 6049,
      "wäh": 6050,
      "microsoft": 6051,
      "besorgnis": 6052,
      "komment": 6053,
      "kategorie": 6054,
      "stadtzentrum": 6055,
      "sound": 6056,
      "spaz": 6057,
      "fuer": 6058,
      "##bestimm": 6059,
      "befug": 6060,
      "unterschiedlich": 6061,
      "##elten": 6062,
      "entlang": 6063,
      "psych": 6064,
      "adie": 6065,
      "bay": 6066,
      "##stätig": 6067,
      "spanischen": 6068,
      "##schaffen": 6069,
      "##lieben": 6070,
      "genauso": 6071,
      "##grundlage": 6072,
      "ziemlich": 6073,
      "schwed": 6074,
      "fälle": 6075,
      "ban": 6076,
      "german": 6077,
      "##straße": 6078,
      "ergreifen": 6079,
      "softwar": 6080,
      "##angebot": 6081,
      "anwes": 6082,
      "##stre": 6083,
      "prüfen": 6084,
      "beifall": 6085,
      "gesetze": 6086,
      "steuern": 6087,
      "htt": 6088,
      "oli": 6089,
      "##stei": 6090,
      "##verhält": 6091,
      "##iven": 6092,
      "verdien": 6093,
      "methoden": 6094,
      "erscheinen": 6095,
      "fant": 6096,
      "veran": 6097,
      "ri": 6098,
      "sar": 6099,
      "gemü": 6100,
      "bean": 6101,
      "aufrech": 6102,
      "intelligen": 6103,
      "##müssen": 6104,
      "ungef": 6105,
      "zuzu": 6106,
      "gehalten": 6107,
      "our": 6108,
      "regionale": 6109,
      "##gesellschaften": 6110,
      "vater": 6111,
      "##ese": 6112,
      "manche": 6113,
      "worde": 6114,
      "sprech": 6115,
      "beding": 6116,
      "betrachten": 6117,
      "hergestellt": 6118,
      "##partner": 6119,
      "##ieredie": 6120,
      "fak": 6121,
      "##worfen": 6122,
      "##ziele": 6123,
      "legisla": 6124,
      "annehm": 6125,
      "##fäll": 6126,
      "kaffe": 6127,
      "ehrgei": 6128,
      "mikro": 6129,
      "viertel": 6130,
      "##unsere": 6131,
      "verwand": 6132,
      "buchung": 6133,
      "emp": 6134,
      "err": 6135,
      "##esp": 6136,
      "tick": 6137,
      "wahrheit": 6138,
      "einstellung": 6139,
      "nav": 6140,
      "kaufen": 6141,
      "geprü": 6142,
      "papier": 6143,
      "han": 6144,
      "schei": 6145,
      "voraussetzung": 6146,
      "bekomm": 6147,
      "##koh": 6148,
      "angek": 6149,
      "##ektoren": 6150,
      "geräte": 6151,
      "westen": 6152,
      "hören": 6153,
      "eth": 6154,
      "krä": 6155,
      "kontak": 6156,
      "##isse": 6157,
      "##teund": 6158,
      "##sicherung": 6159,
      "schule": 6160,
      "##iste": 6161,
      "latein": 6162,
      "fla": 6163,
      "revolution": 6164,
      "allt": 6165,
      "google": 6166,
      "zusätzlichen": 6167,
      "jährlich": 6168,
      "support": 6169,
      "schönsten": 6170,
      "erhältlich": 6171,
      "##nehmern": 6172,
      "cu": 6173,
      "diskussionen": 6174,
      "##aßt": 6175,
      "##mess": 6176,
      "##off": 6177,
      "##äten": 6178,
      "##gibt": 6179,
      "trend": 6180,
      "qualit": 6181,
      "##ischung": 6182,
      "übersetzung": 6183,
      "detaill": 6184,
      "delegation": 6185,
      "##itar": 6186,
      "fallen": 6187,
      "dokumente": 6188,
      "strä": 6189,
      "insp": 6190,
      "##etzen": 6191,
      "zyp": 6192,
      "seien": 6193,
      "tiere": 6194,
      "##sf": 6195,
      "##yer": 6196,
      "senden": 6197,
      "signal": 6198,
      "konst": 6199,
      "ausgezeichnete": 6200,
      "##istenz": 6201,
      "##xik": 6202,
      "öffentlich": 6203,
      "##modell": 6204,
      "##üste": 6205,
      "mögliche": 6206,
      "schlecht": 6207,
      "hervorragende": 6208,
      "küh": 6209,
      "panor": 6210,
      "betreff": 6211,
      "zimmern": 6212,
      "##yr": 6213,
      "export": 6214,
      "##echnet": 6215,
      "freizeit": 6216,
      "analys": 6217,
      "kurze": 6218,
      "ungefähr": 6219,
      "##ane": 6220,
      "gezei": 6221,
      "expor": 6222,
      "betreffenden": 6223,
      "maßnahm": 6224,
      "grundlegenden": 6225,
      "voller": 6226,
      "brasil": 6227,
      "veranstaltungen": 6228,
      "umfassenden": 6229,
      "##behand": 6230,
      "forum": 6231,
      "öffnen": 6232,
      "##versch": 6233,
      "zweit": 6234,
      "beige": 6235,
      "höhere": 6236,
      "##freie": 6237,
      "maler": 6238,
      "kapaz": 6239,
      "abgesch": 6240,
      "##vern": 6241,
      "##maschinen": 6242,
      "zunehmend": 6243,
      "bringe": 6244,
      "##ulation": 6245,
      "bestätigt": 6246,
      "urheber": 6247,
      "konzentrieren": 6248,
      "wol": 6249,
      "neuesten": 6250,
      "großbritannien": 6251,
      "gesicht": 6252,
      "##aku": 6253,
      "schweizer": 6254,
      "auftreten": 6255,
      "##sofern": 6256,
      "eigenes": 6257,
      "einschließlich": 6258,
      "eigenschaften": 6259,
      "##mod": 6260,
      "russischen": 6261,
      "weltweiten": 6262,
      "gewählt": 6263,
      "prop": 6264,
      "##wohn": 6265,
      "standort": 6266,
      "##log": 6267,
      "##präsiden": 6268,
      "##macht": 6269,
      "schwierigen": 6270,
      "einwanderung": 6271,
      "##äumen": 6272,
      "##cia": 6273,
      "details": 6274,
      "##eauf": 6275,
      "grundsätzlich": 6276,
      "kamera": 6277,
      "##ege": 6278,
      "##auchen": 6279,
      "nachzu": 6280,
      "##werten": 6281,
      "anliegen": 6282,
      "##terr": 6283,
      "bucht": 6284,
      "leitlinien": 6285,
      "##ekönnen": 6286,
      "indien": 6287,
      "##vill": 6288,
      "küsten": 6289,
      "stör": 6290,
      "##ungsk": 6291,
      "##bett": 6292,
      "beizu": 6293,
      "religi": 6294,
      "friedens": 6295,
      "spreche": 6296,
      "erfordert": 6297,
      "pic": 6298,
      "küste": 6299,
      "garantieren": 6300,
      "##täu": 6301,
      "mitten": 6302,
      "##tition": 6303,
      "still": 6304,
      "studi": 6305,
      "grundsätze": 6306,
      "##märkte": 6307,
      "anfragen": 6308,
      "##har": 6309,
      "mittelpunkt": 6310,
      "sagedaß": 6311,
      "##wann": 6312,
      "kilometer": 6313,
      "work": 6314,
      "radio": 6315,
      "##mögliche": 6316,
      "##gänge": 6317,
      "show": 6318,
      "himm": 6319,
      "äg": 6320,
      "##läre": 6321,
      "ausstellung": 6322,
      "nachfrage": 6323,
      "abhängig": 6324,
      "##iner": 6325,
      "bru": 6326,
      "wik": 6327,
      "strukturfonds": 6328,
      "ausgezeichneten": 6329,
      "##uropäischen": 6330,
      "verträge": 6331,
      "worten": 6332,
      "reden": 6333,
      "wissenschaftlichen": 6334,
      "ordnungs": 6335,
      "pack": 6336,
      "##uh": 6337,
      "schulden": 6338,
      "##fang": 6339,
      "niemals": 6340,
      "kommerzie": 6341,
      "##ktive": 6342,
      "##führte": 6343,
      "welcher": 6344,
      "anspruchs": 6345,
      "##üch": 6346,
      "wirklichkeit": 6347,
      "##ezu": 6348,
      "geträn": 6349,
      "http": 6350,
      "hart": 6351,
      "fitness": 6352,
      "alp": 6353,
      "verstärkt": 6354,
      "##anal": 6355,
      "gefangen": 6356,
      "speicher": 6357,
      "marketing": 6358,
      "vielfäl": 6359,
      "frankf": 6360,
      "begründ": 6361,
      "##mischen": 6362,
      "ermu": 6363,
      "##qual": 6364,
      "ursprünglichen": 6365,
      "unternommen": 6366,
      "##ruh": 6367,
      "natürlichen": 6368,
      "diskutieren": 6369,
      "##star": 6370,
      "ausw": 6371,
      "group": 6372,
      "##weisung": 6373,
      "##systeme": 6374,
      "schlä": 6375,
      "aucdass": 6376,
      "##fi": 6377,
      "drittens": 6378,
      "kreu": 6379,
      "grundlegende": 6380,
      "gewal": 6381,
      "##nummer": 6382,
      "klimawandel": 6383,
      "ausser": 6384,
      "##ione": 6385,
      "stift": 6386,
      "notwendige": 6387,
      "konver": 6388,
      "##gemäß": 6389,
      "höchsten": 6390,
      "amerikanische": 6391,
      "dvd": 6392,
      "verpack": 6393,
      "beabsich": 6394,
      "##ierend": 6395,
      "pens": 6396,
      "starten": 6397,
      "derartige": 6398,
      "##hend": 6399,
      "beträcht": 6400,
      "ausführung": 6401,
      "seidie": 6402,
      "blut": 6403,
      "ergeben": 6404,
      "berichten": 6405,
      "erwä": 6406,
      "einkaufs": 6407,
      "sozialdemokra": 6408,
      "menschlichen": 6409,
      "##vi": 6410,
      "diskutiert": 6411,
      "##setzt": 6412,
      "liter": 6413,
      "##ählte": 6414,
      "lager": 6415,
      "blog": 6416,
      "anschluss": 6417,
      "sichern": 6418,
      "freunde": 6419,
      "hierzu": 6420,
      "##geht": 6421,
      "syn": 6422,
      "anbieter": 6423,
      "##stoffen": 6424,
      "verantwortungs": 6425,
      "sanktionen": 6426,
      "##ju": 6427,
      "anschließend": 6428,
      "relev": 6429,
      "had": 6430,
      "ergriffen": 6431,
      "beschlü": 6432,
      "gefühl": 6433,
      "##yc": 6434,
      "##spruch": 6435,
      "werdewenn": 6436,
      "mut": 6437,
      "differ": 6438,
      "##fällen": 6439,
      "schnelle": 6440,
      "ausgabe": 6441,
      "bestellung": 6442,
      "location": 6443,
      "beschäftigt": 6444,
      "##bekämpf": 6445,
      "uno": 6446,
      "begann": 6447,
      "##tiere": 6448,
      "künftigen": 6449,
      "##meister": 6450,
      "erwartungen": 6451,
      "##indet": 6452,
      "##bereiche": 6453,
      "wild": 6454,
      "##rechten": 6455,
      "geschen": 6456,
      "meinungs": 6457,
      "kandidaten": 6458,
      "bir": 6459,
      "##kennt": 6460,
      "##berge": 6461,
      "kommissa": 6462,
      "##band": 6463,
      "##irekt": 6464,
      "bestä": 6465,
      "cl": 6466,
      "mitgliedschaft": 6467,
      "zentralen": 6468,
      "ausgeb": 6469,
      "komme": 6470,
      "dü": 6471,
      "##ipp": 6472,
      "energ": 6473,
      "vorgenommen": 6474,
      "##tif": 6475,
      "anbieten": 6476,
      "modernis": 6477,
      "##iser": 6478,
      "##jo": 6479,
      "##way": 6480,
      "akzeptiert": 6481,
      "beschrieben": 6482,
      "##klass": 6483,
      "vorder": 6484,
      "ky": 6485,
      "bildet": 6486,
      "##cial": 6487,
      "müs": 6488,
      "übrigens": 6489,
      "diejenigen": 6490,
      "riesigen": 6491,
      "umgang": 6492,
      "pflich": 6493,
      "impor": 6494,
      "##stellungs": 6495,
      "##rüstung": 6496,
      "ton": 6497,
      "buchen": 6498,
      "konfr": 6499,
      "##recke": 6500,
      "##oss": 6501,
      "##bu": 6502,
      "georg": 6503,
      "##gert": 6504,
      "offenen": 6505,
      "präsent": 6506,
      "verschiedener": 6507,
      "##teum": 6508,
      "normen": 6509,
      "##unund": 6510,
      "schatten": 6511,
      "##ährt": 6512,
      "automobil": 6513,
      "##ergeb": 6514,
      "nato": 6515,
      "##ollen": 6516,
      "casino": 6517,
      "erhöh": 6518,
      "brand": 6519,
      "eltern": 6520,
      "##gebracht": 6521,
      "satell": 6522,
      "minim": 6523,
      "gesetzes": 6524,
      "habeund": 6525,
      "ot": 6526,
      "konzern": 6527,
      "tö": 6528,
      "begeg": 6529,
      "##fertigt": 6530,
      "##stes": 6531,
      "enttäu": 6532,
      "klasse": 6533,
      "übereinstimmung": 6534,
      "einwander": 6535,
      "ign": 6536,
      "##ga": 6537,
      "landwirte": 6538,
      "aktuell": 6539,
      "##napp": 6540,
      "##nam": 6541,
      "davo": 6542,
      "##dauer": 6543,
      "föder": 6544,
      "##lymp": 6545,
      "##anda": 6546,
      "suite": 6547,
      "zuständigen": 6548,
      "##sbür": 6549,
      "##quis": 6550,
      "beispiele": 6551,
      "herkunft": 6552,
      "##sehr": 6553,
      "regime": 6554,
      "strategien": 6555,
      "##organisationen": 6556,
      "sob": 6557,
      "anerkannt": 6558,
      "##hü": 6559,
      "opti": 6560,
      "verknü": 6561,
      "##empf": 6562,
      "zugänglich": 6563,
      "neun": 6564,
      "welchen": 6565,
      "ess": 6566,
      "##flächen": 6567,
      "ambiente": 6568,
      "##sprache": 6569,
      "gran": 6570,
      "korrup": 6571,
      "beträgt": 6572,
      "moral": 6573,
      "##tigte": 6574,
      "press": 6575,
      "##ones": 6576,
      "##quellen": 6577,
      "einfachen": 6578,
      "##schätz": 6579,
      "klaren": 6580,
      "fotograf": 6581,
      "olymp": 6582,
      "amerika": 6583,
      "browser": 6584,
      "urspr": 6585,
      "zuständigkeit": 6586,
      "hundert": 6587,
      "bibliothe": 6588,
      "betreu": 6589,
      "basiert": 6590,
      "infolge": 6591,
      "zielen": 6592,
      "bewegen": 6593,
      "vot": 6594,
      "hie": 6595,
      "krisen": 6596,
      "##stät": 6597,
      "harmonisierung": 6598,
      "beratung": 6599,
      "jegliche": 6600,
      "##dete": 6601,
      "poln": 6602,
      "##önn": 6603,
      "poker": 6604,
      "betriffso": 6605,
      "festlegung": 6606,
      "##minuten": 6607,
      "##lichung": 6608,
      "##same": 6609,
      "##schafdie": 6610,
      "unent": 6611,
      "serb": 6612,
      "gefördert": 6613,
      "journal": 6614,
      "ersatz": 6615,
      "offenbar": 6616,
      "beziehe": 6617,
      "entla": 6618,
      "##ission": 6619,
      "nahrungsmittel": 6620,
      "gang": 6621,
      "schwarz": 6622,
      "tatsäch": 6623,
      "commun": 6624,
      "ziffer": 6625,
      "##ahnen": 6626,
      "baum": 6627,
      "studio": 6628,
      "abschnitt": 6629,
      "freit": 6630,
      "##ohlen": 6631,
      "##kund": 6632,
      "spricht": 6633,
      "kulturelle": 6634,
      "uneingeschrän": 6635,
      "kub": 6636,
      "##ico": 6637,
      "cook": 6638,
      "streit": 6639,
      "gefahren": 6640,
      "einzigartige": 6641,
      "geräum": 6642,
      "früheren": 6643,
      "##amerika": 6644,
      "##ded": 6645,
      "letztlich": 6646,
      "gründung": 6647,
      "page": 6648,
      "ethn": 6649,
      "betracht": 6650,
      "wirt": 6651,
      "##beauftrag": 6652,
      "##schule": 6653,
      "une": 6654,
      "fällt": 6655,
      "nahezu": 6656,
      "##ordnet": 6657,
      "beziehung": 6658,
      "kontinuier": 6659,
      "grad": 6660,
      "##mäßige": 6661,
      "##ski": 6662,
      "##ando": 6663,
      "schü": 6664,
      "dub": 6665,
      "einzigar": 6666,
      "##schirm": 6667,
      "##grenzen": 6668,
      "agrarpolitik": 6669,
      "erforderlic": 6670,
      "ursprünglich": 6671,
      "kapitel": 6672,
      "luxem": 6673,
      "bör": 6674,
      "pin": 6675,
      "zugunsten": 6676,
      "geprä": 6677,
      "jedoc": 6678,
      "plattform": 6679,
      "kul": 6680,
      "beach": 6681,
      "letzter": 6682,
      "##edes": 6683,
      "cro": 6684,
      "umweltschutz": 6685,
      "##vision": 6686,
      "##ump": 6687,
      "##wodurch": 6688,
      "##ventionen": 6689,
      "krankheit": 6690,
      "ast": 6691,
      "staatlichen": 6692,
      "ruhigen": 6693,
      "##schau": 6694,
      "##waren": 6695,
      "verlauf": 6696,
      "sidass": 6697,
      "stahl": 6698,
      "##iker": 6699,
      "kurzen": 6700,
      "ausführungen": 6701,
      "verbot": 6702,
      "gegenteil": 6703,
      "hoffnung": 6704,
      "entwicklungsländer": 6705,
      "eisenbahn": 6706,
      "gezeigt": 6707,
      "ten": 6708,
      "opposition": 6709,
      "but": 6710,
      "motiv": 6711,
      "versand": 6712,
      "gestaltung": 6713,
      "abkommens": 6714,
      "premier": 6715,
      "arz": 6716,
      "##läuter": 6717,
      "umgeben": 6718,
      "staate": 6719,
      "freude": 6720,
      "volle": 6721,
      "wachstums": 6722,
      "##einträch": 6723,
      "##wege": 6724,
      "verbesserungen": 6725,
      "punkten": 6726,
      "##stellte": 6727,
      "##ehrt": 6728,
      "gemach": 6729,
      "subsidi": 6730,
      "plug": 6731,
      "diag": 6732,
      "einsetzen": 6733,
      "##beweg": 6734,
      "##stoß": 6735,
      "westlichen": 6736,
      "konsens": 6737,
      "feuer": 6738,
      "falsch": 6739,
      "parlamen": 6740,
      "kampag": 6741,
      "konto": 6742,
      "rechtlichen": 6743,
      "installiert": 6744,
      "schäd": 6745,
      "##test": 6746,
      "ausein": 6747,
      "dav": 6748,
      "eröffnet": 6749,
      "##ail": 6750,
      "##mäßigen": 6751,
      "##verk": 6752,
      "##legungen": 6753,
      "sinund": 6754,
      "symp": 6755,
      "##hab": 6756,
      "gleichgewicht": 6757,
      "ansprü": 6758,
      "geschrieben": 6759,
      "kür": 6760,
      "bauern": 6761,
      "##pap": 6762,
      "institut": 6763,
      "##richtet": 6764,
      "##finde": 6765,
      "entwicklungsländern": 6766,
      "verzeich": 6767,
      "parall": 6768,
      "wirtschaftlich": 6769,
      "##izient": 6770,
      "brenn": 6771,
      "mittleren": 6772,
      "einsetz": 6773,
      "##otte": 6774,
      "bislang": 6775,
      "##bahnhof": 6776,
      "##möchte": 6777,
      "reagieren": 6778,
      "##klusive": 6779,
      "kurzfrist": 6780,
      "##imal": 6781,
      "##leistung": 6782,
      "projekten": 6783,
      "mobilität": 6784,
      "treff": 6785,
      "##ses": 6786,
      "redner": 6787,
      "nachhaltigen": 6788,
      "ansichdass": 6789,
      "vollständige": 6790,
      "phot": 6791,
      "##dient": 6792,
      "##tter": 6793,
      "##weite": 6794,
      "fordere": 6795,
      "fordert": 6796,
      "schließen": 6797,
      "##samen": 6798,
      "miß": 6799,
      "materialien": 6800,
      "audie": 6801,
      "##gener": 6802,
      "stolz": 6803,
      "find": 6804,
      "desig": 6805,
      "gewicht": 6806,
      "perfekt": 6807,
      "centre": 6808,
      "verbringen": 6809,
      "souver": 6810,
      "erweitert": 6811,
      "##zäh": 6812,
      "fehlen": 6813,
      "cop": 6814,
      "##gebühr": 6815,
      "sah": 6816,
      "akzept": 6817,
      "##nö": 6818,
      "wunderschön": 6819,
      "dienstleistungs": 6820,
      "##jährige": 6821,
      "domin": 6822,
      "##ziplin": 6823,
      "farbe": 6824,
      "##con": 6825,
      "rechtsstaat": 6826,
      "##kreis": 6827,
      "mas": 6828,
      "##ev": 6829,
      "##ktiven": 6830,
      "erheblich": 6831,
      "theater": 6832,
      "##station": 6833,
      "roma": 6834,
      "haftung": 6835,
      "anrei": 6836,
      "##region": 6837,
      "##mechan": 6838,
      "##ika": 6839,
      "strukturen": 6840,
      "gemeinde": 6841,
      "ech": 6842,
      "heutige": 6843,
      "aktien": 6844,
      "beraten": 6845,
      "betrieben": 6846,
      "trin": 6847,
      "spar": 6848,
      "plenum": 6849,
      "einbeziehung": 6850,
      "ausmaß": 6851,
      "zertifiz": 6852,
      "##esonders": 6853,
      "kra": 6854,
      "großzüg": 6855,
      "erfreu": 6856,
      "geltenden": 6857,
      "verringerung": 6858,
      "##wenden": 6859,
      "verlust": 6860,
      "ker": 6861,
      "##tzei": 6862,
      "spazier": 6863,
      "nör": 6864,
      "##lären": 6865,
      "problems": 6866,
      "##eherr": 6867,
      "##sur": 6868,
      "sow": 6869,
      "residen": 6870,
      "chinesischen": 6871,
      "führer": 6872,
      "##informationen": 6873,
      "vermögen": 6874,
      "##auert": 6875,
      "##bin": 6876,
      "ausstattung": 6877,
      "saison": 6878,
      "laufen": 6879,
      "veröffentlichung": 6880,
      "laufenden": 6881,
      "emissionen": 6882,
      "europäisches": 6883,
      "##ickt": 6884,
      "läuft": 6885,
      "mitge": 6886,
      "philosoph": 6887,
      "viz": 6888,
      "##very": 6889,
      "##ns": 6890,
      "##ata": 6891,
      "geäußer": 6892,
      "##standards": 6893,
      "costa": 6894,
      "welchem": 6895,
      "separ": 6896,
      "kontinent": 6897,
      "##nur": 6898,
      "führte": 6899,
      "##geschäft": 6900,
      "wirund": 6901,
      "aktionsplan": 6902,
      "##üsse": 6903,
      "ht": 6904,
      "##leiben": 6905,
      "werkzeug": 6906,
      "wall": 6907,
      "##weile": 6908,
      "verbindungen": 6909,
      "##anische": 6910,
      "gezogen": 6911,
      "##law": 6912,
      "mp": 6913,
      "##elte": 6914,
      "hadie": 6915,
      "ankunft": 6916,
      "nunmehr": 6917,
      "partnern": 6918,
      "##örderung": 6919,
      "präsentiert": 6920,
      "##waffen": 6921,
      "spezifischen": 6922,
      "##isieren": 6923,
      "##omit": 6924,
      "parame": 6925,
      "begonnen": 6926,
      "vorschlagen": 6927,
      "##stär": 6928,
      "planung": 6929,
      "iso": 6930,
      "##betrieb": 6931,
      "schweden": 6932,
      "##hy": 6933,
      "konvention": 6934,
      "##spf": 6935,
      "direkte": 6936,
      "##orgen": 6937,
      "##ffentlich": 6938,
      "zufolge": 6939,
      "konserv": 6940,
      "direkten": 6941,
      "klei": 6942,
      "einstimm": 6943,
      "absicht": 6944,
      "kreis": 6945,
      "##ates": 6946,
      "isol": 6947,
      "entwickelten": 6948,
      "echten": 6949,
      "regierungskonferenz": 6950,
      "sichedass": 6951,
      "verfahrens": 6952,
      "cm": 6953,
      "dein": 6954,
      "höheren": 6955,
      "ratspräsidentschaft": 6956,
      "##lieb": 6957,
      "##igem": 6958,
      "komponenten": 6959,
      "ägyp": 6960,
      "büro": 6961,
      "kost": 6962,
      "angenehm": 6963,
      "kriegs": 6964,
      "rezeption": 6965,
      "##ban": 6966,
      "gezw": 6967,
      "studenten": 6968,
      "fi": 6969,
      "##iso": 6970,
      "stütz": 6971,
      "##erin": 6972,
      "##verfol": 6973,
      "gelöst": 6974,
      "arbeitsplatz": 6975,
      "prag": 6976,
      "änderungsanträgen": 6977,
      "seg": 6978,
      "##produkte": 6979,
      "alli": 6980,
      "helf": 6981,
      "übert": 6982,
      "##annd": 6983,
      "entsteh": 6984,
      "global": 6985,
      "##app": 6986,
      "entscheidende": 6987,
      "##ugie": 6988,
      "inf": 6989,
      "vertret": 6990,
      "auge": 6991,
      "herunterladen": 6992,
      "ausgangspunkt": 6993,
      "brie": 6994,
      "card": 6995,
      "##iegen": 6996,
      "beam": 6997,
      "charta": 6998,
      "##lands": 6999,
      "##schaffung": 7000,
      "bekrä": 7001,
      "britische": 7002,
      "spür": 7003,
      "lam": 7004,
      "bord": 7005,
      "##uen": 7006,
      "alkoh": 7007,
      "wohnung": 7008,
      "contro": 7009,
      "ach": 7010,
      "einwohner": 7011,
      "beeinträch": 7012,
      "bab": 7013,
      "kommissions": 7014,
      "beibeh": 7015,
      "##eidet": 7016,
      "##wohnung": 7017,
      "schönheit": 7018,
      "bestehende": 7019,
      "kompetenz": 7020,
      "beiträge": 7021,
      "bilater": 7022,
      "identifiz": 7023,
      "assozi": 7024,
      "##beu": 7025,
      "##schrift": 7026,
      "pour": 7027,
      "##vertrag": 7028,
      "rub": 7029,
      "##ganz": 7030,
      "bett": 7031,
      "angesehen": 7032,
      "zauber": 7033,
      "##rip": 7034,
      "check": 7035,
      "erläuter": 7036,
      "gegend": 7037,
      "soweit": 7038,
      "letztendlich": 7039,
      "vorschlägen": 7040,
      "entscheidend": 7041,
      "donner": 7042,
      "##ros": 7043,
      "verlang": 7044,
      "medik": 7045,
      "bezieht": 7046,
      "normalerweise": 7047,
      "schäden": 7048,
      "##orten": 7049,
      "minute": 7050,
      "gehe": 7051,
      "##ochter": 7052,
      "##pft": 7053,
      "einheitlichen": 7054,
      "##übe": 7055,
      "amts": 7056,
      "nied": 7057,
      "auseinanders": 7058,
      "##ake": 7059,
      "liefern": 7060,
      "appell": 7061,
      "erfolgreiche": 7062,
      "##ory": 7063,
      "##artet": 7064,
      "münchen": 7065,
      "mrd": 7066,
      "sorgt": 7067,
      "nummer": 7068,
      "##handlungen": 7069,
      "versteh": 7070,
      "sonnt": 7071,
      "angesch": 7072,
      "verändert": 7073,
      "bip": 7074,
      "ga": 7075,
      "##erte": 7076,
      "##ela": 7077,
      "schne": 7078,
      "##ohnt": 7079,
      "ungew": 7080,
      "lokale": 7081,
      "patent": 7082,
      "frühstücksb": 7083,
      "fundament": 7084,
      "##zb": 7085,
      "wass": 7086,
      "einstellungen": 7087,
      "kmu": 7088,
      "resort": 7089,
      "behandeln": 7090,
      "ehrgeiz": 7091,
      "dring": 7092,
      "##ausschuß": 7093,
      "breiten": 7094,
      "unzu": 7095,
      "##sal": 7096,
      "sorgfältig": 7097,
      "ill": 7098,
      "##sproz": 7099,
      "serviert": 7100,
      "gep": 7101,
      "überprüfen": 7102,
      "##fal": 7103,
      "allewas": 7104,
      "##austausch": 7105,
      "gewonnen": 7106,
      "##geln": 7107,
      "vorhandenen": 7108,
      "##kas": 7109,
      "ausgezeichnet": 7110,
      "fähigkeiten": 7111,
      "##kop": 7112,
      "##sper": 7113,
      "übernimmt": 7114,
      "mexik": 7115,
      "##gess": 7116,
      "##tex": 7117,
      "pdf": 7118,
      "meinundass": 7119,
      "player": 7120,
      "linken": 7121,
      "erlebnis": 7122,
      "##ula": 7123,
      "geschieht": 7124,
      "französische": 7125,
      "ignor": 7126,
      "update": 7127,
      "centr": 7128,
      "ausgesprochen": 7129,
      "kostet": 7130,
      "gegebenen": 7131,
      "bemerkungen": 7132,
      "umfeld": 7133,
      "##züge": 7134,
      "berufs": 7135,
      "fühlen": 7136,
      "##heite": 7137,
      "portugal": 7138,
      "individuelle": 7139,
      "sicherung": 7140,
      "dram": 7141,
      "##tran": 7142,
      "gei": 7143,
      "##lebt": 7144,
      "pflicht": 7145,
      "##ativer": 7146,
      "vorang": 7147,
      "programmen": 7148,
      "unternehmer": 7149,
      "vision": 7150,
      "erstmals": 7151,
      "kä": 7152,
      "##ismu": 7153,
      "umge": 7154,
      "bildungs": 7155,
      "##sist": 7156,
      "isdaß": 7157,
      "set": 7158,
      "legitim": 7159,
      "kopen": 7160,
      "konsol": 7161,
      "##iß": 7162,
      "##freien": 7163,
      "prinzipien": 7164,
      "verursacht": 7165,
      "hoffentlich": 7166,
      "vieles": 7167,
      "erholung": 7168,
      "##häuser": 7169,
      "ausflü": 7170,
      "vergess": 7171,
      "gespräche": 7172,
      "##gä": 7173,
      "zentralbank": 7174,
      "drittländern": 7175,
      "angegebenen": 7176,
      "##eein": 7177,
      "indem": 7178,
      "stehenden": 7179,
      "trifft": 7180,
      "verlieren": 7181,
      "organisiert": 7182,
      "##wn": 7183,
      "##lima": 7184,
      "vorschlags": 7185,
      "##liebe": 7186,
      "zählt": 7187,
      "optimal": 7188,
      "durchschnitt": 7189,
      "versionen": 7190,
      "peter": 7191,
      "##autom": 7192,
      "angemessene": 7193,
      "tausende": 7194,
      "##del": 7195,
      "arbeitsplätzen": 7196,
      "einverstanden": 7197,
      "erreichbar": 7198,
      "genehmigung": 7199,
      "vereinbarungen": 7200,
      "##sdie": 7201,
      "time": 7202,
      "##olo": 7203,
      "marke": 7204,
      "verlangen": 7205,
      "##code": 7206,
      "##gemeinschaft": 7207,
      "there": 7208,
      "gelegt": 7209,
      "newsl": 7210,
      "websites": 7211,
      "rem": 7212,
      "ausgeschlossen": 7213,
      "kräfte": 7214,
      "außerordentlich": 7215,
      "begeist": 7216,
      "user": 7217,
      "individuellen": 7218,
      "fab": 7219,
      "wohnen": 7220,
      "john": 7221,
      "luxuri": 7222,
      "##nitten": 7223,
      "zin": 7224,
      "turn": 7225,
      "wetter": 7226,
      "meister": 7227,
      "geboren": 7228,
      "preisen": 7229,
      "jav": 7230,
      "##laufen": 7231,
      "wlan": 7232,
      "beziehen": 7233,
      "unge": 7234,
      "lieb": 7235,
      "voraussch": 7236,
      "nötig": 7237,
      "##ökonom": 7238,
      "kab": 7239,
      "milch": 7240,
      "##gress": 7241,
      "##politischen": 7242,
      "##wechsel": 7243,
      "##maschine": 7244,
      "festpl": 7245,
      "luxus": 7246,
      "portugie": 7247,
      "zwecke": 7248,
      "radik": 7249,
      "frist": 7250,
      "##beziehungen": 7251,
      "provinz": 7252,
      "##günst": 7253,
      "##ktivität": 7254,
      "sicherzustelledass": 7255,
      "pt": 7256,
      "grupp": 7257,
      "##kurs": 7258,
      "##unn": 7259,
      "kritis": 7260,
      "individuell": 7261,
      "hierfür": 7262,
      "transa": 7263,
      "industri": 7264,
      "##kw": 7265,
      "##mung": 7266,
      "##reter": 7267,
      "fähigkeit": 7268,
      "aqu": 7269,
      "interessiert": 7270,
      "dunk": 7271,
      "wenden": 7272,
      "##anw": 7273,
      "org": 7274,
      "bitten": 7275,
      "grafik": 7276,
      "sinnvoll": 7277,
      "##gestellten": 7278,
      "akp": 7279,
      "subsidiarität": 7280,
      "rooms": 7281,
      "zusamm": 7282,
      "aufforder": 7283,
      "##skr": 7284,
      "optionen": 7285,
      "##pu": 7286,
      "bestimmter": 7287,
      "##bieten": 7288,
      "traditionelle": 7289,
      "etabl": 7290,
      "if": 7291,
      "musste": 7292,
      "##dieses": 7293,
      "zugrund": 7294,
      "verord": 7295,
      "strategischen": 7296,
      "objekt": 7297,
      "alkohol": 7298,
      "##aner": 7299,
      "##geräte": 7300,
      "satz": 7301,
      "##hilf": 7302,
      "##cs": 7303,
      "versorgung": 7304,
      "vous": 7305,
      "sobald": 7306,
      "##heidie": 7307,
      "acco": 7308,
      "##work": 7309,
      "##ünde": 7310,
      "erfolgreichen": 7311,
      "win": 7312,
      "tochter": 7313,
      "##odie": 7314,
      "metall": 7315,
      "rechtzei": 7316,
      "##umb": 7317,
      "außenpolitik": 7318,
      "innovative": 7319,
      "inspir": 7320,
      "großem": 7321,
      "therap": 7322,
      "identität": 7323,
      "schmer": 7324,
      "##sorge": 7325,
      "##epräsiden": 7326,
      "bereitstellung": 7327,
      "unvergess": 7328,
      "mittlerweile": 7329,
      "bos": 7330,
      "fleisch": 7331,
      "##leiter": 7332,
      "konsult": 7333,
      "##entsp": 7334,
      "##eiligen": 7335,
      "migration": 7336,
      "##urg": 7337,
      "allzu": 7338,
      "##wicklung": 7339,
      "anwender": 7340,
      "implemen": 7341,
      "schlag": 7342,
      "sorgedass": 7343,
      "konkret": 7344,
      "geprüft": 7345,
      "abgelehnt": 7346,
      "asi": 7347,
      "nehme": 7348,
      "dewas": 7349,
      "rumänien": 7350,
      "gegenstand": 7351,
      "dreh": 7352,
      "##bekämpfung": 7353,
      "##fahrer": 7354,
      "tauch": 7355,
      "##ieine": 7356,
      "rechnungshof": 7357,
      "rass": 7358,
      "##ton": 7359,
      "inmitten": 7360,
      "##veranst": 7361,
      "mittelalter": 7362,
      "webseiten": 7363,
      "slowak": 7364,
      "##prinzip": 7365,
      "##rep": 7366,
      "genannte": 7367,
      "##ype": 7368,
      "werbung": 7369,
      "##räg": 7370,
      "##ics": 7371,
      "##ical": 7372,
      "erhebliche": 7373,
      "verbreitung": 7374,
      "##dienste": 7375,
      "kopenha": 7376,
      "##bene": 7377,
      "##wortet": 7378,
      "betont": 7379,
      "##innern": 7380,
      "gelungen": 7381,
      "offiziellen": 7382,
      "##weist": 7383,
      "##viertel": 7384,
      "befassen": 7385,
      "diesbezüglich": 7386,
      "##edurch": 7387,
      "werke": 7388,
      "##tiodie": 7389,
      "##nor": 7390,
      "##ox": 7391,
      "eingegangen": 7392,
      "marktes": 7393,
      "schriftliche": 7394,
      "verfassungs": 7395,
      "geliefer": 7396,
      "arznei": 7397,
      "entscheide": 7398,
      "fahrt": 7399,
      "afghanistan": 7400,
      "##ai": 7401,
      "##bü": 7402,
      "##griff": 7403,
      "manager": 7404,
      "gene": 7405,
      "##ronom": 7406,
      "entscheidender": 7407,
      "distribution": 7408,
      "legt": 7409,
      "profil": 7410,
      "##kont": 7411,
      "renten": 7412,
      "gepf": 7413,
      "ausgesetzt": 7414,
      "##weshalb": 7415,
      "##riv": 7416,
      "##alisierten": 7417,
      "##rücke": 7418,
      "house": 7419,
      "airport": 7420,
      "##woch": 7421,
      "##initi": 7422,
      "erstellung": 7423,
      "##ants": 7424,
      "##ock": 7425,
      "solches": 7426,
      "untersuchungen": 7427,
      "kohär": 7428,
      "niedriger": 7429,
      "verschie": 7430,
      "##rist": 7431,
      "klin": 7432,
      "erinnerdass": 7433,
      "##las": 7434,
      "##ief": 7435,
      "##dlichen": 7436,
      "##oli": 7437,
      "auswär": 7438,
      "tabak": 7439,
      "überzeugdass": 7440,
      "##ause": 7441,
      "anbel": 7442,
      "aktive": 7443,
      "balkon": 7444,
      "elektronischen": 7445,
      "vorhaben": 7446,
      "##ua": 7447,
      "##club": 7448,
      "##etr": 7449,
      "##berei": 7450,
      "dikt": 7451,
      "belar": 7452,
      "produziert": 7453,
      "respekt": 7454,
      "übergang": 7455,
      "##ugh": 7456,
      "##spakt": 7457,
      "##istik": 7458,
      "class": 7459,
      "cast": 7460,
      "mehrfach": 7461,
      "brut": 7462,
      "aust": 7463,
      "angst": 7464,
      "##alisier": 7465,
      "faszin": 7466,
      "parallel": 7467,
      "nukle": 7468,
      "gekenn": 7469,
      "dest": 7470,
      "niederländ": 7471,
      "bestell": 7472,
      "##ehrten": 7473,
      "gesell": 7474,
      "sv": 7475,
      "##entwurf": 7476,
      "fußball": 7477,
      "krankheiten": 7478,
      "autobahn": 7479,
      "##würde": 7480,
      "initiativ": 7481,
      "kroati": 7482,
      "##ehör": 7483,
      "infl": 7484,
      "betrag": 7485,
      "sonne": 7486,
      "erfolge": 7487,
      "##lässlich": 7488,
      "kongress": 7489,
      "hervorge": 7490,
      "nachdrück": 7491,
      "##geld": 7492,
      "##erer": 7493,
      "##sprech": 7494,
      "versich": 7495,
      "regierungsche": 7496,
      "arbeitsk": 7497,
      "definiert": 7498,
      "jug": 7499,
      "##onien": 7500,
      "##achdem": 7501,
      "##anke": 7502,
      "mobile": 7503,
      "ib": 7504,
      "institutionellen": 7505,
      "abfall": 7506,
      "nam": 7507,
      "anstieg": 7508,
      "archiv": 7509,
      "modif": 7510,
      "führende": 7511,
      "##einrichtungen": 7512,
      "gesellschaften": 7513,
      "##version": 7514,
      "cons": 7515,
      "##ael": 7516,
      "##frü": 7517,
      "eins": 7518,
      "wirtschaftswachstum": 7519,
      "besich": 7520,
      "##inar": 7521,
      "urteil": 7522,
      "schlussfolgerungen": 7523,
      "ausgeführt": 7524,
      "gewährleistung": 7525,
      "mäch": 7526,
      "##iers": 7527,
      "bedrohung": 7528,
      "wunderschönen": 7529,
      "folglich": 7530,
      "ce": 7531,
      "gespeichert": 7532,
      "lim": 7533,
      "##ls": 7534,
      "gelang": 7535,
      "##teilungen": 7536,
      "optimale": 7537,
      "##banken": 7538,
      "energien": 7539,
      "newsletter": 7540,
      "übernachtung": 7541,
      "verletzung": 7542,
      "edie": 7543,
      "##regeln": 7544,
      "##öss": 7545,
      "camping": 7546,
      "bor": 7547,
      "unmöglich": 7548,
      "übergangs": 7549,
      "verhandlung": 7550,
      "interessant": 7551,
      "gehminuten": 7552,
      "##zent": 7553,
      "absich": 7554,
      "lieferung": 7555,
      "##hören": 7556,
      "zucker": 7557,
      "abgestimmt": 7558,
      "##ema": 7559,
      "main": 7560,
      "##ebe": 7561,
      "geforder": 7562,
      "politiken": 7563,
      "verschär": 7564,
      "##gründe": 7565,
      "def": 7566,
      "ministerpräsiden": 7567,
      "##istischer": 7568,
      "##vest": 7569,
      "geziel": 7570,
      "bush": 7571,
      "hängt": 7572,
      "stattdessen": 7573,
      "##hän": 7574,
      "kontrollen": 7575,
      "##euns": 7576,
      "mäng": 7577,
      "##ines": 7578,
      "augenblick": 7579,
      "bezahlen": 7580,
      "gespräch": 7581,
      "konfron": 7582,
      "rate": 7583,
      "##osen": 7584,
      "erklären": 7585,
      "##rachte": 7586,
      "wäl": 7587,
      "##tifik": 7588,
      "##sph": 7589,
      "spaß": 7590,
      "kleines": 7591,
      "arbeite": 7592,
      "mys": 7593,
      "##irk": 7594,
      "##rot": 7595,
      "schluß": 7596,
      "##räumen": 7597,
      "durchführ": 7598,
      "ball": 7599,
      "eingang": 7600,
      "##wissenschaft": 7601,
      "##hier": 7602,
      "passwort": 7603,
      "verabschiedet": 7604,
      "over": 7605,
      "einzigartigen": 7606,
      "reduzierung": 7607,
      "bemerkung": 7608,
      "punk": 7609,
      "zusch": 7610,
      "hilft": 7611,
      "speichern": 7612,
      "unterstreich": 7613,
      "##vec": 7614,
      "##bildungs": 7615,
      "##punk": 7616,
      "beschränkt": 7617,
      "betreffend": 7618,
      "word": 7619,
      "spann": 7620,
      "##sproblem": 7621,
      "überleben": 7622,
      "anhand": 7623,
      "ruf": 7624,
      "personenbezogen": 7625,
      "lit": 7626,
      "##schiff": 7627,
      "##vorschlag": 7628,
      "schwimm": 7629,
      "erzeugnisse": 7630,
      "installieren": 7631,
      "##verehrte": 7632,
      "##arte": 7633,
      "##euten": 7634,
      "ärm": 7635,
      "##effizienz": 7636,
      "mission": 7637,
      "erfüllung": 7638,
      "genügend": 7639,
      "vizepräsiden": 7640,
      "##ieden": 7641,
      "cat": 7642,
      "zy": 7643,
      "##ior": 7644,
      "##wich": 7645,
      "solch": 7646,
      "beruh": 7647,
      "##gänger": 7648,
      "eb": 7649,
      "zypern": 7650,
      "schlägt": 7651,
      "repar": 7652,
      "schwä": 7653,
      "missbrauch": 7654,
      "nein": 7655,
      "wissenschaftliche": 7656,
      "##dis": 7657,
      "zahlung": 7658,
      "betrachte": 7659,
      "##mes": 7660,
      "##tigungen": 7661,
      "einzur": 7662,
      "##material": 7663,
      "finanziell": 7664,
      "umsatz": 7665,
      "##wiegend": 7666,
      "mem": 7667,
      "muse": 7668,
      "nenn": 7669,
      "verhaltens": 7670,
      "sl": 7671,
      "##krä": 7672,
      "messen": 7673,
      "##lock": 7674,
      "##kern": 7675,
      "überblick": 7676,
      "##ago": 7677,
      "##act": 7678,
      "joh": 7679,
      "aufgab": 7680,
      "städten": 7681,
      "öst": 7682,
      "spezifische": 7683,
      "##niveau": 7684,
      "freizüg": 7685,
      "wissens": 7686,
      "portugies": 7687,
      "nett": 7688,
      "alpen": 7689,
      "##ehaben": 7690,
      "anzei": 7691,
      "nachricht": 7692,
      "systemen": 7693,
      "##kräfte": 7694,
      "rechtsgrundlage": 7695,
      "eigentum": 7696,
      "badezimmer": 7697,
      "##händ": 7698,
      "##ination": 7699,
      "media": 7700,
      "erlauben": 7701,
      "mid": 7702,
      "##verm": 7703,
      "ähnliche": 7704,
      "zukünftigen": 7705,
      "gefäng": 7706,
      "schafft": 7707,
      "verstehe": 7708,
      "##gebiete": 7709,
      "##cor": 7710,
      "##orie": 7711,
      "eingehalten": 7712,
      "reservierung": 7713,
      "nik": 7714,
      "ram": 7715,
      "geboten": 7716,
      "begrüß": 7717,
      "verfügbaren": 7718,
      "bedeutende": 7719,
      "bevölkerungs": 7720,
      "pfer": 7721,
      "##strafe": 7722,
      "illegalen": 7723,
      "ms": 7724,
      "##aster": 7725,
      "##behörden": 7726,
      "direct": 7727,
      "##bran": 7728,
      "effizient": 7729,
      "##behörde": 7730,
      "##oben": 7731,
      "angest": 7732,
      "größeres": 7733,
      "männern": 7734,
      "ersetzt": 7735,
      "##usion": 7736,
      "gespielt": 7737,
      "##stütz": 7738,
      "freunden": 7739,
      "kämpfen": 7740,
      "verlie": 7741,
      "##pfen": 7742,
      "kommunikations": 7743,
      "alternativen": 7744,
      "##äher": 7745,
      "wirdass": 7746,
      "javasc": 7747,
      "##größ": 7748,
      "darüb": 7749,
      "speisen": 7750,
      "verbinden": 7751,
      "eads": 7752,
      "##ki": 7753,
      "schüler": 7754,
      "hingewiesen": 7755,
      "erinnern": 7756,
      "vorstellung": 7757,
      "atlan": 7758,
      "##ecken": 7759,
      "##cd": 7760,
      "zustimmen": 7761,
      "##werks": 7762,
      "voranzu": 7763,
      "knapp": 7764,
      "verbraucherschutz": 7765,
      "runde": 7766,
      "richten": 7767,
      "ruhig": 7768,
      "ähnlich": 7769,
      "sied": 7770,
      "song": 7771,
      "gewöhn": 7772,
      "weitgehend": 7773,
      "##rolle": 7774,
      "großteil": 7775,
      "durchführen": 7776,
      "##vollständ": 7777,
      "künftige": 7778,
      "##gü": 7779,
      "glaubwürdigkeit": 7780,
      "geschäfte": 7781,
      "vorgesehenen": 7782,
      "aufnehmen": 7783,
      "gewährt": 7784,
      "spitzen": 7785,
      "fantast": 7786,
      "##fein": 7787,
      "entlastung": 7788,
      "##ged": 7789,
      "ausgleich": 7790,
      "konzer": 7791,
      "internen": 7792,
      "offiziell": 7793,
      "halt": 7794,
      "güter": 7795,
      "anwesend": 7796,
      "##lim": 7797,
      "line": 7798,
      "verhindert": 7799,
      "frühstücksbu": 7800,
      "##ossen": 7801,
      "orte": 7802,
      "schlafzimmer": 7803,
      "dans": 7804,
      "daraudass": 7805,
      "##fangen": 7806,
      "stärke": 7807,
      "aff": 7808,
      "überzeugt": 7809,
      "widerspruch": 7810,
      "grosse": 7811,
      "denkdass": 7812,
      "nom": 7813,
      "wah": 7814,
      "##ssektor": 7815,
      "##berich": 7816,
      "##verwaltung": 7817,
      "existenz": 7818,
      "perform": 7819,
      "flugzeug": 7820,
      "verschle": 7821,
      "##dex": 7822,
      "mitarbeitern": 7823,
      "repräsent": 7824,
      "gestaltet": 7825,
      "dienstleistung": 7826,
      "betonedass": 7827,
      "##mente": 7828,
      "orden": 7829,
      "martin": 7830,
      "nachbarschaft": 7831,
      "faktor": 7832,
      "deck": 7833,
      "ratspräsident": 7834,
      "kompati": 7835,
      "ansichten": 7836,
      "tom": 7837,
      "##onferenz": 7838,
      "##steck": 7839,
      "daridass": 7840,
      "festival": 7841,
      "##rufen": 7842,
      "##ques": 7843,
      "unverzüglich": 7844,
      "langfristig": 7845,
      "vorlage": 7846,
      "momentan": 7847,
      "##ual": 7848,
      "liefert": 7849,
      "##otel": 7850,
      "##ienst": 7851,
      "pakete": 7852,
      "integriert": 7853,
      "wohlstand": 7854,
      "maximal": 7855,
      "haund": 7856,
      "tw": 7857,
      "##burger": 7858,
      "##fällig": 7859,
      "bisherigen": 7860,
      "umfassend": 7861,
      "gent": 7862,
      "prozesse": 7863,
      "gleichstellung": 7864,
      "ital": 7865,
      "street": 7866,
      "stay": 7867,
      "einfacher": 7868,
      "phy": 7869,
      "begrüßt": 7870,
      "staatliche": 7871,
      "mis": 7872,
      "##tei": 7873,
      "herbst": 7874,
      "sammlung": 7875,
      "vorausschau": 7876,
      "##ilder": 7877,
      "positionen": 7878,
      "##temp": 7879,
      "hingegen": 7880,
      "besitzen": 7881,
      "##spezif": 7882,
      "alex": 7883,
      "hinweisedass": 7884,
      "spät": 7885,
      "##of": 7886,
      "besonderer": 7887,
      "konsequenzen": 7888,
      "operation": 7889,
      "lt": 7890,
      "##sproj": 7891,
      "great": 7892,
      "korruption": 7893,
      "gö": 7894,
      "austr": 7895,
      "##ftige": 7896,
      "referenz": 7897,
      "gebaut": 7898,
      "gemeinschaftlichen": 7899,
      "potenzie": 7900,
      "faktoren": 7901,
      "kabel": 7902,
      "##wirkung": 7903,
      "verstanden": 7904,
      "nichtraucher": 7905,
      "vorgeschlagene": 7906,
      "##wahlen": 7907,
      "##haushalt": 7908,
      "vorbei": 7909,
      "##gemä": 7910,
      "##mitglied": 7911,
      "katastrophe": 7912,
      "beschlüsse": 7913,
      "tos": 7914,
      "gefra": 7915,
      "aktivieren": 7916,
      "automatis": 7917,
      "hall": 7918,
      "##zahlen": 7919,
      "akzeptier": 7920,
      "##asy": 7921,
      "##freundliche": 7922,
      "wähler": 7923,
      "aufrechter": 7924,
      "##stunde": 7925,
      "##lad": 7926,
      "##deckt": 7927,
      "anschließen": 7928,
      "erhalt": 7929,
      "##pfl": 7930,
      "##later": 7931,
      "##machen": 7932,
      "##erten": 7933,
      "präsidenfrau": 7934,
      "versuche": 7935,
      "ret": 7936,
      "##riere": 7937,
      "isum": 7938,
      "rückkehr": 7939,
      "santa": 7940,
      "lobby": 7941,
      "##epro": 7942,
      "##ington": 7943,
      "##vorschläge": 7944,
      "umfangreiche": 7945,
      "quad": 7946,
      "abente": 7947,
      "rent": 7948,
      "##bab": 7949,
      "anhäng": 7950,
      "##grad": 7951,
      "sens": 7952,
      "##raten": 7953,
      "einheim": 7954,
      "verlangt": 7955,
      "##amente": 7956,
      "sektoren": 7957,
      "kommissionspräsiden": 7958,
      "kontakte": 7959,
      "mache": 7960,
      "menschliche": 7961,
      "zivilgesellschaft": 7962,
      "palästinensischen": 7963,
      "bemühen": 7964,
      "javascript": 7965,
      "home": 7966,
      "##owie": 7967,
      "front": 7968,
      "vertrieb": 7969,
      "zusammenzu": 7970,
      "##atiodie": 7971,
      "franc": 7972,
      "##beschreibung": 7973,
      "hochwertige": 7974,
      "inneren": 7975,
      "##opol": 7976,
      "##here": 7977,
      "fig": 7978,
      "##edar": 7979,
      "branchen": 7980,
      "offene": 7981,
      "##handelt": 7982,
      "zukünftige": 7983,
      "glä": 7984,
      "vorliegende": 7985,
      "merc": 7986,
      "tarif": 7987,
      "##iw": 7988,
      "verarbeitung": 7989,
      "##nisses": 7990,
      "vergnü": 7991,
      "aufs": 7992,
      "##ities": 7993,
      "##spielsweise": 7994,
      "nehm": 7995,
      "##bal": 7996,
      "##werken": 7997,
      "##esenheit": 7998,
      "enthaltenen": 7999,
      "##jet": 8000,
      "##behandlung": 8001,
      "##garten": 8002,
      "stimmt": 8003,
      "verurteilt": 8004,
      "militärischen": 8005,
      "überlegungen": 8006,
      "##ward": 8007,
      "##zureich": 8008,
      "tschechischen": 8009,
      "clu": 8010,
      "##wald": 8011,
      "audass": 8012,
      "betreiber": 8013,
      "leitung": 8014,
      "##ampag": 8015,
      "##kel": 8016,
      "zuges": 8017,
      "festgestellt": 8018,
      "##wieder": 8019,
      "namens": 8020,
      "modelle": 8021,
      "militärische": 8022,
      "pres": 8023,
      "##dan": 8024,
      "unterdrück": 8025,
      "behalten": 8026,
      "geschwindigkeit": 8027,
      "skand": 8028,
      "usb": 8029,
      "##stad": 8030,
      "##tisches": 8031,
      "##ihr": 8032,
      "hinweg": 8033,
      "ablehnung": 8034,
      "adass": 8035,
      "##eher": 8036,
      "##ric": 8037,
      "abschaffung": 8038,
      "asien": 8039,
      "##gerät": 8040,
      "erhielt": 8041,
      "angezei": 8042,
      "zuständig": 8043,
      "widerstand": 8044,
      "beeinfluss": 8045,
      "lautet": 8046,
      "##geschichte": 8047,
      "access": 8048,
      "quellen": 8049,
      "passag": 8050,
      "steuerung": 8051,
      "beherr": 8052,
      "##pal": 8053,
      "##sträger": 8054,
      "jener": 8055,
      "strategische": 8056,
      "entwickelte": 8057,
      "##mor": 8058,
      "tritt": 8059,
      "##alu": 8060,
      "bereitgestellt": 8061,
      "##onie": 8062,
      "staates": 8063,
      "##unruh": 8064,
      "##senden": 8065,
      "empfangen": 8066,
      "sogenannten": 8067,
      "angekünd": 8068,
      "##wirkt": 8069,
      "gewünschten": 8070,
      "##emm": 8071,
      "##frika": 8072,
      "##paket": 8073,
      "kg": 8074,
      "übersicht": 8075,
      "rau": 8076,
      "weist": 8077,
      "veränderung": 8078,
      "argument": 8079,
      "##ehat": 8080,
      "hervorragenden": 8081,
      "##stä": 8082,
      "praktische": 8083,
      "sondern": 8084,
      "gewerk": 8085,
      "nahm": 8086,
      "verhandlungs": 8087,
      "applik": 8088,
      "korrekt": 8089,
      "##elbe": 8090,
      "##institution": 8091,
      "verkauft": 8092,
      "##sbürger": 8093,
      "einbezogen": 8094,
      "anlass": 8095,
      "bemerken": 8096,
      "erstes": 8097,
      "perfekte": 8098,
      "jugos": 8099,
      "angepasst": 8100,
      "##nes": 8101,
      "##jahres": 8102,
      "langfristige": 8103,
      "videos": 8104,
      "jetzigen": 8105,
      "##wahr": 8106,
      "stri": 8107,
      "##kannst": 8108,
      "beunruh": 8109,
      "##onach": 8110,
      "zuläss": 8111,
      "una": 8112,
      "sozialer": 8113,
      "entscheidungs": 8114,
      "abhängigkeit": 8115,
      "herstell": 8116,
      "gewer": 8117,
      "bestimmen": 8118,
      "plat": 8119,
      "ebenen": 8120,
      "empfang": 8121,
      "##zentren": 8122,
      "dokumenten": 8123,
      "storn": 8124,
      "transfer": 8125,
      "##teste": 8126,
      "##tzut": 8127,
      "##sprinzip": 8128,
      "##ituation": 8129,
      "##aturen": 8130,
      "##schnit": 8131,
      "##technologie": 8132,
      "fun": 8133,
      "non": 8134,
      "phän": 8135,
      "##ildet": 8136,
      "cha": 8137,
      "branche": 8138,
      "horiz": 8139,
      "türkischen": 8140,
      "total": 8141,
      "##zunehm": 8142,
      "meh": 8143,
      "abziel": 8144,
      "hohem": 8145,
      "##zenten": 8146,
      "unabhängigen": 8147,
      "##famil": 8148,
      "bekämpfen": 8149,
      "komplette": 8150,
      "##instrument": 8151,
      "mang": 8152,
      "luxemburg": 8153,
      "maschine": 8154,
      "angehör": 8155,
      "sohn": 8156,
      "zustimm": 8157,
      "##ku": 8158,
      "##anzig": 8159,
      "##grenze": 8160,
      "konkurrenz": 8161,
      "##motion": 8162,
      "natürliche": 8163,
      "ernsthaft": 8164,
      "organisieren": 8165,
      "zwangs": 8166,
      "result": 8167,
      "liberalen": 8168,
      "kreativ": 8169,
      "ni": 8170,
      "umzusetzen": 8171,
      "sachen": 8172,
      "comfort": 8173,
      "album": 8174,
      "##ws": 8175,
      "herum": 8176,
      "date": 8177,
      "##ahe": 8178,
      "planeten": 8179,
      "hung": 8180,
      "##agentur": 8181,
      "pas": 8182,
      "##orge": 8183,
      "##ediese": 8184,
      "##prozess": 8185,
      "steigen": 8186,
      "##weisungen": 8187,
      "filter": 8188,
      "textil": 8189,
      "wiederholt": 8190,
      "erbau": 8191,
      "verboten": 8192,
      "##olution": 8193,
      "##trage": 8194,
      "wünsch": 8195,
      "##spartei": 8196,
      "vierten": 8197,
      "##ista": 8198,
      "##jenigen": 8199,
      "erzeugt": 8200,
      "vorn": 8201,
      "tätigkeiten": 8202,
      "praktiken": 8203,
      "reihen": 8204,
      "normalen": 8205,
      "paul": 8206,
      "##ille": 8207,
      "wechs": 8208,
      "walk": 8209,
      "##pel": 8210,
      "##verantwort": 8211,
      "belg": 8212,
      "bom": 8213,
      "präsidendie": 8214,
      "##änderungen": 8215,
      "organe": 8216,
      "verank": 8217,
      "##öch": 8218,
      "rechner": 8219,
      "wandel": 8220,
      "kamen": 8221,
      "humanitäre": 8222,
      "gefallen": 8223,
      "gestär": 8224,
      "ausnahm": 8225,
      "##verbrauch": 8226,
      "elektro": 8227,
      "dürfte": 8228,
      "tha": 8229,
      "überaus": 8230,
      "grossen": 8231,
      "##vom": 8232,
      "##ria": 8233,
      "job": 8234,
      "holl": 8235,
      "parameter": 8236,
      "vul": 8237,
      "perspektive": 8238,
      "frankfurt": 8239,
      "entsteht": 8240,
      "freundlich": 8241,
      "##ellent": 8242,
      "poly": 8243,
      "katalog": 8244,
      "freizügigkeit": 8245,
      "bünd": 8246,
      "##alo": 8247,
      "annehmen": 8248,
      "##ktions": 8249,
      "##lösungen": 8250,
      "##mitglieder": 8251,
      "##uti": 8252,
      "##pflicht": 8253,
      "finanzierungs": 8254,
      "##lager": 8255,
      "featur": 8256,
      "multilater": 8257,
      "verdient": 8258,
      "wirken": 8259,
      "##restaur": 8260,
      "interne": 8261,
      "festgelegten": 8262,
      "freiheiten": 8263,
      "hoffedass": 8264,
      "##position": 8265,
      "##list": 8266,
      "korrig": 8267,
      "urlaubs": 8268,
      "externen": 8269,
      "hinweise": 8270,
      "aussage": 8271,
      "erstklass": 8272,
      "appartement": 8273,
      "##bestimmungen": 8274,
      "##alisierte": 8275,
      "##lings": 8276,
      "##eucht": 8277,
      "befinde": 8278,
      "einheitliche": 8279,
      "kontra": 8280,
      "wolle": 8281,
      "burg": 8282,
      "##cin": 8283,
      "weihn": 8284,
      "fesdass": 8285,
      "ezb": 8286,
      "beendet": 8287,
      "heutzut": 8288,
      "##lla": 8289,
      "verteilung": 8290,
      "darstellung": 8291,
      "##ids": 8292,
      "##fizit": 8293,
      "hof": 8294,
      "##akzept": 8295,
      "ergreif": 8296,
      "##urlaub": 8297,
      "##unum": 8298,
      "weisen": 8299,
      "ecu": 8300,
      "doc": 8301,
      "geburt": 8302,
      "quelle": 8303,
      "navig": 8304,
      "nice": 8305,
      "bearbeitung": 8306,
      "vermut": 8307,
      "kapit": 8308,
      "gleichermaßen": 8309,
      "fuss": 8310,
      "##aktionen": 8311,
      "##gigen": 8312,
      "##gerufen": 8313,
      "flash": 8314,
      "schreck": 8315,
      "entstand": 8316,
      "digitalen": 8317,
      "gebühren": 8318,
      "eingeschrän": 8319,
      "argen": 8320,
      "sour": 8321,
      "news": 8322,
      "kamer": 8323,
      "ergänz": 8324,
      "überprüft": 8325,
      "bedeutend": 8326,
      "##mü": 8327,
      "##ador": 8328,
      "##kontrolle": 8329,
      "befrei": 8330,
      "genaue": 8331,
      "##ams": 8332,
      "wal": 8333,
      "souverän": 8334,
      "##swerte": 8335,
      "##schin": 8336,
      "##sagen": 8337,
      "daradass": 8338,
      "##glieder": 8339,
      "##uls": 8340,
      "bewuß": 8341,
      "katastrophen": 8342,
      "##alerie": 8343,
      "##kampf": 8344,
      "##rung": 8345,
      "##rand": 8346,
      "##elbst": 8347,
      "##rennt": 8348,
      "registrierung": 8349,
      "zö": 8350,
      "verbindet": 8351,
      "wiederaufbau": 8352,
      "##quenz": 8353,
      "keinem": 8354,
      "##analy": 8355,
      "parlamentarischen": 8356,
      "schulen": 8357,
      "nei": 8358,
      "##mpft": 8359,
      "wochenende": 8360,
      "##tial": 8361,
      "anzeigen": 8362,
      "berühr": 8363,
      "stehe": 8364,
      "grundlagen": 8365,
      "modified": 8366,
      "umgeb": 8367,
      "##zweck": 8368,
      "konzert": 8369,
      "unzureich": 8370,
      "rechtliche": 8371,
      "erinnerung": 8372,
      "client": 8373,
      "info": 8374,
      "##endas": 8375,
      "##ötz": 8376,
      "qualif": 8377,
      "##ift": 8378,
      "insofern": 8379,
      "ausgerichtet": 8380,
      "##rotz": 8381,
      "sieg": 8382,
      "handlungs": 8383,
      "##ssystems": 8384,
      "lieber": 8385,
      "##licdaß": 8386,
      "##mittlung": 8387,
      "bol": 8388,
      "##stan": 8389,
      "prozesses": 8390,
      "##staatlichen": 8391,
      "aufenthalts": 8392,
      "aussehen": 8393,
      "verändern": 8394,
      "##fir": 8395,
      "frucht": 8396,
      "wör": 8397,
      "##junkt": 8398,
      "##stieg": 8399,
      "##teder": 8400,
      "##reibe": 8401,
      "rechtfer": 8402,
      "abendessen": 8403,
      "wisse": 8404,
      "fehlt": 8405,
      "##stelledaß": 8406,
      "##frank": 8407,
      "##bungs": 8408,
      "hardware": 8409,
      "##ektive": 8410,
      "sichere": 8411,
      "corpor": 8412,
      "akadem": 8413,
      "html": 8414,
      "##spolitischen": 8415,
      "##räglich": 8416,
      "eingesetz": 8417,
      "enthalt": 8418,
      "verlag": 8419,
      "life": 8420,
      "night": 8421,
      "anbet": 8422,
      "besonderes": 8423,
      "equ": 8424,
      "put": 8425,
      "getragen": 8426,
      "lieg": 8427,
      "##wendungen": 8428,
      "behoben": 8429,
      "wirtschaftskr": 8430,
      "##städ": 8431,
      "##lingen": 8432,
      "roy": 8433,
      "jes": 8434,
      "wirtschaftlicher": 8435,
      "ou": 8436,
      "tenden": 8437,
      "läß": 8438,
      "spir": 8439,
      "##alender": 8440,
      "##gebäu": 8441,
      "balkan": 8442,
      "reduziert": 8443,
      "gottes": 8444,
      "ausbau": 8445,
      "elektr": 8446,
      "##genomm": 8447,
      "erleichtern": 8448,
      "allianz": 8449,
      "mäd": 8450,
      "##eto": 8451,
      "##entscheid": 8452,
      "##uth": 8453,
      "berliner": 8454,
      "bürgerbeauftrag": 8455,
      "vorbereitet": 8456,
      "ablauf": 8457,
      "wollten": 8458,
      "frühen": 8459,
      "hinzugefü": 8460,
      "nachhaltigkeit": 8461,
      "##nien": 8462,
      "dräng": 8463,
      "fahrzeuge": 8464,
      "chinas": 8465,
      "generell": 8466,
      "stoffe": 8467,
      "verkaufen": 8468,
      "unglaub": 8469,
      "einschätz": 8470,
      "eingereich": 8471,
      "##eines": 8472,
      "##izza": 8473,
      "klassischen": 8474,
      "heutzutage": 8475,
      "vertie": 8476,
      "ungarn": 8477,
      "##nun": 8478,
      "##var": 8479,
      "kulturen": 8480,
      "anzuzeigen": 8481,
      "##licken": 8482,
      "thr": 8483,
      "gegner": 8484,
      "fang": 8485,
      "geniessen": 8486,
      "ausblick": 8487,
      "##werde": 8488,
      "bestimmung": 8489,
      "##häfen": 8490,
      "day": 8491,
      "marok": 8492,
      "##bereichen": 8493,
      "armee": 8494,
      "geschicht": 8495,
      "uss": 8496,
      "aufzunehmen": 8497,
      "schwierige": 8498,
      "meg": 8499,
      "program": 8500,
      "griechischen": 8501,
      "sd": 8502,
      "##bern": 8503,
      "zurüc": 8504,
      "öffnung": 8505,
      "schicken": 8506,
      "kreuz": 8507,
      "kart": 8508,
      "vorlegen": 8509,
      "hot": 8510,
      "first": 8511,
      "kollegin": 8512,
      "eingesch": 8513,
      "##edi": 8514,
      "gri": 8515,
      "##alles": 8516,
      "selben": 8517,
      "sech": 8518,
      "##su": 8519,
      "anhör": 8520,
      "##systems": 8521,
      "ehe": 8522,
      "##imming": 8523,
      "montag": 8524,
      "solar": 8525,
      "unabhängige": 8526,
      "##grenzung": 8527,
      "##urz": 8528,
      "dusche": 8529,
      "gesetzlichen": 8530,
      "notwendigkei": 8531,
      "kladass": 8532,
      "##strö": 8533,
      "stammen": 8534,
      "selb": 8535,
      "##politische": 8536,
      "dev": 8537,
      "##etc": 8538,
      "abgesehen": 8539,
      "##stil": 8540,
      "##liess": 8541,
      "##nie": 8542,
      "habedass": 8543,
      "##betten": 8544,
      "schiffe": 8545,
      "##ley": 8546,
      "stellte": 8547,
      "offizielle": 8548,
      "leh": 8549,
      "##ments": 8550,
      "johann": 8551,
      "unmittelbarer": 8552,
      "kreditkarte": 8553,
      "##sprozesses": 8554,
      "gestatten": 8555,
      "ansehen": 8556,
      "prei": 8557,
      "##bares": 8558,
      "ländedie": 8559,
      "befugnisse": 8560,
      "fan": 8561,
      "##kontroll": 8562,
      "##sprogramme": 8563,
      "bewähr": 8564,
      "jp": 8565,
      "##amin": 8566,
      "rock": 8567,
      "effekt": 8568,
      "eignet": 8569,
      "achten": 8570,
      "##bi": 8571,
      "##lichkei": 8572,
      "nachmittag": 8573,
      "jugoslaw": 8574,
      "##icken": 8575,
      "mall": 8576,
      "##annter": 8577,
      "found": 8578,
      "rek": 8579,
      "##erto": 8580,
      "europe": 8581,
      "gegenwärtige": 8582,
      "dör": 8583,
      "##ranten": 8584,
      "##anger": 8585,
      "##aria": 8586,
      "vertrages": 8587,
      "benachteil": 8588,
      "stiftung": 8589,
      "##ez": 8590,
      "##fleisch": 8591,
      "##dule": 8592,
      "heiligen": 8593,
      "slowen": 8594,
      "hell": 8595,
      "##usern": 8596,
      "parkplatz": 8597,
      "##heits": 8598,
      "##kret": 8599,
      "verleihen": 8600,
      "green": 8601,
      "treib": 8602,
      "suiten": 8603,
      "sat": 8604,
      "anony": 8605,
      "zahlungen": 8606,
      "generationen": 8607,
      "häuser": 8608,
      "irischen": 8609,
      "schwere": 8610,
      "befind": 8611,
      "erhaltung": 8612,
      "fäll": 8613,
      "varian": 8614,
      "##spielen": 8615,
      "##geleg": 8616,
      "passiert": 8617,
      "##tor": 8618,
      "##hlt": 8619,
      "integrierten": 8620,
      "##habe": 8621,
      "lasse": 8622,
      "gefah": 8623,
      "beschäftigen": 8624,
      "durchzuführen": 8625,
      "##ümer": 8626,
      "intervention": 8627,
      "##fähige": 8628,
      "schweren": 8629,
      "regierungschefs": 8630,
      "finanziert": 8631,
      "bulgarien": 8632,
      "resul": 8633,
      "versprechen": 8634,
      "verteilt": 8635,
      "##ätze": 8636,
      "jedenfalls": 8637,
      "machte": 8638,
      "##ologien": 8639,
      "märkten": 8640,
      "fahrer": 8641,
      "pläne": 8642,
      "pflege": 8643,
      "more": 8644,
      "himmel": 8645,
      "##funk": 8646,
      "jenen": 8647,
      "häuf": 8648,
      "##ließt": 8649,
      "lebend": 8650,
      "linien": 8651,
      "##geltlich": 8652,
      "##programme": 8653,
      "kontaktieren": 8654,
      "übertragung": 8655,
      "opf": 8656,
      "##male": 8657,
      "ferienwohnung": 8658,
      "zür": 8659,
      "arbeiter": 8660,
      "anmel": 8661,
      "gewor": 8662,
      "beantworten": 8663,
      "box": 8664,
      "ziti": 8665,
      "ländliche": 8666,
      "binnenmarktes": 8667,
      "ört": 8668,
      "rechen": 8669,
      "antwor": 8670,
      "beobach": 8671,
      "ursachen": 8672,
      "schlagen": 8673,
      "gratulieren": 8674,
      "##verhandlungen": 8675,
      "##agte": 8676,
      "##junktur": 8677,
      "säu": 8678,
      "trocken": 8679,
      "wirksame": 8680,
      "parlamente": 8681,
      "emissions": 8682,
      "herrlichen": 8683,
      "##zieht": 8684,
      "benutzung": 8685,
      "kas": 8686,
      "##reiter": 8687,
      "amer": 8688,
      "vorgeschlage": 8689,
      "##institu": 8690,
      "mb": 8691,
      "zone": 8692,
      "tenn": 8693,
      "köst": 8694,
      "##stab": 8695,
      "##emö": 8696,
      "erhoben": 8697,
      "##fuhr": 8698,
      "kroatien": 8699,
      "##reife": 8700,
      "##ünften": 8701,
      "biete": 8702,
      "verringern": 8703,
      "##egangen": 8704,
      "##kore": 8705,
      "##schlüssel": 8706,
      "nachdrücklich": 8707,
      "##just": 8708,
      "##asi": 8709,
      "oh": 8710,
      "##ringung": 8711,
      "##hrase": 8712,
      "umfangreich": 8713,
      "schlechte": 8714,
      "beseitigung": 8715,
      "##hu": 8716,
      "weidass": 8717,
      "beruht": 8718,
      "##dienstleistungen": 8719,
      "qualitativ": 8720,
      "amtier": 8721,
      "autos": 8722,
      "vodie": 8723,
      "##ura": 8724,
      "##herap": 8725,
      "##äumt": 8726,
      "anhalten": 8727,
      "dep": 8728,
      "kopenhagen": 8729,
      "tonnen": 8730,
      "könnedie": 8731,
      "bleib": 8732,
      "behörde": 8733,
      "unentgeltlich": 8734,
      "flo": 8735,
      "kult": 8736,
      "miet": 8737,
      "##eir": 8738,
      "ausgel": 8739,
      "iv": 8740,
      "entwickler": 8741,
      "eigener": 8742,
      "music": 8743,
      "##seiten": 8744,
      "strecke": 8745,
      "michael": 8746,
      "arabischen": 8747,
      "drittel": 8748,
      "##schließen": 8749,
      "##edia": 8750,
      "reduzieren": 8751,
      "##darunter": 8752,
      "##oth": 8753,
      "zeige": 8754,
      "derzeitige": 8755,
      "komfortable": 8756,
      "konzent": 8757,
      "##chron": 8758,
      "##omp": 8759,
      "zurzeit": 8760,
      "entschäd": 8761,
      "länge": 8762,
      "toler": 8763,
      "anbelang": 8764,
      "zusammenhäng": 8765,
      "##ängen": 8766,
      "##mas": 8767,
      "##geführt": 8768,
      "eingereicht": 8769,
      "älteren": 8770,
      "##kir": 8771,
      "konflikte": 8772,
      "clean": 8773,
      "negativen": 8774,
      "gaz": 8775,
      "##lösen": 8776,
      "autonom": 8777,
      "kriminalität": 8778,
      "content": 8779,
      "auffassundass": 8780,
      "schlimm": 8781,
      "anim": 8782,
      "ständigen": 8783,
      "int": 8784,
      "gearbeitet": 8785,
      "süda": 8786,
      "riv": 8787,
      "volkes": 8788,
      "##steu": 8789,
      "##schi": 8790,
      "abbau": 8791,
      "innenstadt": 8792,
      "vereinfachung": 8793,
      "dekor": 8794,
      "sicheren": 8795,
      "innere": 8796,
      "mängel": 8797,
      "##oft": 8798,
      "transpor": 8799,
      "vertrauens": 8800,
      "ausgesch": 8801,
      "realer": 8802,
      "weltkrieg": 8803,
      "##arbeitungs": 8804,
      "schnellen": 8805,
      "beobachten": 8806,
      "begrenzt": 8807,
      "enorme": 8808,
      "rab": 8809,
      "##außer": 8810,
      "import": 8811,
      "budget": 8812,
      "aro": 8813,
      "bedenk": 8814,
      "schwach": 8815,
      "darübe": 8816,
      "engine": 8817,
      "schlacht": 8818,
      "stärkere": 8819,
      "iw": 8820,
      "kategorien": 8821,
      "situationen": 8822,
      "zugrunde": 8823,
      "käufer": 8824,
      "vit": 8825,
      "entf": 8826,
      "sichtbar": 8827,
      "truppen": 8828,
      "geeignete": 8829,
      "gerechtigkeit": 8830,
      "niedrig": 8831,
      "avec": 8832,
      "##utes": 8833,
      "##ido": 8834,
      "nachbarn": 8835,
      "##verwende": 8836,
      "gesich": 8837,
      "ppe": 8838,
      "geprägt": 8839,
      "zwöl": 8840,
      "##rein": 8841,
      "erwor": 8842,
      "selber": 8843,
      "##lernen": 8844,
      "pen": 8845,
      "entscheidenden": 8846,
      "hoffen": 8847,
      "schwäch": 8848,
      "flüchtlinge": 8849,
      "jahrzehnten": 8850,
      "bewert": 8851,
      "konzip": 8852,
      "betten": 8853,
      "italienische": 8854,
      "integrierte": 8855,
      "om": 8856,
      "master": 8857,
      "frühjahr": 8858,
      "frühstücksbuffet": 8859,
      "ratifizierung": 8860,
      "oliven": 8861,
      "soeben": 8862,
      "##esollten": 8863,
      "image": 8864,
      "schie": 8865,
      "##kehren": 8866,
      "feier": 8867,
      "emb": 8868,
      "sinum": 8869,
      "##spieler": 8870,
      "conc": 8871,
      "reichhal": 8872,
      "rü": 8873,
      "##obe": 8874,
      "maria": 8875,
      "günstig": 8876,
      "afrikanischen": 8877,
      "taten": 8878,
      "##kö": 8879,
      "handy": 8880,
      "ersetzen": 8881,
      "##methoden": 8882,
      "mysql": 8883,
      "##rats": 8884,
      "entschie": 8885,
      "empfohlen": 8886,
      "##fähigen": 8887,
      "##box": 8888,
      "gelegenhei": 8889,
      "##richen": 8890,
      "##hor": 8891,
      "##spl": 8892,
      "##rennen": 8893,
      "berichterstatte": 8894,
      "##gender": 8895,
      "##atlan": 8896,
      "##rock": 8897,
      "aktiven": 8898,
      "##gefunden": 8899,
      "##ias": 8900,
      "inklusive": 8901,
      "ehren": 8902,
      "gelder": 8903,
      "bedürfnissen": 8904,
      "##äle": 8905,
[...]
