{
  "version": "1.0",
  "truncation": null,
  "padding": null,
  "added_tokens": [
    {
      "id": 0,
      "content": "[PAD]",
      "single_word": false,
      "lstrip": false,
      "rstrip": false,
      "normalized": false,
      "special": true
    },
    {
      "id": 1,
      "content": "[UNK]",
      "single_word": false,
      "lstrip": false,
      "rstrip": false,
      "normalized": false,
      "special": true
    },
    {
      "id": 2,
      "content": "[SOS]",
      "single_word": false,
      "lstrip": false,
      "rstrip": false,
      "normalized": false,
      "special": true
    },
    {
      "id": 3,
      "content": "[EOS]",
      "single_word": false,
      "lstrip": false,
      "rstrip": false,
      "normalized": false,
      "special": true
    }
  ],
  "normalizer": {
    "type": "Sequence",
    "normalizers": [
      {
        "type": "Lowercase"
      }
    ]
  },
  "pre_tokenizer": {
    "type": "Sequence",
    "pretokenizers": [
      {
        "type": "Digits",
        "individual_digits": true
      },
      {
        "type": "Whitespace"
      }
    ]
  },
  "post_processor": {
    "type": "TemplateProcessing",
    "single": [
      {
        "SpecialToken": {
          "id": "[SOS]",
          "type_id": 0
        }
      },
      {
        "Sequence": {
          "id": "A",
          "type_id": 0
        }
      },
      {
        "SpecialToken": {
          "id": "[EOS]",
          "type_id": 0
        }
      }
    ],
    "pair": [
      {
        "Sequence": {
          "id": "A",
          "type_id": 0
        }
      },
      {
        "Sequence": {
          "id": "B",
          "type_id": 1
        }
      }
    ],
    "special_tokens": {
      "[EOS]": {
        "id": "[EOS]",
        "ids": [
          3
        ],
        "tokens": [
          "[EOS]"
        ]
      },
      "[SOS]": {
        "id": "[SOS]",
        "ids": [
          2
        ],
        "tokens": [
          "[SOS]"
        ]
      }
    }
  },
  "decoder": {
    "type": "WordPiece",
    "prefix": "##",
    "cleanup": true
  },
  "model": {
    "type": "WordPiece",
    "unk_token": "[UNK]",
    "continuing_subword_prefix": "##",
    "max_input_chars_per_word": 100,
    "vocab": {
      "[PAD]": 0,
      "[UNK]": 1,
      "[SOS]": 2,
      "[EOS]": 3,
      "!": 4,
      "#": 5,
      "$": 6,
      "%": 7,
      "'": 8,
      "(": 9,
      ")": 10,
      ",": 11,
      ".": 12,
      "/": 13,
      "0": 14,
      "1": 15,
      "2": 16,
      "3": 17,
      "4": 18,
      "5": 19,
      "6": 20,
      "7": 21,
      "8": 22,
      "9": 23,
      ":": 24,
      ";": 25,
      "?": 26,
      "^": 27,
      "a": 28,
      "b": 29,
      "c": 30,
      "d": 31,
      "e": 32,
      "f": 33,
      "g": 34,
      "h": 35,
      "i": 36,
      "j": 37,
      "k": 38,
      "l": 39,
      "m": 40,
      "n": 41,
      "o": 42,
      "p": 43,
      "q": 44,
      "r": 45,
      "s": 46,
      "t": 47,
      "u": 48,
      "v": 49,
      "w": 50,
      "x": 51,
      "y": 52,
      "z": 53,
      "##u": 54,
      "##x": 55,
      "##r": 56,
      "##y": 57,
      "##c": 58,
      "##a": 59,
      "##s": 60,
      "##n": 61,
      "##t": 62,
      "##l": 63,
      "##m": 64,
      "##e": 65,
      "##o": 66,
      "##g": 67,
      "##f": 68,
      "##i": 69,
      "##h": 70,
      "##b": 71,
      "##v": 72,
      "##d": 73,
      "##p": 74,
      "##k": 75,
      "##z": 76,
      "##w": 77,
      "##j": 78,
      "##q": 79,
      "##'": 80,
      "th": 81,
      "the": 82,
      "##er": 83,
      "##on": 84,
      "##in": 85,
      "##at": 86,
      "##es": 87,
      "##en": 88,
      "##or": 89,
      "##nd": 90,
      "in": 91,
      "of": 92,
      "##it": 93,
      "##an": 94,
      "##ed": 95,
      "##ion": 96,
      "##al": 97,
      "to": 98,
      "##ar": 99,
      "##ou": 100,
      "##is": 101,
      "and": 102,
      "##re": 103,
      "##ing": 104,
      "##ic": 105,
      "##ro": 106,
      "##ent": 107,
      "##as": 108,
      "##om": 109,
      "##le": 110,
      "##el": 111,
      "##il": 112,
      "is": 113,
      "##ct": 114,
      "##st": 115,
      "be": 116,
      "##ur": 117,
      "re": 118,
      "for": 119,
      "##ation": 120,
      "##ot": 121,
      "on": 122,
      "##ve": 123,
      "that": 124,
      "##ly": 125,
      "##et": 126,
      "wh": 127,
      "##ut": 128,
      "st": 129,
      "pro": 130,
      "##ment": 131,
      "it": 132,
      "##ol": 133,
      "##id": 134,
      "##ce": 135,
      "com": 136,
      "##ch": 137,
      "con": 138,
      "al": 139,
      "##ith": 140,
      "with": 141,
      "##pe": 142,
      "##se": 143,
      "##ig": 144,
      "we": 145,
      "as": 146,
      "##ra": 147,
      "you": 148,
      "##ow": 149,
      "##ul": 150,
      "are": 151,
      "this": 152,
      "de": 153,
      "##ers": 154,
      "##ir": 155,
      "##ort": 156,
      "##ay": 157,
      "ha": 158,
      "##ess": 159,
      "an": 160,
      "##ter": 161,
      "##im": 162,
      "##ill": 163,
      "su": 164,
      "##ver": 165,
      "##est": 166,
      "##ad": 167,
      "##ies": 168,
      "##ld": 169,
      "ex": 170,
      "##am": 171,
      "ne": 172,
      "or": 173,
      "##ble": 174,
      "##ity": 175,
      "##th": 176,
      "##ate": 177,
      "not": 178,
      "##os": 179,
      "##pp": 180,
      "##ge": 181,
      "eu": 182,
      "pr": 183,
      "##em": 184,
      "at": 185,
      "##iv": 186,
      "se": 187,
      "by": 188,
      "##op": 189,
      "sh": 190,
      "have": 191,
      "##ant": 192,
      "##ak": 193,
      "en": 194,
      "par": 195,
      "##ich": 196,
      "ch": 197,
      "##ive": 198,
      "##ain": 199,
      "comm": 200,
      "##ist": 201,
      "##igh": 202,
      "##us": 203,
      "##ust": 204,
      "##ci": 205,
      "##ould": 206,
      "euro": 207,
      "##rom": 208,
      "will": 209,
      "un": 210,
      "which": 211,
      "##od": 212,
      "from": 213,
      "europe": 214,
      "all": 215,
      "##oun": 216,
      "##mp": 217,
      "##ore": 218,
      "##ia": 219,
      "##if": 220,
      "can": 221,
      "##un": 222,
      "##ect": 223,
      "##ac": 224,
      "##ions": 225,
      "has": 226,
      "##um": 227,
      "res": 228,
      "our": 229,
      "le": 230,
      "##ard": 231,
      "##and": 232,
      "wor": 233,
      "##ure": 234,
      "##end": 235,
      "##oc": 236,
      "##ight": 237,
      "comp": 238,
      "so": 239,
      "##ere": 240,
      "##qu": 241,
      "us": 242,
      "ad": 243,
      "##so": 244,
      "was": 245,
      "##ie": 246,
      "cont": 247,
      "##our": 248,
      "##all": 249,
      "european": 250,
      "##ber": 251,
      "ag": 252,
      "there": 253,
      "ac": 254,
      "##ri": 255,
      "##ally": 256,
      "imp": 257,
      "pl": 258,
      "##ud": 259,
      "coun": 260,
      "##iss": 261,
      "##ast": 262,
      "##ell": 263,
      "part": 264,
      "##rou": 265,
      "##ated": 266,
      "me": 267,
      "also": 268,
      "##ff": 269,
      "inter": 270,
      "but": 271,
      "##able": 272,
      "##ost": 273,
      "pres": 274,
      "##ous": 275,
      "do": 276,
      "##ab": 277,
      "##ish": 278,
      "am": 279,
      "he": 280,
      "##ans": 281,
      "go": 282,
      "your": 283,
      "##pt": 284,
      "##ations": 285,
      "its": 286,
      "##out": 287,
      "qu": 288,
      "ab": 289,
      "##age": 290,
      "##uct": 291,
      "##ag": 292,
      "##ome": 293,
      "##cess": 294,
      "##ission": 295,
      "##ult": 296,
      "int": 297,
      "##port": 298,
      "reg": 299,
      "##fer": 300,
      "cl": 301,
      "##vel": 302,
      "##ther": 303,
      "##ice": 304,
      "tr": 305,
      "man": 306,
      "##per": 307,
      "##act": 308,
      "##ree": 309,
      "##ake": 310,
      "##ical": 311,
      "pol": 312,
      "more": 313,
      "##ance": 314,
      "commission": 315,
      "##ik": 316,
      "##orm": 317,
      "##ine": 318,
      "##gh": 319,
      "mr": 320,
      "##ments": 321,
      "##ire": 322,
      "##og": 323,
      "##ear": 324,
      "inc": 325,
      "##ary": 326,
      "ser": 327,
      "##ence": 328,
      "##ach": 329,
      "##ue": 330,
      "one": 331,
      "would": 332,
      "their": 333,
      "if": 334,
      "##ely": 335,
      "ar": 336,
      "##iz": 337,
      "fin": 338,
      "##ates": 339,
      "##ition": 340,
      "##tr": 341,
      "new": 342,
      "##ens": 343,
      "dis": 344,
      "tra": 345,
      "app": 346,
      "##ong": 347,
      "been": 348,
      "##ail": 349,
      "##cial": 350,
      "##her": 351,
      "ro": 352,
      "##ime": 353,
      "##con": 354,
      "##ap": 355,
      "##reat": 356,
      "they": 357,
      "up": 358,
      "##form": 359,
      "mar": 360,
      "##ose": 361,
      "should": 362,
      "ind": 363,
      "##ident": 364,
      "##lo": 365,
      "ver": 366,
      "##ide": 367,
      "mem": 368,
      "work": 369,
      "##pport": 370,
      "##erm": 371,
      "sp": 372,
      "te": 373,
      "no": 374,
      "co": 375,
      "##ip": 376,
      "spe": 377,
      "out": 378,
      "##ace": 379,
      "##ign": 380,
      "##ok": 381,
      "##ase": 382,
      "##lic": 383,
      "pe": 384,
      "countr": 385,
      "##ike": 386,
      "other": 387,
      "ev": 388,
      "str": 389,
      "act": 390,
      "##ite": 391,
      "##au": 392,
      "who": 393,
      "must": 394,
      "these": 395,
      "hot": 396,
      "##ial": 397,
      "##ub": 398,
      "##art": 399,
      "##si": 400,
      "prod": 401,
      "very": 402,
      "cons": 403,
      "pos": 404,
      "president": 405,
      "##ack": 406,
      "pre": 407,
      "##ational": 408,
      "year": 409,
      "only": 410,
      "##enc": 411,
      "need": 412,
      "##ities": 413,
      "than": 414,
      "bec": 415,
      "how": 416,
      "per": 417,
      "##itt": 418,
      "##one": 419,
      "##are": 420,
      "like": 421,
      "##ord": 422,
      "##int": 423,
      "hotel": 424,
      "time": 425,
      "right": 426,
      "any": 427,
      "und": 428,
      "##ject": 429,
      "about": 430,
      "sy": 431,
      "po": 432,
      "what": 433,
      "prov": 434,
      "serv": 435,
      "##ame": 436,
      "cr": 437,
      "##pr": 438,
      "sa": 439,
      "fir": 440,
      "bet": 441,
      "rel": 442,
      "acc": 443,
      "##velop": 444,
      "##lia": 445,
      "when": 446,
      "##ks": 447,
      "develop": 448,
      "##mm": 449,
      "off": 450,
      "des": 451,
      "inst": 452,
      "parlia": 453,
      "my": 454,
      "fe": 455,
      "intern": 456,
      "rec": 457,
      "##lect": 458,
      "report": 459,
      "trans": 460,
      "import": 461,
      "##ass": 462,
      "##fore": 463,
      "parliament": 464,
      "union": 465,
      "cent": 466,
      "##ution": 467,
      "##ise": 468,
      "peop": 469,
      "##pos": 470,
      "##wn": 471,
      "##ility": 472,
      "##uc": 473,
      "min": 474,
      "##ious": 475,
      "##pl": 476,
      "states": 477,
      "##ee": 478,
      "some": 479,
      "over": 480,
      "##ors": 481,
      "dec": 482,
      "##tain": 483,
      "people": 484,
      "af": 485,
      "##ian": 486,
      "##ern": 487,
      "first": 488,
      "them": 489,
      "sub": 490,
      "under": 491,
      "##ket": 492,
      "conc": 493,
      "gu": 494,
      "member": 495,
      "##ures": 496,
      "mad": 497,
      "##av": 498,
      "product": 499,
      "##stem": 500,
      "well": 501,
      "##ings": 502,
      "##ause": 503,
      "eff": 504,
      "##get": 505,
      "##now": 506,
      "##lud": 507,
      "##ang": 508,
      "##ular": 509,
      "use": 510,
      "##ile": 511,
      "system": 512,
      "ob": 513,
      "high": 514,
      "##pect": 515,
      "##ays": 516,
      "such": 517,
      "into": 518,
      "support": 519,
      "add": 520,
      "fr": 521,
      "##we": 522,
      "##der": 523,
      "##irect": 524,
      "##iew": 525,
      "now": 526,
      "loc": 527,
      "just": 528,
      "##very": 529,
      "inform": 530,
      "were": 531,
      "world": 532,
      "most": 533,
      "##ual": 534,
      "direct": 535,
      "##de": 536,
      "##ful": 537,
      "his": 538,
      "##ft": 539,
      "bo": 540,
      "inv": 541,
      "la": 542,
      "dif": 543,
      "grou": 544,
      "polic": 545,
      "##ices": 546,
      "##conom": 547,
      "col": 548,
      "prog": 549,
      "bas": 550,
      "tw": 551,
      "many": 552,
      "countries": 553,
      "##cil": 554,
      "econom": 555,
      "dem": 556,
      "##xt": 557,
      "bel": 558,
      "lo": 559,
      "##ater": 560,
      "partic": 561,
      "room": 562,
      "know": 563,
      "br": 564,
      "council": 565,
      "##ating": 566,
      "##ild": 567,
      "##und": 568,
      "##ind": 569,
      "again": 570,
      "##rough": 571,
      "make": 572,
      "important": 573,
      "##ound": 574,
      "because": 575,
      "##ory": 576,
      "market": 577,
      "includ": 578,
      "##ms": 579,
      "gen": 580,
      "##ween": 581,
      "take": 582,
      "##ents": 583,
      "between": 584,
      "att": 585,
      "##ange": 586,
      "mod": 587,
      "##ink": 588,
      "##ry": 589,
      "mon": 590,
      "##ple": 591,
      "propos": 592,
      "may": 593,
      "requ": 594,
      "op": 595,
      "every": 596,
      "after": 597,
      "pub": 598,
      "##cept": 599,
      "bu": 600,
      "##ress": 601,
      "##ative": 602,
      "av": 603,
      "##ov": 604,
      "##sible": 605,
      "##ric": 606,
      "where": 607,
      "sol": 608,
      "leg": 609,
      "ph": 610,
      "hel": 611,
      "even": 612,
      "cle": 613,
      "##ied": 614,
      "##ough": 615,
      "great": 616,
      "information": 617,
      "rem": 618,
      "group": 619,
      "##te": 620,
      "two": 621,
      "sc": 622,
      "aut": 623,
      "##fic": 624,
      "commun": 625,
      "see": 626,
      "##ality": 627,
      "##ever": 628,
      "##oth": 629,
      "##ph": 630,
      "good": 631,
      "car": 632,
      "##day": 633,
      "made": 634,
      "sit": 635,
      "##ces": 636,
      "ext": 637,
      "##ural": 638,
      "##ention": 639,
      "agree": 640,
      "##ards": 641,
      "point": 642,
      "##ib": 643,
      "those": 644,
      "pers": 645,
      "sm": 646,
      "through": 647,
      "disc": 648,
      "##pon": 649,
      "set": 650,
      "cour": 651,
      "policy": 652,
      "##ract": 653,
      "##ced": 654,
      "##ency": 655,
      "##chn": 656,
      "years": 657,
      "##uring": 658,
      "##ives": 659,
      "##low": 660,
      "way": 661,
      "prot": 662,
      "here": 663,
      "##als": 664,
      "iss": 665,
      "ma": 666,
      "##own": 667,
      "polit": 668,
      "bus": 669,
      "es": 670,
      "had": 671,
      "mu": 672,
      "##rib": 673,
      "want": 674,
      "form": 675,
      "however": 676,
      "tak": 677,
      "##ific": 678,
      "##olog": 679,
      "##ues": 680,
      "being": 681,
      "own": 682,
      "##gy": 683,
      "progra": 684,
      "proble": 685,
      "##vern": 686,
      "##ieve": 687,
      "##urn": 688,
      "##abl": 689,
      "##ved": 690,
      "view": 691,
      "ass": 692,
      "##ited": 693,
      "##any": 694,
      "##ages": 695,
      "appro": 696,
      "##row": 697,
      "long": 698,
      "jo": 699,
      "num": 700,
      "cur": 701,
      "rest": 702,
      "fact": 703,
      "sec": 704,
      "techn": 705,
      "##ts": 706,
      "particular": 707,
      "process": 708,
      "order": 709,
      "##ey": 710,
      "quest": 711,
      "##ick": 712,
      "deb": 713,
      "##uss": 714,
      "##ep": 715,
      "public": 716,
      "find": 717,
      "differ": 718,
      "##arm": 719,
      "##air": 720,
      "vot": 721,
      "economic": 722,
      "##gan": 723,
      "##ently": 724,
      "main": 725,
      "ap": 726,
      "##ath": 727,
      "state": 728,
      "fund": 729,
      "therefore": 730,
      "international": 731,
      "cre": 732,
      "##elf": 733,
      "##arge": 734,
      "val": 735,
      "med": 736,
      "govern": 737,
      "emp": 738,
      "development": 739,
      "gener": 740,
      "respon": 741,
      "rights": 742,
      "area": 743,
      "term": 744,
      "sim": 745,
      "end": 746,
      "##land": 747,
      "hum": 748,
      "call": 749,
      "cond": 750,
      "air": 751,
      "vis": 752,
      "ful": 753,
      "situ": 754,
      "person": 755,
      "then": 756,
      "##read": 757,
      "committ": 758,
      "art": 759,
      "##ines": 760,
      "##ism": 761,
      "place": 762,
      "clear": 763,
      "comple": 764,
      "##atic": 765,
      "bl": 766,
      "social": 767,
      "protect": 768,
      "conf": 769,
      "exc": 770,
      "##ict": 771,
      "exper": 772,
      "del": 773,
      "ra": 774,
      "aw": 775,
      "cer": 776,
      "##ower": 777,
      "##ider": 778,
      "help": 779,
      "free": 780,
      "est": 781,
      "access": 782,
      "concern": 783,
      "##ene": 784,
      "mo": 785,
      "em": 786,
      "possible": 787,
      "play": 788,
      "met": 789,
      "within": 790,
      "sin": 791,
      "stand": 792,
      "does": 793,
      "both": 794,
      "fol": 795,
      "contin": 796,
      "curr": 797,
      "def": 798,
      "same": 799,
      "##ru": 800,
      "ple": 801,
      "country": 802,
      "##ouse": 803,
      "##ax": 804,
      "##wor": 805,
      "##round": 806,
      "##ning": 807,
      "##iness": 808,
      "political": 809,
      "effect": 810,
      "human": 811,
      "##ount": 812,
      "##par": 813,
      "get": 814,
      "equ": 815,
      "could": 816,
      "##king": 817,
      "incre": 818,
      "dat": 819,
      "##bers": 820,
      "const": 821,
      "red": 822,
      "##ood": 823,
      "say": 824,
      "interest": 825,
      "##ety": 826,
      "##eng": 827,
      "offer": 828,
      "##ec": 829,
      "level": 830,
      "last": 831,
      "##rol": 832,
      "dist": 833,
      "##ision": 834,
      "env": 835,
      "##lement": 836,
      "##ily": 837,
      "avail": 838,
      "exam": 839,
      "provid": 840,
      "result": 841,
      "cor": 842,
      "finan": 843,
      "##ised": 844,
      "against": 845,
      "national": 846,
      "bar": 847,
      "services": 848,
      "det": 849,
      "today": 850,
      "fam": 851,
      "much": 852,
      "organ": 853,
      "mat": 854,
      "used": 855,
      "sur": 856,
      "##tern": 857,
      "without": 858,
      "##ted": 859,
      "sch": 860,
      "##ty": 861,
      "service": 862,
      "mak": 863,
      "germ": 864,
      "ed": 865,
      "real": 866,
      "##ving": 867,
      "##ason": 868,
      "var": 869,
      "sign": 870,
      "oper": 871,
      "open": 872,
      "##iron": 873,
      "##gr": 874,
      "business": 875,
      "##ting": 876,
      "cust": 877,
      "##loy": 878,
      "##itions": 879,
      "##ional": 880,
      "lead": 881,
      "##ds": 882,
      "##utions": 883,
      "environ": 884,
      "since": 885,
      "adv": 886,
      "##iven": 887,
      "custom": 888,
      "meas": 889,
      "down": 890,
      "allow": 891,
      "number": 892,
      "web": 893,
      "present": 894,
      "fl": 895,
      "##io": 896,
      "sect": 897,
      "think": 898,
      "##ient": 899,
      "sw": 900,
      "treat": 901,
      "before": 902,
      "nat": 903,
      "##hip": 904,
      "amend": 905,
      "follow": 906,
      "##ves": 907,
      "##its": 908,
      "different": 909,
      "committee": 910,
      "during": 911,
      "back": 912,
      "environment": 913,
      "hand": 914,
      "ens": 915,
      "fur": 916,
      "eas": 917,
      "look": 918,
      "##led": 919,
      "special": 920,
      "still": 921,
      "##ner": 922,
      "available": 923,
      "her": 924,
      "cap": 925,
      "project": 926,
      "##les": 927,
      "design": 928,
      "start": 929,
      "indust": 930,
      "fut": 931,
      "##ruct": 932,
      "compet": 933,
      "consider": 934,
      "fi": 935,
      "city": 936,
      "##hing": 937,
      "ins": 938,
      "members": 939,
      "small": 940,
      "house": 941,
      "##ists": 942,
      "rev": 943,
      "elect": 944,
      "programm": 945,
      "further": 946,
      "##cond": 947,
      "data": 948,
      "dr": 949,
      "day": 950,
      "future": 951,
      "##ready": 952,
      "already": 953,
      "prev": 954,
      "bud": 955,
      "hol": 956,
      "##els": 957,
      "##sib": 958,
      "believe": 959,
      "dra": 960,
      "products": 961,
      "lif": 962,
      "quality": 963,
      "##ulation": 964,
      "fac": 965,
      "ref": 966,
      "gra": 967,
      "best": 968,
      "ter": 969,
      "ide": 970,
      "##not": 971,
      "course": 972,
      "##work": 973,
      "democ": 974,
      "ho": 975,
      "##ants": 976,
      "speci": 977,
      "##ug": 978,
      "law": 979,
      "question": 980,
      "cit": 981,
      "auth": 982,
      "##ics": 983,
      "aff": 984,
      "##ior": 985,
      "experi": 986,
      "cost": 987,
      "each": 988,
      "certain": 989,
      "put": 990,
      "prof": 991,
      "too": 992,
      "pur": 993,
      "##eration": 994,
      "ban": 995,
      "##alth": 996,
      "##omm": 997,
      "wr": 998,
      "suc": 999,
      "inf": 1000,
      "able": 1001,
      "control": 1002,
      "eng": 1003,
      "meet": 1004,
      "regard": 1005,
      "##omet": 1006,
      "secur": 1007,
      "conv": 1008,
      "##ier": 1009,
      "saf": 1010,
      "found": 1011,
      "##ute": 1012,
      "##ten": 1013,
      "financial": 1014,
      "second": 1015,
      "bre": 1016,
      "##ually": 1017,
      "##ital": 1018,
      "net": 1019,
      "case": 1020,
      "cannot": 1021,
      "el": 1022,
      "rooms": 1023,
      "ener": 1024,
      "maj": 1025,
      "##oy": 1026,
      "citiz": 1027,
      "exp": 1028,
      "##ss": 1029,
      "impro": 1030,
      "instit": 1031,
      "offers": 1032,
      "commissioner": 1033,
      "char": 1034,
      "##ately": 1035,
      "community": 1036,
      "##ral": 1037,
      "prom": 1038,
      "##ished": 1039,
      "repr": 1040,
      "agreement": 1041,
      "dep": 1042,
      "beh": 1043,
      "common": 1044,
      "child": 1045,
      "sk": 1046,
      "fre": 1047,
      "ach": 1048,
      "coop": 1049,
      "activ": 1050,
      "##fort": 1051,
      "im": 1052,
      "budget": 1053,
      "applic": 1054,
      "##iving": 1055,
      "ty": 1056,
      "power": 1057,
      "list": 1058,
      "show": 1059,
      "major": 1060,
      "reason": 1061,
      "cult": 1062,
      "fra": 1063,
      "##other": 1064,
      "fun": 1065,
      "read": 1066,
      "far": 1067,
      "security": 1068,
      "government": 1069,
      "based": 1070,
      "##ivers": 1071,
      "debate": 1072,
      "said": 1073,
      "respect": 1074,
      "issue": 1075,
      "energy": 1076,
      "war": 1077,
      "while": 1078,
      "pass": 1079,
      "hist": 1080,
      "proposal": 1081,
      "##ness": 1082,
      "means": 1083,
      "let": 1084,
      "implement": 1085,
      "##me": 1086,
      "example": 1087,
      "##ock": 1088,
      "##ather": 1089,
      "ca": 1090,
      "why": 1091,
      "author": 1092,
      "resol": 1093,
      "object": 1094,
      "##ible": 1095,
      "invest": 1096,
      "citizens": 1097,
      "##ination": 1098,
      "including": 1099,
      "employ": 1100,
      "repres": 1101,
      "situation": 1102,
      "guest": 1103,
      "technolog": 1104,
      "priv": 1105,
      "ear": 1106,
      "##ining": 1107,
      "three": 1108,
      "necess": 1109,
      "next": 1110,
      "ent": 1111,
      "opt": 1112,
      "##isation": 1113,
      "##ined": 1114,
      "wel": 1115,
      "stud": 1116,
      "health": 1117,
      "##ences": 1118,
      "prin": 1119,
      "gr": 1120,
      "few": 1121,
      "##ivid": 1122,
      "trad": 1123,
      "company": 1124,
      "addition": 1125,
      "adop": 1126,
      "##ized": 1127,
      "key": 1128,
      "##ina": 1129,
      "##ways": 1130,
      "##res": 1131,
      "##ability": 1132,
      "grow": 1133,
      "plan": 1134,
      "cam": 1135,
      "build": 1136,
      "enter": 1137,
      "##que": 1138,
      "specific": 1139,
      "##bal": 1140,
      "pay": 1141,
      "book": 1142,
      "##imes": 1143,
      "##ware": 1144,
      "measures": 1145,
      "##ird": 1146,
      "##ilities": 1147,
      "port": 1148,
      "##iting": 1149,
      "old": 1150,
      "tour": 1151,
      "##press": 1152,
      "fil": 1153,
      "success": 1154,
      "give": 1155,
      "areas": 1156,
      "##lus": 1157,
      "neg": 1158,
      "large": 1159,
      "##illion": 1160,
      "imm": 1161,
      "problem": 1162,
      "discuss": 1163,
      "glo": 1164,
      "rece": 1165,
      "stay": 1166,
      "supp": 1167,
      "given": 1168,
      "##ron": 1169,
      "establ": 1170,
      "located": 1171,
      "welc": 1172,
      "provide": 1173,
      "somet": 1174,
      "strate": 1175,
      "taken": 1176,
      "protection": 1177,
      "##ize": 1178,
      "ask": 1179,
      "##ified": 1180,
      "come": 1181,
      "centre": 1182,
      "cooperation": 1183,
      "life": 1184,
      "##alf": 1185,
      "##ys": 1186,
      "##omen": 1187,
      "manage": 1188,
      "##ren": 1189,
      "init": 1190,
      "bal": 1191,
      "##gest": 1192,
      "increas": 1193,
      "change": 1194,
      "##ration": 1195,
      "ensure": 1196,
      "rep": 1197,
      "enj": 1198,
      "##red": 1199,
      "accord": 1200,
      "##pportun": 1201,
      "opportun": 1202,
      "##ether": 1203,
      "##earch": 1204,
      "##cc": 1205,
      "##line": 1206,
      "research": 1207,
      "cas": 1208,
      "trade": 1209,
      "accept": 1210,
      "##iter": 1211,
      "enjoy": 1212,
      "##ential": 1213,
      "##ium": 1214,
      "action": 1215,
      "general": 1216,
      "position": 1217,
      "non": 1218,
      "problems": 1219,
      "pract": 1220,
      "hope": 1221,
      "princi": 1222,
      "sou": 1223,
      "##ising": 1224,
      "another": 1225,
      "shall": 1226,
      "fri": 1227,
      "necessary": 1228,
      "##ix": 1229,
      "##isl": 1230,
      "##ross": 1231,
      "##nect": 1232,
      "sal": 1233,
      "##ward": 1234,
      "##utes": 1235,
      "ret": 1236,
      "##ules": 1237,
      "soft": 1238,
      "please": 1239,
      "pop": 1240,
      "did": 1241,
      "##mb": 1242,
      "##itive": 1243,
      "transport": 1244,
      "##men": 1245,
      "account": 1246,
      "using": 1247,
      "##eld": 1248,
      "sing": 1249,
      "united": 1250,
      "comb": 1251,
      "whether": 1252,
      "refer": 1253,
      "cho": 1254,
      "##stand": 1255,
      "full": 1256,
      "vote": 1257,
      "ann": 1258,
      "invol": 1259,
      "legal": 1260,
      "vi": 1261,
      "global": 1262,
      "##rod": 1263,
      "legisl": 1264,
      "always": 1265,
      "represent": 1266,
      "##ively": 1267,
      "reach": 1268,
      "short": 1269,
      "directive": 1270,
      "individ": 1271,
      "##egr": 1272,
      "mus": 1273,
      "##iver": 1274,
      "##aut": 1275,
      "needs": 1276,
      "unt": 1277,
      "happ": 1278,
      "deal": 1279,
      "terms": 1280,
      "third": 1281,
      "##ps": 1282,
      "##aur": 1283,
      "##sibility": 1284,
      "pat": 1285,
      "##az": 1286,
      "better": 1287,
      "wish": 1288,
      "##over": 1289,
      "bro": 1290,
      "express": 1291,
      "##gin": 1292,
      "##ired": 1293,
      "sever": 1294,
      "subject": 1295,
      "##eric": 1296,
      "connect": 1297,
      "toget": 1298,
      "together": 1299,
      "##leg": 1300,
      "adm": 1301,
      "working": 1302,
      "thank": 1303,
      "she": 1304,
      "arr": 1305,
      "remain": 1306,
      "##cially": 1307,
      "fish": 1308,
      "##ners": 1309,
      "water": 1310,
      "integr": 1311,
      "break": 1312,
      "##ling": 1313,
      "##eur": 1314,
      "less": 1315,
      "fav": 1316,
      "friend": 1317,
      "pa": 1318,
      "modern": 1319,
      "production": 1320,
      "lim": 1321,
      "##cy": 1322,
      "chang": 1323,
      "require": 1324,
      "around": 1325,
      "run": 1326,
      "tow": 1327,
      "children": 1328,
      "systems": 1329,
      "##itor": 1330,
      "pack": 1331,
      "funct": 1332,
      "mil": 1333,
      "women": 1334,
      "current": 1335,
      "internet": 1336,
      "near": 1337,
      "americ": 1338,
      "wee": 1339,
      "restaur": 1340,
      "proced": 1341,
      "particularly": 1342,
      "##ury": 1343,
      "conditions": 1344,
      "industry": 1345,
      "making": 1346,
      "site": 1347,
      "rapport": 1348,
      "proper": 1349,
      "tal": 1350,
      "individual": 1351,
      "rapporteur": 1352,
      "lab": 1353,
      "mrs": 1354,
      "become": 1355,
      "##ources": 1356,
      "clos": 1357,
      "text": 1358,
      "once": 1359,
      "care": 1360,
      "##ister": 1361,
      "local": 1362,
      "##ises": 1363,
      "##sel": 1364,
      "management": 1365,
      "apart": 1366,
      "##por": 1367,
      "gent": 1368,
      "diffic": 1369,
      "##arant": 1370,
      "##ung": 1371,
      "contain": 1372,
      "bene": 1373,
      "difficult": 1374,
      "him": 1375,
      "promot": 1376,
      "summ": 1377,
      "##ond": 1378,
      "compan": 1379,
      "experience": 1380,
      "##less": 1381,
      "##iod": 1382,
      "wal": 1383,
      "##old": 1384,
      "vers": 1385,
      "initi": 1386,
      "##ret": 1387,
      "programme": 1388,
      "step": 1389,
      "##uce": 1390,
      "terr": 1391,
      "##oura": 1392,
      "rele": 1393,
      "tax": 1394,
      "doc": 1395,
      "home": 1396,
      "##ense": 1397,
      "contrib": 1398,
      "##ically": 1399,
      "bed": 1400,
      "rules": 1401,
      "##orth": 1402,
      "##ove": 1403,
      "struct": 1404,
      "issues": 1405,
      "food": 1406,
      "whole": 1407,
      "##ying": 1408,
      "address": 1409,
      "consum": 1410,
      "##ands": 1411,
      "espe": 1412,
      "central": 1413,
      "guarant": 1414,
      "##inal": 1415,
      "speak": 1416,
      "various": 1417,
      "lad": 1418,
      "exist": 1419,
      "lang": 1420,
      "among": 1421,
      "##aff": 1422,
      "companies": 1423,
      "##co": 1424,
      "orig": 1425,
      "sector": 1426,
      "mot": 1427,
      "inn": 1428,
      "especially": 1429,
      "beaut": 1430,
      "page": 1431,
      "sl": 1432,
      "software": 1433,
      "press": 1434,
      "##erv": 1435,
      "role": 1436,
      "perform": 1437,
      "occ": 1438,
      "gre": 1439,
      "frame": 1440,
      "visit": 1441,
      "mult": 1442,
      "select": 1443,
      "month": 1444,
      "##eep": 1445,
      "##ars": 1446,
      "town": 1447,
      "region": 1448,
      "aim": 1449,
      "##ged": 1450,
      "##ici": 1451,
      "turn": 1452,
      "welcome": 1453,
      "docu": 1454,
      "democr": 1455,
      "ris": 1456,
      "##ux": 1457,
      "##ament": 1458,
      "top": 1459,
      "move": 1460,
      "though": 1461,
      "##ann": 1462,
      "ur": 1463,
      "basis": 1464,
      "##raph": 1465,
      "soci": 1466,
      "##selves": 1467,
      "appe": 1468,
      "following": 1469,
      "german": 1470,
      "matter": 1471,
      "##ength": 1472,
      "il": 1473,
      "##ons": 1474,
      "##ogn": 1475,
      "ve": 1476,
      "sea": 1477,
      "single": 1478,
      "several": 1479,
      "pal": 1480,
      "webs": 1481,
      "test": 1482,
      "personal": 1483,
      "tur": 1484,
      "create": 1485,
      "class": 1486,
      "expl": 1487,
      "##oti": 1488,
      "prior": 1489,
      "langu": 1490,
      "##eign": 1491,
      "##ont": 1492,
      "##ances": 1493,
      "##fact": 1494,
      "effort": 1495,
      "dou": 1496,
      "treaty": 1497,
      "sat": 1498,
      "##uced": 1499,
      "called": 1500,
      "tri": 1501,
      "excell": 1502,
      "close": 1503,
      "feat": 1504,
      "done": 1505,
      "id": 1506,
      "contact": 1507,
      "decision": 1508,
      "comfort": 1509,
      "wind": 1510,
      "enc": 1511,
      "line": 1512,
      "really": 1513,
      "##ensive": 1514,
      "##imate": 1515,
      "family": 1516,
      "private": 1517,
      "period": 1518,
      "et": 1519,
      "yet": 1520,
      "negoti": 1521,
      "improve": 1522,
      "gentle": 1523,
      "post": 1524,
      "strong": 1525,
      "chec": 1526,
      "request": 1527,
      "##ger": 1528,
      "##ark": 1529,
      "##thing": 1530,
      "resolution": 1531,
      "##isions": 1532,
      "never": 1533,
      "bra": 1534,
      "job": 1535,
      "peace": 1536,
      "##ived": 1537,
      "##aterial": 1538,
      "aid": 1539,
      "phot": 1540,
      "approach": 1541,
      "million": 1542,
      "something": 1543,
      "begin": 1544,
      "##ator": 1545,
      "profess": 1546,
      "##oney": 1547,
      "##ave": 1548,
      "##ique": 1549,
      "gl": 1550,
      "ir": 1551,
      "##eed": 1552,
      "ess": 1553,
      "material": 1554,
      "##ended": 1555,
      "relations": 1556,
      "##ization": 1557,
      "communic": 1558,
      "reform": 1559,
      "continue": 1560,
      "hard": 1561,
      "ladies": 1562,
      "detail": 1563,
      "##to": 1564,
      "##up": 1565,
      "introd": 1566,
      "itself": 1567,
      "##ins": 1568,
      "often": 1569,
      "##ats": 1570,
      "progress": 1571,
      "due": 1572,
      "##ead": 1573,
      "four": 1574,
      "##ipp": 1575,
      "safety": 1576,
      "##ody": 1577,
      "##ending": 1578,
      "office": 1579,
      "germany": 1580,
      "until": 1581,
      "going": 1582,
      "gentlemen": 1583,
      "location": 1584,
      "name": 1585,
      "ant": 1586,
      "partners": 1587,
      "according": 1588,
      "particip": 1589,
      "install": 1590,
      "head": 1591,
      "light": 1592,
      "cris": 1593,
      "staff": 1594,
      "amendments": 1595,
      "technology": 1596,
      "##lish": 1597,
      "serious": 1598,
      "beach": 1599,
      "understand": 1600,
      "opin": 1601,
      "tot": 1602,
      "excellent": 1603,
      "hour": 1604,
      "li": 1605,
      "lat": 1606,
      "benef": 1607,
      "minutes": 1608,
      "vill": 1609,
      "##ably": 1610,
      "##ither": 1611,
      "host": 1612,
      "##room": 1613,
      "kind": 1614,
      "##ane": 1615,
      "forward": 1616,
      "rom": 1617,
      "crisis": 1618,
      "range": 1619,
      "review": 1620,
      "##ees": 1621,
      "educ": 1622,
      "agric": 1623,
      "feel": 1624,
      "favour": 1625,
      "least": 1626,
      "price": 1627,
      "towards": 1628,
      "having": 1629,
      "framework": 1630,
      "agricult": 1631,
      "constit": 1632,
      "away": 1633,
      "money": 1634,
      "##pri": 1635,
      "customers": 1636,
      "##ification": 1637,
      "artic": 1638,
      "litt": 1639,
      "pleas": 1640,
      "mention": 1641,
      "things": 1642,
      "recogn": 1643,
      "growth": 1644,
      "stat": 1645,
      "collect": 1646,
      "days": 1647,
      "little": 1648,
      "presid": 1649,
      "##ool": 1650,
      "institutions": 1651,
      "rather": 1652,
      "mean": 1653,
      "##rem": 1654,
      "dev": 1655,
      "lar": 1656,
      "alth": 1657,
      "big": 1658,
      "madam": 1659,
      "super": 1660,
      "mor": 1661,
      "although": 1662,
      "ital": 1663,
      "expect": 1664,
      "##edom": 1665,
      "left": 1666,
      "known": 1667,
      "men": 1668,
      "win": 1669,
      "##ule": 1670,
      "##side": 1671,
      "sci": 1672,
      "strategy": 1673,
      "tar": 1674,
      "bring": 1675,
      "establish": 1676,
      "##way": 1677,
      "prepar": 1678,
      "quite": 1679,
      "increase": 1680,
      "tradition": 1681,
      "cal": 1682,
      "##by": 1683,
      "activities": 1684,
      "##iet": 1685,
      "ge": 1686,
      "##airs": 1687,
      "party": 1688,
      "along": 1689,
      "opportunity": 1690,
      "##aps": 1691,
      "arch": 1692,
      "achieve": 1693,
      "suff": 1694,
      "##ne": 1695,
      "appl": 1696,
      "##atives": 1697,
      "opp": 1698,
      "##sequ": 1699,
      "resources": 1700,
      "team": 1701,
      "foc": 1702,
      "bord": 1703,
      "##istic": 1704,
      "tool": 1705,
      "past": 1706,
      "##aces": 1707,
      "##ared": 1708,
      "presidency": 1709,
      "above": 1710,
      "content": 1711,
      "fully": 1712,
      "##ah": 1713,
      "creat": 1714,
      "##thers": 1715,
      "autom": 1716,
      "regulation": 1717,
      "ec": 1718,
      "keep": 1719,
      "##fast": 1720,
      "event": 1721,
      "##edi": 1722,
      "provided": 1723,
      "mer": 1724,
      "##fect": 1725,
      "regul": 1726,
      "south": 1727,
      "tem": 1728,
      "mid": 1729,
      "times": 1730,
      "abs": 1731,
      "##iful": 1732,
      "foreign": 1733,
      "confer": 1734,
      "might": 1735,
      "website": 1736,
      "histor": 1737,
      "simp": 1738,
      "##bo": 1739,
      "taking": 1740,
      "sug": 1741,
      "value": 1742,
      "finally": 1743,
      "field": 1744,
      "##itted": 1745,
      "check": 1746,
      "fle": 1747,
      "##ng": 1748,
      "seem": 1749,
      "freedom": 1750,
      "night": 1751,
      "##ides": 1752,
      "##load": 1753,
      "signific": 1754,
      "heart": 1755,
      "week": 1756,
      "easy": 1757,
      "##ale": 1758,
      "solution": 1759,
      "don": 1760,
      "##racy": 1761,
      "building": 1762,
      "stre": 1763,
      "##ening": 1764,
      "proposals": 1765,
      "admin": 1766,
      "instru": 1767,
      "holid": 1768,
      "desc": 1769,
      "include": 1770,
      "##ca": 1771,
      "##ash": 1772,
      "viol": 1773,
      "beautiful": 1774,
      "##mber": 1775,
      "fundament": 1776,
      "##ets": 1777,
      "flo": 1778,
      "recomm": 1779,
      "er": 1780,
      "via": 1781,
      "road": 1782,
      "society": 1783,
      "##ples": 1784,
      "vol": 1785,
      "##soci": 1786,
      "application": 1787,
      "##ript": 1788,
      "return": 1789,
      "star": 1790,
      "bath": 1791,
      "economy": 1792,
      "cod": 1793,
      "costs": 1794,
      "simply": 1795,
      "innov": 1796,
      "dom": 1797,
      "strength": 1798,
      "sure": 1799,
      "dest": 1800,
      "civ": 1801,
      "chall": 1802,
      "focus": 1803,
      "##lin": 1804,
      "##go": 1805,
      "others": 1806,
      "user": 1807,
      "amendment": 1808,
      "fail": 1809,
      "mach": 1810,
      "##fully": 1811,
      "univers": 1812,
      "##gu": 1813,
      "adopted": 1814,
      "##stain": 1815,
      "##ites": 1816,
      "##idence": 1817,
      "associ": 1818,
      "tele": 1819,
      "nam": 1820,
      "points": 1821,
      "thus": 1822,
      "breakfast": 1823,
      "##ember": 1824,
      "anal": 1825,
      "turk": 1826,
      "##ck": 1827,
      "perfect": 1828,
      "lot": 1829,
      "lin": 1830,
      "##uction": 1831,
      "sty": 1832,
      "pot": 1833,
      "meeting": 1834,
      "island": 1835,
      "legislation": 1836,
      "opinion": 1837,
      "makes": 1838,
      "##ify": 1839,
      "charact": 1840,
      "entire": 1841,
      "##sw": 1842,
      "projects": 1843,
      "questions": 1844,
      "construct": 1845,
      "##self": 1846,
      "##ters": 1847,
      "ber": 1848,
      "effective": 1849,
      "##enn": 1850,
      "##ival": 1851,
      "natural": 1852,
      "##ories": 1853,
      "behalf": 1854,
      "environmental": 1855,
      "guests": 1856,
      "lear": 1857,
      "typ": 1858,
      "##arch": 1859,
      "results": 1860,
      "##ext": 1861,
      "attention": 1862,
      "##ators": 1863,
      "log": 1864,
      "manu": 1865,
      "##sp": 1866,
      "cred": 1867,
      "##wh": 1868,
      "cover": 1869,
      "restaurant": 1870,
      "mag": 1871,
      "sport": 1872,
      "responsibility": 1873,
      "##bour": 1874,
      "groups": 1875,
      "##icient": 1876,
      "provides": 1877,
      "cop": 1878,
      "ident": 1879,
      "standard": 1880,
      "context": 1881,
      "##aster": 1882,
      "training": 1883,
      "version": 1884,
      "online": 1885,
      "##imum": 1886,
      "ste": 1887,
      "internal": 1888,
      "##uge": 1889,
      "employment": 1890,
      "clearly": 1891,
      "##ering": 1892,
      "##ows": 1893,
      "##ench": 1894,
      "##hod": 1895,
      "civil": 1896,
      "concerned": 1897,
      "##tion": 1898,
      "##orn": 1899,
      "technical": 1900,
      "##for": 1901,
      "##be": 1902,
      "continu": 1903,
      "policies": 1904,
      "function": 1905,
      "perm": 1906,
      "appropri": 1907,
      "greater": 1908,
      "##most": 1909,
      "cir": 1910,
      "##rect": 1911,
      "dam": 1912,
      "indeed": 1913,
      "complete": 1914,
      "facilities": 1915,
      "china": 1916,
      "crit": 1917,
      "prevent": 1918,
      "music": 1919,
      "##ened": 1920,
      "mob": 1921,
      "importance": 1922,
      "administ": 1923,
      "aust": 1924,
      "commit": 1925,
      "fundamental": 1926,
      "##ledge": 1927,
      "standards": 1928,
      "##ump": 1929,
      "network": 1930,
      "##ograph": 1931,
      "click": 1932,
      "##bon": 1933,
      "manufact": 1934,
      "won": 1935,
      "extrem": 1936,
      "##ension": 1937,
      "increasing": 1938,
      "link": 1939,
      "quick": 1940,
      "works": 1941,
      "bank": 1942,
      "capital": 1943,
      "##ze": 1944,
      "##ountain": 1945,
      "##word": 1946,
      "subm": 1947,
      "cultural": 1948,
      "##ilt": 1949,
      "manag": 1950,
      "court": 1951,
      "assist": 1952,
      "indep": 1953,
      "currently": 1954,
      "ce": 1955,
      "independ": 1956,
      "century": 1957,
      "##ler": 1958,
      "method": 1959,
      "procedure": 1960,
      "nature": 1961,
      "share": 1962,
      "history": 1963,
      "##ceed": 1964,
      "achie": 1965,
      "democratic": 1966,
      "answ": 1967,
      "principle": 1968,
      "solutions": 1969,
      "risk": 1970,
      "eur": 1971,
      "aud": 1972,
      "wide": 1973,
      "rad": 1974,
      "circ": 1975,
      "cat": 1976,
      "situated": 1977,
      "farm": 1978,
      "recent": 1979,
      "regional": 1980,
      "words": 1981,
      "los": 1982,
      "##ges": 1983,
      "##ank": 1984,
      "funds": 1985,
      "airport": 1986,
      "##itch": 1987,
      "station": 1988,
      "significant": 1989,
      "record": 1990,
      "##icial": 1991,
      "side": 1992,
      "later": 1993,
      "dial": 1994,
      "mov": 1995,
      "##ery": 1996,
      "young": 1997,
      "required": 1998,
      "essential": 1999,
      "demand": 2000,
      "relax": 2001,
      "school": 2002,
      "##ven": 2003,
      "authorities": 2004,
      "##li": 2005,
      "education": 2006,
      "distrib": 2007,
      "##ured": 2008,
      "liber": 2009,
      "sustain": 2010,
      "card": 2011,
      "##man": 2012,
      "fight": 2013,
      "##ends": 2014,
      "conference": 2015,
      "fair": 2016,
      "##lig": 2017,
      "##ding": 2018,
      "##ade": 2019,
      "##cing": 2020,
      "tre": 2021,
      "pages": 2022,
      "democracy": 2023,
      "comput": 2024,
      "subst": 2025,
      "live": 2026,
      "regions": 2027,
      "language": 2028,
      "subs": 2029,
      "mess": 2030,
      "san": 2031,
      "upon": 2032,
      "##ateg": 2033,
      "force": 2034,
      "competition": 2035,
      "park": 2036,
      "##ief": 2037,
      "aspect": 2038,
      "gard": 2039,
      "sound": 2040,
      "##hib": 2041,
      "events": 2042,
      "##pose": 2043,
      "directly": 2044,
      "mountain": 2045,
      "suggest": 2046,
      "infl": 2047,
      "camp": 2048,
      "der": 2049,
      "responsible": 2050,
      "total": 2051,
      "##ring": 2052,
      "mom": 2053,
      "land": 2054,
      "contract": 2055,
      "clean": 2056,
      "##aim": 2057,
      "colle": 2058,
      "##ert": 2059,
      "requirements": 2060,
      "##unch": 2061,
      "##arity": 2062,
      "longer": 2063,
      "##oot": 2064,
      "##oming": 2065,
      "cy": 2066,
      "months": 2067,
      "proposed": 2068,
      "maintain": 2069,
      "##of": 2070,
      "jun": 2071,
      "apply": 2072,
      "center": 2073,
      "##ided": 2074,
      "km": 2075,
      "parties": 2076,
      "mass": 2077,
      "article": 2078,
      "green": 2079,
      "categ": 2080,
      "affect": 2081,
      "north": 2082,
      "document": 2083,
      "anim": 2084,
      "character": 2085,
      "everything": 2086,
      "interests": 2087,
      "enough": 2088,
      "exch": 2089,
      "low": 2090,
      "guarantee": 2091,
      "item": 2092,
      "customer": 2093,
      "date": 2094,
      "implementation": 2095,
      "developed": 2096,
      "travel": 2097,
      "note": 2098,
      "russ": 2099,
      "attract": 2100,
      "involved": 2101,
      "voted": 2102,
      "afric": 2103,
      "needed": 2104,
      "changes": 2105,
      "themselves": 2106,
      "broad": 2107,
      "consequ": 2108,
      "related": 2109,
      "media": 2110,
      "target": 2111,
      "download": 2112,
      "efforts": 2113,
      "##ogue": 2114,
      "sens": 2115,
      "pict": 2116,
      "##arian": 2117,
      "##den": 2118,
      "soon": 2119,
      "climate": 2120,
      "cut": 2121,
      "##ton": 2122,
      "consult": 2123,
      "safe": 2124,
      "##anced": 2125,
      "extremely": 2126,
      "##erous": 2127,
      "pool": 2128,
      "##uly": 2129,
      "ele": 2130,
      "##atory": 2131,
      "either": 2132,
      "additional": 2133,
      "##ging": 2134,
      "previous": 2135,
      "mail": 2136,
      "vide": 2137,
      "tas": 2138,
      "affairs": 2139,
      "monitor": 2140,
      "positive": 2141,
      "harm": 2142,
      "terror": 2143,
      "russia": 2144,
      "east": 2145,
      "ago": 2146,
      "file": 2147,
      "board": 2148,
      "##ried": 2149,
      "type": 2150,
      "looking": 2151,
      "##acy": 2152,
      "views": 2153,
      "prices": 2154,
      "caus": 2155,
      "space": 2156,
      "##urg": 2157,
      "negotiations": 2158,
      "final": 2159,
      "almost": 2160,
      "milit": 2161,
      "thanks": 2162,
      "program": 2163,
      "living": 2164,
      "true": 2165,
      "markets": 2166,
      "surround": 2167,
      "##ibility": 2168,
      "oppos": 2169,
      "##ops": 2170,
      "draw": 2171,
      "##empt": 2172,
      "front": 2173,
      "developing": 2174,
      "cases": 2175,
      "etc": 2176,
      "professional": 2177,
      "comes": 2178,
      "joint": 2179,
      "indic": 2180,
      "ground": 2181,
      "spa": 2182,
      "communication": 2183,
      "culture": 2184,
      "search": 2185,
      "five": 2186,
      "enl": 2187,
      "gam": 2188,
      "created": 2189,
      "##oint": 2190,
      "##ommod": 2191,
      "knowledge": 2192,
      "accommod": 2193,
      "investment": 2194,
      "unique": 2195,
      "den": 2196,
      "transpar": 2197,
      "pan": 2198,
      "commer": 2199,
      "french": 2200,
      "##eless": 2201,
      "##ony": 2202,
      "actually": 2203,
      "correct": 2204,
      "prec": 2205,
      "transl": 2206,
      "sun": 2207,
      "cross": 2208,
      "hon": 2209,
      "included": 2210,
      "immedi": 2211,
      "friendly": 2212,
      "##rist": 2213,
      "che": 2214,
      "##ria": 2215,
      "ever": 2216,
      "amb": 2217,
      "except": 2218,
      "convention": 2219,
      "produc": 2220,
      "di": 2221,
      "users": 2222,
      "designed": 2223,
      "rate": 2224,
      "famous": 2225,
      "##urs": 2226,
      "ideal": 2227,
      "##tle": 2228,
      "cast": 2229,
      "holiday": 2230,
      "concept": 2231,
      "##str": 2232,
      "emph": 2233,
      "##utional": 2234,
      "receive": 2235,
      "workers": 2236,
      "throughout": 2237,
      "##br": 2238,
      "certainly": 2239,
      "##ipped": 2240,
      "##irm": 2241,
      "seen": 2242,
      "##ned": 2243,
      "nor": 2244,
      "encoura": 2245,
      "idea": 2246,
      "tv": 2247,
      "appropriate": 2248,
      "entr": 2249,
      "##haps": 2250,
      "equip": 2251,
      "game": 2252,
      "##aced": 2253,
      "held": 2254,
      "decl": 2255,
      "##ulate": 2256,
      "perhaps": 2257,
      "comfortable": 2258,
      "obs": 2259,
      "##lusion": 2260,
      "##ored": 2261,
      "upd": 2262,
      "##abled": 2263,
      "##ients": 2264,
      "determ": 2265,
      "moment": 2266,
      "oblig": 2267,
      "##elling": 2268,
      "extra": 2269,
      "outside": 2270,
      "solid": 2271,
      "dut": 2272,
      "lack": 2273,
      "##oid": 2274,
      "early": 2275,
      "##ches": 2276,
      "built": 2277,
      "try": 2278,
      "uk": 2279,
      "send": 2280,
      "hotels": 2281,
      "##ource": 2282,
      "vir": 2283,
      "recommend": 2284,
      "france": 2285,
      "##omes": 2286,
      "wat": 2287,
      "dig": 2288,
      "features": 2289,
      "impact": 2290,
      "traditional": 2291,
      "##rict": 2292,
      "hy": 2293,
      "displ": 2294,
      "majority": 2295,
      "parts": 2296,
      "engine": 2297,
      "across": 2298,
      "##pping": 2299,
      "nothing": 2300,
      "flex": 2301,
      "thing": 2302,
      "walk": 2303,
      "draft": 2304,
      "##vant": 2305,
      "christ": 2306,
      "emphas": 2307,
      "brit": 2308,
      "complet": 2309,
      "performance": 2310,
      "rule": 2311,
      "enterpr": 2312,
      "mind": 2313,
      "colleag": 2314,
      "doing": 2315,
      "ren": 2316,
      "##rial": 2317,
      "##ison": 2318,
      "rail": 2319,
      "hours": 2320,
      "concerning": 2321,
      "fall": 2322,
      "vict": 2323,
      "##amp": 2324,
      "amount": 2325,
      "coord": 2326,
      "##ino": 2327,
      "takes": 2328,
      "model": 2329,
      "max": 2330,
      "##dle": 2331,
      "lux": 2332,
      "speed": 2333,
      "##aring": 2334,
      "##ians": 2335,
      "existing": 2336,
      "jud": 2337,
      "lis": 2338,
      "american": 2339,
      "image": 2340,
      "##ilar": 2341,
      "regarding": 2342,
      "mentioned": 2343,
      "##mos": 2344,
      "complex": 2345,
      "news": 2346,
      "##ternal": 2347,
      "initiative": 2348,
      "basic": 2349,
      "bi": 2350,
      "demon": 2351,
      "print": 2352,
      "answer": 2353,
      "leading": 2354,
      "instead": 2355,
      "programmes": 2356,
      "military": 2357,
      "nice": 2358,
      "concerns": 2359,
      "connection": 2360,
      "##let": 2361,
      "condition": 2362,
      "desp": 2363,
      "##ables": 2364,
      "official": 2365,
      "industrial": 2366,
      "##ili": 2367,
      "original": 2368,
      "turkey": 2369,
      "objective": 2370,
      "##atically": 2371,
      "decisions": 2372,
      "assess": 2373,
      "series": 2374,
      "completely": 2375,
      "##inary": 2376,
      "body": 2377,
      "##fortun": 2378,
      "wa": 2379,
      "agreements": 2380,
      "established": 2381,
      "vari": 2382,
      "##vers": 2383,
      "conflic": 2384,
      "writing": 2385,
      "fed": 2386,
      "took": 2387,
      "english": 2388,
      "##lear": 2389,
      "exchange": 2390,
      "half": 2391,
      "##rast": 2392,
      "agre": 2393,
      "aware": 2394,
      "muse": 2395,
      "threat": 2396,
      "##rad": 2397,
      "practice": 2398,
      "purch": 2399,
      "reflect": 2400,
      "reasons": 2401,
      "unfortun": 2402,
      "##ots": 2403,
      "##ex": 2404,
      "everyone": 2405,
      "je": 2406,
      "stop": 2407,
      "##he": 2408,
      "sent": 2409,
      "claim": 2410,
      "package": 2411,
      "includes": 2412,
      "##ai": 2413,
      "agricultural": 2414,
      "scient": 2415,
      "##light": 2416,
      "below": 2417,
      "##chan": 2418,
      "self": 2419,
      "applications": 2420,
      "transfer": 2421,
      "equipment": 2422,
      "computer": 2423,
      "similar": 2424,
      "equipped": 2425,
      "population": 2426,
      "separ": 2427,
      "##ases": 2428,
      "choose": 2429,
      "strateg": 2430,
      "allows": 2431,
      "files": 2432,
      "##oph": 2433,
      "rich": 2434,
      "##ones": 2435,
      "interv": 2436,
      "age": 2437,
      "advant": 2438,
      "external": 2439,
      "face": 2440,
      "consumer": 2441,
      "objectives": 2442,
      "emer": 2443,
      "cru": 2444,
      "recently": 2445,
      "jobs": 2446,
      "pet": 2447,
      "mic": 2448,
      "values": 2449,
      "mal": 2450,
      "minister": 2451,
      "yes": 2452,
      "choice": 2453,
      "club": 2454,
      "exec": 2455,
      "simple": 2456,
      "##ke": 2457,
      "##ha": 2458,
      "active": 2459,
      "justice": 2460,
      "satis": 2461,
      "ut": 2462,
      "##itable": 2463,
      "qual": 2464,
      "style": 2465,
      "##ses": 2466,
      "capac": 2467,
      "##rop": 2468,
      "##enda": 2469,
      "reports": 2470,
      "##uted": 2471,
      "##gn": 2472,
      "benefit": 2473,
      "six": 2474,
      "##iable": 2475,
      "goods": 2476,
      "received": 2477,
      "congr": 2478,
      "squ": 2479,
      "lisbon": 2480,
      "##eries": 2481,
      "double": 2482,
      "mechan": 2483,
      "sil": 2484,
      "oil": 2485,
      "##iab": 2486,
      "west": 2487,
      "##ires": 2488,
      "##yn": 2489,
      "stability": 2490,
      "doub": 2491,
      "##rael": 2492,
      "poor": 2493,
      "defin": 2494,
      "##ological": 2495,
      "##oking": 2496,
      "keyword": 2497,
      "##ott": 2498,
      "museum": 2499,
      "wes": 2500,
      "israel": 2501,
      "foot": 2502,
      "##ming": 2503,
      "##ob": 2504,
      "congrat": 2505,
      "##vert": 2506,
      "##omp": 2507,
      "treatment": 2508,
      "##ban": 2509,
      "pain": 2510,
      "norm": 2511,
      "nuc": 2512,
      "bur": 2513,
      "##ley": 2514,
      "impos": 2515,
      "america": 2516,
      "##ma": 2517,
      "##rary": 2518,
      "quickly": 2519,
      "##anish": 2520,
      "##erve": 2521,
      "fa": 2522,
      "##cious": 2523,
      "exhib": 2524,
      "analys": 2525,
      "##che": 2526,
      "##hes": 2527,
      "popular": 2528,
      "windows": 2529,
      "origin": 2530,
      "video": 2531,
      "terra": 2532,
      "border": 2533,
      "integration": 2534,
      "dialogue": 2535,
      "altern": 2536,
      "##itting": 2537,
      "attack": 2538,
      "repl": 2539,
      "sho": 2540,
      "stage": 2541,
      "despite": 2542,
      "##oll": 2543,
      "middle": 2544,
      "consumers": 2545,
      "absol": 2546,
      "potential": 2547,
      "former": 2548,
      "ul": 2549,
      "contains": 2550,
      "governments": 2551,
      "die": 2552,
      "jan": 2553,
      "influ": 2554,
      "##encies": 2555,
      "king": 2556,
      "sense": 2557,
      "leaders": 2558,
      "deliver": 2559,
      "bat": 2560,
      "beginning": 2561,
      "added": 2562,
      "achieved": 2563,
      "depart": 2564,
      "gree": 2565,
      "mark": 2566,
      "code": 2567,
      "highly": 2568,
      "##apt": 2569,
      "traff": 2570,
      "successful": 2571,
      "##iveness": 2572,
      "carry": 2573,
      "##amic": 2574,
      "prim": 2575,
      "discover": 2576,
      "repub": 2577,
      "coll": 2578,
      "berlin": 2579,
      "enlarge": 2580,
      "##itten": 2581,
      "warm": 2582,
      "nuclear": 2583,
      "##more": 2584,
      "commercial": 2585,
      "seems": 2586,
      "lic": 2587,
      "ten": 2588,
      "##uch": 2589,
      "summer": 2590,
      "##ster": 2591,
      "##cel": 2592,
      "table": 2593,
      "june": 2594,
      "##ills": 2595,
      "increased": 2596,
      "emb": 2597,
      "round": 2598,
      "floor": 2599,
      "furn": 2600,
      "wonder": 2601,
      "presented": 2602,
      "comprom": 2603,
      "##ote": 2604,
      "western": 2605,
      "##just": 2606,
      "lay": 2607,
      "tell": 2608,
      "##olf": 2609,
      "huge": 2610,
      "levels": 2611,
      "##hic": 2612,
      "##cer": 2613,
      "har": 2614,
      "supply": 2615,
      "higher": 2616,
      "attempt": 2617,
      "##itz": 2618,
      "agenda": 2619,
      "bad": 2620,
      "atmos": 2621,
      "##reh": 2622,
      "tom": 2623,
      "arm": 2624,
      "unfortunately": 2625,
      "exclus": 2626,
      "obv": 2627,
      "principles": 2628,
      "reviews": 2629,
      "##ana": 2630,
      "vehic": 2631,
      "carried": 2632,
      "ship": 2633,
      "dang": 2634,
      "republic": 2635,
      "tim": 2636,
      "confirm": 2637,
      "street": 2638,
      "##phere": 2639,
      "rout": 2640,
      "demonstr": 2641,
      "nations": 2642,
      "black": 2643,
      "agreed": 2644,
      "opportunities": 2645,
      "obvious": 2646,
      "##ervation": 2647,
      "##ude": 2648,
      "subsid": 2649,
      "##ourn": 2650,
      "vo": 2651,
      "##face": 2652,
      "effici": 2653,
      "challeng": 2654,
      "export": 2655,
      "##la": 2656,
      "rent": 2657,
      "##ology": 2658,
      "whose": 2659,
      "neigh": 2660,
      "avoid": 2661,
      "shows": 2662,
      "scre": 2663,
      "sustainable": 2664,
      "fig": 2665,
      "materials": 2666,
      "dece": 2667,
      "spir": 2668,
      "commitment": 2669,
      "white": 2670,
      "behind": 2671,
      "register": 2672,
      "obtain": 2673,
      "matters": 2674,
      "submitted": 2675,
      "asked": 2676,
      "consist": 2677,
      "effects": 2678,
      "word": 2679,
      "##use": 2680,
      "size": 2681,
      "lik": 2682,
      "wall": 2683,
      "death": 2684,
      "##raft": 2685,
      "setting": 2686,
      "##itect": 2687,
      "direction": 2688,
      "##alu": 2689,
      "enable": 2690,
      "##era": 2691,
      "section": 2692,
      "ski": 2693,
      "organis": 2694,
      "##ta": 2695,
      "limited": 2696,
      "shown": 2697,
      "labour": 2698,
      "wood": 2699,
      "##orrow": 2700,
      "credit": 2701,
      "coming": 2702,
      "stress": 2703,
      "accommodation": 2704,
      "march": 2705,
      "aspects": 2706,
      "promote": 2707,
      "latest": 2708,
      "architect": 2709,
      "##esh": 2710,
      "property": 2711,
      "oct": 2712,
      "##imin": 2713,
      "booking": 2714,
      "creation": 2715,
      "possibility": 2716,
      "##ira": 2717,
      "enlargement": 2718,
      "providing": 2719,
      "sept": 2720,
      "independent": 2721,
      "considered": 2722,
      "rates": 2723,
      "details": 2724,
      "pressure": 2725,
      "##rupt": 2726,
      "cro": 2727,
      "deep": 2728,
      "##wise": 2729,
      "partner": 2730,
      "operation": 2731,
      "prepared": 2732,
      "response": 2733,
      "gain": 2734,
      "##eral": 2735,
      "apartment": 2736,
      "came": 2737,
      "##rought": 2738,
      "##igration": 2739,
      "pra": 2740,
      "prefer": 2741,
      "roman": 2742,
      "##gs": 2743,
      "##ground": 2744,
      "capacity": 2745,
      "spain": 2746,
      "##ously": 2747,
      "##ased": 2748,
      "coast": 2749,
      "##ature": 2750,
      "easily": 2751,
      "regular": 2752,
      "pen": 2753,
      "##uary": 2754,
      "source": 2755,
      "display": 2756,
      "garden": 2757,
      "summit": 2758,
      "##yl": 2759,
      "apartments": 2760,
      "stor": 2761,
      "liberal": 2762,
      "movement": 2763,
      "##illed": 2764,
      "electron": 2765,
      "deg": 2766,
      "reached": 2767,
      "regulations": 2768,
      "sett": 2769,
      "server": 2770,
      "criter": 2771,
      "chur": 2772,
      "##ese": 2773,
      "micro": 2774,
      "led": 2775,
      "digital": 2776,
      "grant": 2777,
      "##issions": 2778,
      "talk": 2779,
      "priority": 2780,
      "reject": 2781,
      "conduct": 2782,
      "reduce": 2783,
      "##lier": 2784,
      "actions": 2785,
      "ll": 2786,
      "assistance": 2787,
      "written": 2788,
      "guid": 2789,
      "bathroom": 2790,
      "sites": 2791,
      "leave": 2792,
      "balance": 2793,
      "decided": 2794,
      "##ries": 2795,
      "##ush": 2796,
      "brand": 2797,
      "jap": 2798,
      "deli": 2799,
      "places": 2800,
      "train": 2801,
      "##arily": 2802,
      "friends": 2803,
      "journ": 2804,
      "##uck": 2805,
      "gives": 2806,
      "flow": 2807,
      "closed": 2808,
      "atmosphere": 2809,
      "paper": 2810,
      "funding": 2811,
      "fire": 2812,
      "construction": 2813,
      "##rane": 2814,
      "september": 2815,
      "italy": 2816,
      "##emp": 2817,
      "mobile": 2818,
      "cause": 2819,
      "supported": 2820,
      "announ": 2821,
      "instruments": 2822,
      "december": 2823,
      "university": 2824,
      "japan": 2825,
      "purpose": 2826,
      "impress": 2827,
      "creating": 2828,
      "remains": 2829,
      "copy": 2830,
      "acqu": 2831,
      "film": 2832,
      "##ona": 2833,
      "furthermore": 2834,
      "partnership": 2835,
      "base": 2836,
      "village": 2837,
      "mediter": 2838,
      "africa": 2839,
      "##equ": 2840,
      "##ift": 2841,
      "highlight": 2842,
      "fu": 2843,
      "describ": 2844,
      "##itation": 2845,
      "charge": 2846,
      "ke": 2847,
      "forms": 2848,
      "billion": 2849,
      "##sibilities": 2850,
      "structural": 2851,
      "##istics": 2852,
      "hous": 2853,
      "italian": 2854,
      "lib": 2855,
      "##astic": 2856,
      "thous": 2857,
      "resort": 2858,
      "eth": 2859,
      "appear": 2860,
      "learn": 2861,
      "##ranean": 2862,
      "launch": 2863,
      "measure": 2864,
      "compreh": 2865,
      "conclud": 2866,
      "categories": 2867,
      "pros": 2868,
      "fishing": 2869,
      "##antly": 2870,
      "plat": 2871,
      "##etary": 2872,
      "message": 2873,
      "urg": 2874,
      "buy": 2875,
      "relevant": 2876,
      "##uit": 2877,
      "solidarity": 2878,
      "forest": 2879,
      "stra": 2880,
      "produced": 2881,
      "else": 2882,
      "optim": 2883,
      "fast": 2884,
      "study": 2885,
      "##ober": 2886,
      "prob": 2887,
      "brought": 2888,
      "bit": 2889,
      "interesting": 2890,
      "discussion": 2891,
      "mediterranean": 2892,
      "pleased": 2893,
      "january": 2894,
      "games": 2895,
      "bul": 2896,
      "wine": 2897,
      "largest": 2898,
      "compon": 2899,
      "administr": 2900,
      "##ume": 2901,
      "rap": 2902,
      "path": 2903,
      "div": 2904,
      "pow": 2905,
      "option": 2906,
      "instrument": 2907,
      "hor": 2908,
      "efficient": 2909,
      "hold": 2910,
      "##ij": 2911,
      "##ka": 2912,
      "variety": 2913,
      "statement": 2914,
      "agriculture": 2915,
      "repe": 2916,
      "ill": 2917,
      "##na": 2918,
      "october": 2919,
      "box": 2920,
      "secondly": 2921,
      "##ights": 2922,
      "grand": 2923,
      "gas": 2924,
      "##ession": 2925,
      "award": 2926,
      "du": 2927,
      "explain": 2928,
      "corpor": 2929,
      "##ounts": 2930,
      "swim": 2931,
      "anti": 2932,
      "ii": 2933,
      "task": 2934,
      "steps": 2935,
      "##where": 2936,
      "status": 2937,
      "medium": 2938,
      "##hol": 2939,
      "##ender": 2940,
      "drive": 2941,
      "##iture": 2942,
      "sometimes": 2943,
      "documents": 2944,
      "##ties": 2945,
      "minist": 2946,
      "activity": 2947,
      "relationship": 2948,
      "##imately": 2949,
      "prem": 2950,
      "ey": 2951,
      "fix": 2952,
      "minor": 2953,
      "procedures": 2954,
      "##aries": 2955,
      "ways": 2956,
      "became": 2957,
      "player": 2958,
      "mill": 2959,
      "purs": 2960,
      "quiet": 2961,
      "tools": 2962,
      "restaurants": 2963,
      "lower": 2964,
      "moreover": 2965,
      "started": 2966,
      "exact": 2967,
      "##ims": 2968,
      "sales": 2969,
      "adapt": 2970,
      "##raq": 2971,
      "##ano": 2972,
      "regards": 2973,
      "violence": 2974,
      "##val": 2975,
      "fell": 2976,
      "british": 2977,
      "cand": 2978,
      "compromise": 2979,
      "integrated": 2980,
      "agency": 2981,
      "que": 2982,
      "relig": 2983,
      "payment": 2984,
      "equal": 2985,
      "cert": 2986,
      "numerous": 2987,
      "historical": 2988,
      "produce": 2989,
      "allowed": 2990,
      "giving": 2991,
      "firstly": 2992,
      "##enced": 2993,
      "damage": 2994,
      "spanish": 2995,
      "bey": 2996,
      "contribution": 2997,
      "rat": 2998,
      "dise": 2999,
      "apr": 3000,
      "##ica": 3001,
      "##asc": 3002,
      "##icket": 3003,
      "transparency": 3004,
      "rene": 3005,
      "##isc": 3006,
      "dail": 3007,
      "provisions": 3008,
      "##cle": 3009,
      "##burg": 3010,
      "scientific": 3011,
      "daily": 3012,
      "tourism": 3013,
      "distance": 3014,
      "dim": 3015,
      "criteria": 3016,
      "relation": 3017,
      "##porary": 3018,
      "spirit": 3019,
      "legislative": 3020,
      "firm": 3021,
      "association": 3022,
      "distribution": 3023,
      "beyond": 3024,
      "reading": 3025,
      "starting": 3026,
      "##phone": 3027,
      "lake": 3028,
      "pover": 3029,
      "##enge": 3030,
      "worth": 3031,
      "july": 3032,
      "ourselves": 3033,
      "poverty": 3034,
      "email": 3035,
      "##zz": 3036,
      "teach": 3037,
      "immediately": 3038,
      "elements": 3039,
      "##ada": 3040,
      "evalu": 3041,
      "##ussi": 3042,
      "applied": 3043,
      "types": 3044,
      "structure": 3045,
      "hung": 3046,
      "analysis": 3047,
      "ord": 3048,
      "vac": 3049,
      "##ucing": 3050,
      "ult": 3051,
      "##istan": 3052,
      "employees": 3053,
      "gold": 3054,
      "##ls": 3055,
      "##vision": 3056,
      "colour": 3057,
      "stock": 3058,
      "benefits": 3059,
      "sports": 3060,
      "monitoring": 3061,
      "sam": 3062,
      "highest": 3063,
      "technologies": 3064,
      "late": 3065,
      "machine": 3066,
      "nove": 3067,
      "links": 3068,
      "offering": 3069,
      "##osp": 3070,
      "annual": 3071,
      "##ially": 3072,
      "##itude": 3073,
      "useful": 3074,
      "tomorrow": 3075,
      "season": 3076,
      "harmon": 3077,
      "tit": 3078,
      "sem": 3079,
      "ht": 3080,
      "secure": 3081,
      "##ivity": 3082,
      "##inated": 3083,
      "growing": 3084,
      "reality": 3085,
      "enh": 3086,
      "dru": 3087,
      "illeg": 3088,
      "##gen": 3089,
      "##employ": 3090,
      "depend": 3091,
      "##elds": 3092,
      "##wide": 3093,
      "colleagues": 3094,
      "elections": 3095,
      "processes": 3096,
      "happy": 3097,
      "##aging": 3098,
      "november": 3099,
      "conflict": 3100,
      "river": 3101,
      "##hold": 3102,
      "##ception": 3103,
      "##cl": 3104,
      "##antic": 3105,
      "unemploy": 3106,
      "##put": 3107,
      "parking": 3108,
      "paid": 3109,
      "plant": 3110,
      "ticket": 3111,
      "challenges": 3112,
      "cou": 3113,
      "occas": 3114,
      "iraq": 3115,
      "swed": 3116,
      "motor": 3117,
      "tast": 3118,
      "forces": 3119,
      "renew": 3120,
      "reference": 3121,
      "persons": 3122,
      "frequ": 3123,
      "monetary": 3124,
      "cohes": 3125,
      "got": 3126,
      "practical": 3127,
      "terrorism": 3128,
      "##erc": 3129,
      "##works": 3130,
      "conven": 3131,
      "saying": 3132,
      "chair": 3133,
      "infrast": 3134,
      "##ream": 3135,
      "operating": 3136,
      "cu": 3137,
      "waste": 3138,
      "adjust": 3139,
      "bon": 3140,
      "infrastruct": 3141,
      "innovation": 3142,
      "pie": 3143,
      "players": 3144,
      "ang": 3145,
      "consequences": 3146,
      "minimum": 3147,
      "neighbour": 3148,
      "##rian": 3149,
      "##aged": 3150,
      "##ued": 3151,
      "organisation": 3152,
      "ideas": 3153,
      "efficiency": 3154,
      "aug": 3155,
      "fest": 3156,
      "options": 3157,
      "clients": 3158,
      "historic": 3159,
      "goes": 3160,
      "##aign": 3161,
      "mand": 3162,
      "miss": 3163,
      "spee": 3164,
      "april": 3165,
      "square": 3166,
      "react": 3167,
      "hall": 3168,
      "##lished": 3169,
      "bedroom": 3170,
      "portug": 3171,
      "fine": 3172,
      "##urance": 3173,
      "client": 3174,
      "##tak": 3175,
      "eastern": 3176,
      "##ription": 3177,
      "organisations": 3178,
      "palest": 3179,
      "campaign": 3180,
      "counter": 3181,
      "thought": 3182,
      "russi": 3183,
      "rapid": 3184,
      "requires": 3185,
      "comprehensive": 3186,
      "otherwise": 3187,
      "accession": 3188,
      "maximum": 3189,
      "recon": 3190,
      "rural": 3191,
      "secret": 3192,
      "shopping": 3193,
      "lines": 3194,
      "church": 3195,
      "pictures": 3196,
      "phil": 3197,
      "ready": 3198,
      "implemented": 3199,
      "discr": 3200,
      "advantage": 3201,
      "offered": 3202,
      "congratulate": 3203,
      "advert": 3204,
      "##ev": 3205,
      "visitors": 3206,
      "##eth": 3207,
      "release": 3208,
      "desk": 3209,
      "reduction": 3210,
      "##ocks": 3211,
      "##utely": 3212,
      "lands": 3213,
      "##cent": 3214,
      "paris": 3215,
      "weak": 3216,
      "weeks": 3217,
      "doubt": 3218,
      "mun": 3219,
      "##come": 3220,
      "voting": 3221,
      "circum": 3222,
      "##uff": 3223,
      "crucial": 3224,
      "published": 3225,
      "##dam": 3226,
      "worldwide": 3227,
      "limit": 3228,
      "swimming": 3229,
      "##ugg": 3230,
      "farmers": 3231,
      "##dom": 3232,
      "##ope": 3233,
      "argu": 3234,
      "earth": 3235,
      "cohesion": 3236,
      "challenge": 3237,
      "convin": 3238,
      "remember": 3239,
      "##etic": 3240,
      "mis": 3241,
      "god": 3242,
      "meaning": 3243,
      "fisheries": 3244,
      "virt": 3245,
      "join": 3246,
      "probably": 3247,
      "disp": 3248,
      "##reci": 3249,
      "trust": 3250,
      "ww": 3251,
      "languages": 3252,
      "relating": 3253,
      "heav": 3254,
      "terrace": 3255,
      "##iation": 3256,
      "anything": 3257,
      "interp": 3258,
      "remov": 3259,
      "lives": 3260,
      "##cies": 3261,
      "administration": 3262,
      "critic": 3263,
      "tourist": 3264,
      "##iction": 3265,
      "constitution": 3266,
      "overall": 3267,
      "##theless": 3268,
      "##augh": 3269,
      "innovative": 3270,
      "##igr": 3271,
      "##ilater": 3272,
      "nevertheless": 3273,
      "ah": 3274,
      "ep": 3275,
      "interested": 3276,
      "budgetary": 3277,
      "cell": 3278,
      "authority": 3279,
      "##gra": 3280,
      "images": 3281,
      "caused": 3282,
      "##itarian": 3283,
      "selection": 3284,
      "powers": 3285,
      "kitch": 3286,
      "##ien": 3287,
      "fit": 3288,
      "config": 3289,
      "mac": 3290,
      "accordance": 3291,
      "expert": 3292,
      "##erved": 3293,
      "love": 3294,
      "##do": 3295,
      "methods": 3296,
      "##body": 3297,
      "##pective": 3298,
      "fulf": 3299,
      "morning": 3300,
      "candid": 3301,
      "chann": 3302,
      "strategic": 3303,
      "dyn": 3304,
      "ded": 3305,
      "tun": 3306,
      "businesses": 3307,
      "fresh": 3308,
      "cham": 3309,
      "extent": 3310,
      "concent": 3311,
      "bes": 3312,
      "cos": 3313,
      "##estic": 3314,
      "competit": 3315,
      "processing": 3316,
      "lost": 3317,
      "golf": 3318,
      "ones": 3319,
      "arrange": 3320,
      "currency": 3321,
      "famil": 3322,
      "fear": 3323,
      "austria": 3324,
      "incor": 3325,
      "valid": 3326,
      "##ades": 3327,
      "representatives": 3328,
      "##ocol": 3329,
      "manufactur": 3330,
      "sex": 3331,
      "compli": 3332,
      "sectors": 3333,
      "chance": 3334,
      "##hr": 3335,
      "##iability": 3336,
      "##know": 3337,
      "##inese": 3338,
      "##sh": 3339,
      "opening": 3340,
      "##oration": 3341,
      "slo": 3342,
      "iran": 3343,
      "##ulated": 3344,
      "collection": 3345,
      "##af": 3346,
      "walking": 3347,
      "borders": 3348,
      "approx": 3349,
      "passeng": 3350,
      "##hn": 3351,
      "fields": 3352,
      "absolutely": 3353,
      "genu": 3354,
      "##aria": 3355,
      "err": 3356,
      "##bs": 3357,
      "phys": 3358,
      "exerc": 3359,
      "encourage": 3360,
      "feed": 3361,
      "adopt": 3362,
      "ire": 3363,
      "rot": 3364,
      "appreci": 3365,
      "investig": 3366,
      "stri": 3367,
      "grad": 3368,
      "eleg": 3369,
      "##ourable": 3370,
      "##semb": 3371,
      "prime": 3372,
      "##oud": 3373,
      "accepted": 3374,
      "photo": 3375,
      "raised": 3376,
      "##ques": 3377,
      "compos": 3378,
      "wanted": 3379,
      "##respon": 3380,
      "##imination": 3381,
      "trying": 3382,
      "datab": 3383,
      "menu": 3384,
      "chinese": 3385,
      "delivery": 3386,
      "watch": 3387,
      "alternative": 3388,
      "www": 3389,
      "scale": 3390,
      "##berg": 3391,
      "influence": 3392,
      "##cape": 3393,
      "wid": 3394,
      "medic": 3395,
      "minute": 3396,
      "installation": 3397,
      "platform": 3398,
      "ireland": 3399,
      "ara": 3400,
      "occup": 3401,
      "kitchen": 3402,
      "namely": 3403,
      "demands": 3404,
      "vital": 3405,
      "traffic": 3406,
      "surpr": 3407,
      "proceed": 3408,
      "sort": 3409,
      "planning": 3410,
      "##no": 3411,
      "ven": 3412,
      "usually": 3413,
      "russian": 3414,
      "##izing": 3415,
      "##force": 3416,
      "medical": 3417,
      "calls": 3418,
      "involve": 3419,
      "winter": 3420,
      "spect": 3421,
      "alone": 3422,
      "banks": 3423,
      "illegal": 3424,
      "plans": 3425,
      "electronic": 3426,
      "comments": 3427,
      "initiatives": 3428,
      "lond": 3429,
      "parag": 3430,
      "police": 3431,
      "##bit": 3432,
      "##pped": 3433,
      "##elines": 3434,
      "running": 3435,
      "cities": 3436,
      "students": 3437,
      "##ruction": 3438,
      "##idge": 3439,
      "##olution": 3440,
      "changed": 3441,
      "federal": 3442,
      "##ares": 3443,
      "automatically": 3444,
      "crime": 3445,
      "save": 3446,
      "parliamentary": 3447,
      "wrong": 3448,
      "crim": 3449,
      "yourself": 3450,
      "improved": 3451,
      "simpl": 3452,
      "##ilateral": 3453,
      "command": 3454,
      "conver": 3455,
      "talking": 3456,
      "divers": 3457,
      "regist": 3458,
      "##unt": 3459,
      "circumst": 3460,
      "##verage": 3461,
      "occur": 3462,
      "expressed": 3463,
      "##ork": 3464,
      "mainly": 3465,
      "##ered": 3466,
      "goal": 3467,
      "intended": 3468,
      "london": 3469,
      "defence": 3470,
      "##mbh": 3471,
      "bod": 3472,
      "families": 3473,
      "van": 3474,
      "trav": 3475,
      "phone": 3476,
      "remind": 3477,
      "color": 3478,
      "cele": 3479,
      "helpful": 3480,
      "confidence": 3481,
      "##sec": 3482,
      "committed": 3483,
      "placed": 3484,
      "worked": 3485,
      "motion": 3486,
      "substant": 3487,
      "marketing": 3488,
      "heard": 3489,
      "gmbh": 3490,
      "##isely": 3491,
      "da": 3492,
      "approved": 3493,
      "august": 3494,
      "appoint": 3495,
      "sand": 3496,
      "capt": 3497,
      "evening": 3498,
      "##dra": 3499,
      "##craft": 3500,
      "track": 3501,
      "##ara": 3502,
      "##ari": 3503,
      "electric": 3504,
      "criminal": 3505,
      "suitable": 3506,
      "##ef": 3507,
      "##ugh": 3508,
      "provision": 3509,
      "##ilit": 3510,
      "magn": 3511,
      "speaking": 3512,
      "##elt": 3513,
      "specifically": 3514,
      "laws": 3515,
      "feature": 3516,
      "din": 3517,
      "chem": 3518,
      "district": 3519,
      "ability": 3520,
      "hund": 3521,
      "deleg": 3522,
      "affected": 3523,
      "##poses": 3524,
      "##umption": 3525,
      "infrastructure": 3526,
      "##ience": 3527,
      "mix": 3528,
      "multip": 3529,
      "frank": 3530,
      "gall": 3531,
      "assemb": 3532,
      "compl": 3533,
      "buff": 3534,
      "conclusion": 3535,
      "decide": 3536,
      "reduced": 3537,
      "##gress": 3538,
      "uns": 3539,
      "founded": 3540,
      "las": 3541,
      "orient": 3542,
      "##hood": 3543,
      "##ama": 3544,
      "rein": 3545,
      "map": 3546,
      "unemployment": 3547,
      "##iff": 3548,
      "circumstances": 3549,
      "emissions": 3550,
      "brow": 3551,
      "perman": 3552,
      "increasingly": 3553,
      "##ero": 3554,
      "sell": 3555,
      "foundation": 3556,
      "leav": 3557,
      "comment": 3558,
      "extensive": 3559,
      "dead": 3560,
      "participation": 3561,
      "##uts": 3562,
      "detailed": 3563,
      "reforms": 3564,
      "##rich": 3565,
      "protected": 3566,
      "spok": 3567,
      "hundred": 3568,
      "whom": 3569,
      "##thern": 3570,
      "ensuring": 3571,
      "##ction": 3572,
      "supports": 3573,
      "priorities": 3574,
      "powerful": 3575,
      "scope": 3576,
      "catal": 3577,
      "hear": 3578,
      "##entions": 3579,
      "##bru": 3580,
      "nort": 3581,
      "fellow": 3582,
      "critical": 3583,
      "##enty": 3584,
      "victims": 3585,
      "storage": 3586,
      "separate": 3587,
      "inside": 3588,
      "charm": 3589,
      "getting": 3590,
      "competitive": 3591,
      "fer": 3592,
      "mut": 3593,
      "##lands": 3594,
      "contribute": 3595,
      "##umb": 3596,
      "##ico": 3597,
      "animals": 3598,
      "rise": 3599,
      "hosp": 3600,
      "##izes": 3601,
      "##icians": 3602,
      "regime": 3603,
      "shop": 3604,
      "forum": 3605,
      "says": 3606,
      "##iance": 3607,
      "began": 3608,
      "functions": 3609,
      "enterprise": 3610,
      "palestin": 3611,
      "##uses": 3612,
      "lies": 3613,
      "sources": 3614,
      "born": 3615,
      "poll": 3616,
      "coff": 3617,
      "effectively": 3618,
      "camera": 3619,
      "tabled": 3620,
      "guidelines": 3621,
      "entry": 3622,
      "##ault": 3623,
      "##ini": 3624,
      "precisely": 3625,
      "introduced": 3626,
      "slow": 3627,
      "thousands": 3628,
      "syn": 3629,
      "radio": 3630,
      "manner": 3631,
      "##hern": 3632,
      "##zech": 3633,
      "belong": 3634,
      "session": 3635,
      "administrative": 3636,
      "##lines": 3637,
      "respond": 3638,
      "assessment": 3639,
      "regret": 3640,
      "##ki": 3641,
      "institutional": 3642,
      "seek": 3643,
      "blo": 3644,
      "##reg": 3645,
      "mont": 3646,
      "larger": 3647,
      "sitting": 3648,
      "exactly": 3649,
      "paragraph": 3650,
      "czech": 3651,
      "programs": 3652,
      "covered": 3653,
      "played": 3654,
      "managed": 3655,
      "sold": 3656,
      "forget": 3657,
      "satisf": 3658,
      "cd": 3659,
      "##itory": 3660,
      "bir": 3661,
      "##erland": 3662,
      "symb": 3663,
      "generally": 3664,
      "gar": 3665,
      "master": 3666,
      "spend": 3667,
      "earlier": 3668,
      "purposes": 3669,
      "referred": 3670,
      "##ought": 3671,
      "exclusive": 3672,
      "os": 3673,
      "networks": 3674,
      "##illing": 3675,
      "exhibition": 3676,
      "introduction": 3677,
      "selected": 3678,
      "discussions": 3679,
      "enterprises": 3680,
      "advanced": 3681,
      "quot": 3682,
      "dedic": 3683,
      "aimed": 3684,
      "wonderful": 3685,
      "load": 3686,
      "developments": 3687,
      "declar": 3688,
      "##standing": 3689,
      "resist": 3690,
      "smoking": 3691,
      "served": 3692,
      "anyone": 3693,
      "##erves": 3694,
      "alb": 3695,
      "pc": 3696,
      "restrict": 3697,
      "loss": 3698,
      "opened": 3699,
      "##hab": 3700,
      "screen": 3701,
      "##cell": 3702,
      "picture": 3703,
      "experts": 3704,
      "febru": 3705,
      "science": 3706,
      "temper": 3707,
      "##app": 3708,
      "discussed": 3709,
      "immigration": 3710,
      "gal": 3711,
      "##mental": 3712,
      "depos": 3713,
      "serve": 3714,
      "becoming": 3715,
      "listed": 3716,
      "##bourg": 3717,
      "represents": 3718,
      "weap": 3719,
      "fif": 3720,
      "operations": 3721,
      "ukra": 3722,
      "##oss": 3723,
      "stated": 3724,
      "northern": 3725,
      "touch": 3726,
      "risks": 3727,
      "refuge": 3728,
      "unl": 3729,
      "spread": 3730,
      "##used": 3731,
      "hands": 3732,
      "format": 3733,
      "animal": 3734,
      "february": 3735,
      "sn": 3736,
      "wants": 3737,
      "barcel": 3738,
      "swiss": 3739,
      "linked": 3740,
      "tro": 3741,
      "##overy": 3742,
      "##eter": 3743,
      "##ya": 3744,
      "##gue": 3745,
      "son": 3746,
      "##ape": 3747,
      "photograph": 3748,
      "obviously": 3749,
      "supporting": 3750,
      "improving": 3751,
      "natur": 3752,
      "sole": 3753,
      "unless": 3754,
      "blue": 3755,
      "understanding": 3756,
      "kingdom": 3757,
      "reception": 3758,
      "correspon": 3759,
      "discrimination": 3760,
      "##atively": 3761,
      "ministers": 3762,
      "##una": 3763,
      "sufficient": 3764,
      "##cient": 3765,
      "india": 3766,
      "##ifying": 3767,
      "##aw": 3768,
      "##akes": 3769,
      "closely": 3770,
      "##iding": 3771,
      "##oo": 3772,
      "estate": 3773,
      "components": 3774,
      "graph": 3775,
      "##iles": 3776,
      "purchase": 3777,
      "nav": 3778,
      "##urt": 3779,
      "degree": 3780,
      "buildings": 3781,
      "accomp": 3782,
      "decor": 3783,
      "##itzerland": 3784,
      "##yal": 3785,
      "geor": 3786,
      "publish": 3787,
      "telephone": 3788,
      "gro": 3789,
      "normal": 3790,
      "actual": 3791,
      "##aint": 3792,
      "speech": 3793,
      "##pper": 3794,
      "transm": 3795,
      "typical": 3796,
      "##nes": 3797,
      "duty": 3798,
      "happen": 3799,
      "ol": 3800,
      "##uration": 3801,
      "spl": 3802,
      "compar": 3803,
      "scen": 3804,
      "switzerland": 3805,
      "imag": 3806,
      "compens": 3807,
      "followed": 3808,
      "coordination": 3809,
      "si": 3810,
      "metres": 3811,
      "fixed": 3812,
      "studies": 3813,
      "element": 3814,
      "execut": 3815,
      "playing": 3816,
      "sant": 3817,
      "brief": 3818,
      "strengthen": 3819,
      "bear": 3820,
      "rob": 3821,
      "combat": 3822,
      "considerable": 3823,
      "spacious": 3824,
      "mist": 3825,
      "likely": 3826,
      "competitiveness": 3827,
      "villa": 3828,
      "destro": 3829,
      "kn": 3830,
      "debian": 3831,
      "income": 3832,
      "undertak": 3833,
      "trip": 3834,
      "defined": 3835,
      "translation": 3836,
      "uses": 3837,
      "director": 3838,
      "sky": 3839,
      "generation": 3840,
      "corporate": 3841,
      "expected": 3842,
      "representative": 3843,
      "##ensions": 3844,
      "explo": 3845,
      "dv": 3846,
      "items": 3847,
      "shops": 3848,
      "machines": 3849,
      "##vis": 3850,
      "debt": 3851,
      "##mar": 3852,
      "organization": 3853,
      "facing": 3854,
      "strict": 3855,
      "southern": 3856,
      "symbol": 3857,
      "##ovo": 3858,
      "christian": 3859,
      "tip": 3860,
      "clar": 3861,
      "##rant": 3862,
      "delay": 3863,
      "asia": 3864,
      "barcelona": 3865,
      "presence": 3866,
      "kar": 3867,
      "greece": 3868,
      "entit": 3869,
      "##ussels": 3870,
      "block": 3871,
      "finance": 3872,
      "##ils": 3873,
      "alloc": 3874,
      "properly": 3875,
      "dealing": 3876,
      "plants": 3877,
      "mountains": 3878,
      "guide": 3879,
      "incorpor": 3880,
      "##icip": 3881,
      "suite": 3882,
      "financing": 3883,
      "description": 3884,
      "expand": 3885,
      "behav": 3886,
      "ps": 3887,
      "railway": 3888,
      "database": 3889,
      "calc": 3890,
      "entirely": 3891,
      "advance": 3892,
      "tack": 3893,
      "plus": 3894,
      "leader": 3895,
      "pleasant": 3896,
      "dispos": 3897,
      "learning": 3898,
      "susp": 3899,
      "##imb": 3900,
      "##ureau": 3901,
      "##ingu": 3902,
      "vehicles": 3903,
      "coffee": 3904,
      "door": 3905,
      "sized": 3906,
      "contem": 3907,
      "meetings": 3908,
      "thinking": 3909,
      "schem": 3910,
      "brussels": 3911,
      "##ball": 3912,
      "pred": 3913,
      "##ella": 3914,
      "ip": 3915,
      "##rete": 3916,
      "##ife": 3917,
      "entertain": 3918,
      "voice": 3919,
      "celebr": 3920,
      "trading": 3921,
      "difficulties": 3922,
      "song": 3923,
      "average": 3924,
      "neither": 3925,
      "relate": 3926,
      "valley": 3927,
      "photos": 3928,
      "hostels": 3929,
      "cooper": 3930,
      "ign": 3931,
      "ancient": 3932,
      "##ox": 3933,
      "beauty": 3934,
      "flexible": 3935,
      "modified": 3936,
      "beds": 3937,
      "went": 3938,
      "poland": 3939,
      "##ula": 3940,
      "core": 3941,
      "bureau": 3942,
      "##house": 3943,
      "##wards": 3944,
      "flexibility": 3945,
      "gave": 3946,
      "islands": 3947,
      "houses": 3948,
      "##uth": 3949,
      "cuis": 3950,
      "consideration": 3951,
      "hop": 3952,
      "kos": 3953,
      "legit": 3954,
      "membership": 3955,
      "##amb": 3956,
      "sav": 3957,
      "numbers": 3958,
      "kil": 3959,
      "dip": 3960,
      "percent": 3961,
      "applies": 3962,
      "##enna": 3963,
      "sle": 3964,
      "brows": 3965,
      "willing": 3966,
      "facilit": 3967,
      "dan": 3968,
      "adequ": 3969,
      "##eness": 3970,
      "shower": 3971,
      "peaceful": 3972,
      "failure": 3973,
      "castle": 3974,
      "cards": 3975,
      "unac": 3976,
      "##ena": 3977,
      "domestic": 3978,
      "informed": 3979,
      "politics": 3980,
      "television": 3981,
      "store": 3982,
      "york": 3983,
      "humanitarian": 3984,
      "belg": 3985,
      "promoting": 3986,
      "tor": 3987,
      "glass": 3988,
      "param": 3989,
      "arrival": 3990,
      "##right": 3991,
      "defic": 3992,
      "architecture": 3993,
      "update": 3994,
      "enorm": 3995,
      "establishment": 3996,
      "dream": 3997,
      "specif": 3998,
      "jav": 3999,
      "##idents": 4000,
      "practices": 4001,
      "protocol": 4002,
      "length": 4003,
      "belie": 4004,
      "linux": 4005,
      "##oring": 4006,
      "becomes": 4007,
      "##itors": 4008,
      "statements": 4009,
      "yester": 4010,
      "##ken": 4011,
      "cub": 4012,
      "bodies": 4013,
      "usa": 4014,
      "perspective": 4015,
      "democrats": 4016,
      "experienced": 4017,
      "insp": 4018,
      "suppl": 4019,
      "succeed": 4020,
      "##rap": 4021,
      "aims": 4022,
      "instance": 4023,
      "cuisine": 4024,
      "##sterdam": 4025,
      "subsidi": 4026,
      "connected": 4027,
      "##mas": 4028,
      "##lying": 4029,
      "amsterdam": 4030,
      "##ishes": 4031,
      "##tp": 4032,
      "signed": 4033,
      "transform": 4034,
      "##ios": 4035,
      "##nel": 4036,
      "##ental": 4037,
      "lu": 4038,
      "penal": 4039,
      "au": 4040,
      "##adem": 4041,
      "insurance": 4042,
      "sale": 4043,
      "mission": 4044,
      "reservation": 4045,
      "cars": 4046,
      "unit": 4047,
      "yesterday": 4048,
      "##isms": 4049,
      "himself": 4050,
      "courses": 4051,
      "easier": 4052,
      "accur": 4053,
      "implementing": 4054,
      "models": 4055,
      "rock": 4056,
      "##omb": 4057,
      "myself": 4058,
      "dangerous": 4059,
      "dry": 4060,
      "reducing": 4061,
      "acknow": 4062,
      "background": 4063,
      "seriously": 4064,
      "##enz": 4065,
      "differences": 4066,
      "collab": 4067,
      "associated": 4068,
      "producers": 4069,
      "mich": 4070,
      "mm": 4071,
      "withdra": 4072,
      "organiz": 4073,
      "concrete": 4074,
      "ast": 4075,
      "quant": 4076,
      "band": 4077,
      "attach": 4078,
      "structures": 4079,
      "satell": 4080,
      "nearby": 4081,
      "festival": 4082,
      "owners": 4083,
      "carefully": 4084,
      "opposition": 4085,
      "sad": 4086,
      "recognition": 4087,
      "flor": 4088,
      "positions": 4089,
      "drink": 4090,
      "##ulations": 4091,
      "improvement": 4092,
      "agencies": 4093,
      "bind": 4094,
      "##iling": 4095,
      "adoption": 4096,
      "safegu": 4097,
      "memory": 4098,
      "cook": 4099,
      "concentr": 4100,
      "##lom": 4101,
      "initial": 4102,
      "##osen": 4103,
      "satisfact": 4104,
      "bay": 4105,
      "beaches": 4106,
      "pun": 4107,
      "told": 4108,
      "availability": 4109,
      "combination": 4110,
      "eight": 4111,
      "unaccept": 4112,
      "evidence": 4113,
      "##ros": 4114,
      "elegant": 4115,
      "intel": 4116,
      "genuine": 4117,
      "vision": 4118,
      "vul": 4119,
      "##board": 4120,
      "ahead": 4121,
      "happened": 4122,
      "shared": 4123,
      "fran": 4124,
      "difference": 4125,
      "condem": 4126,
      "immediate": 4127,
      "##lusions": 4128,
      "mos": 4129,
      "packages": 4130,
      "seven": 4131,
      "charter": 4132,
      "appears": 4133,
      "calling": 4134,
      "names": 4135,
      "##ids": 4136,
      "attractive": 4137,
      "combined": 4138,
      "ein": 4139,
      "guarantees": 4140,
      "button": 4141,
      "territory": 4142,
      "impossible": 4143,
      "youth": 4144,
      "urban": 4145,
      "##iers": 4146,
      "##umn": 4147,
      "fant": 4148,
      "taste": 4149,
      "jew": 4150,
      "religious": 4151,
      "goals": 4152,
      "transact": 4153,
      "##ato": 4154,
      "delight": 4155,
      "released": 4156,
      "propose": 4157,
      "compared": 4158,
      "devices": 4159,
      "##ml": 4160,
      "excess": 4161,
      "truly": 4162,
      "votes": 4163,
      "constitutional": 4164,
      "assembly": 4165,
      "transition": 4166,
      "described": 4167,
      "permanent": 4168,
      "##itious": 4169,
      "mur": 4170,
      "naturally": 4171,
      "##com": 4172,
      "##gment": 4173,
      "equality": 4174,
      "negative": 4175,
      "holidays": 4176,
      "registered": 4177,
      "chamber": 4178,
      "wishes": 4179,
      "##ores": 4180,
      "chemical": 4181,
      "steel": 4182,
      "spent": 4183,
      "asyl": 4184,
      "##vey": 4185,
      "doct": 4186,
      "##mark": 4187,
      "spring": 4188,
      "possibilities": 4189,
      "asylum": 4190,
      "figures": 4191,
      "luxury": 4192,
      "announced": 4193,
      "wire": 4194,
      "adult": 4195,
      "tasks": 4196,
      "isl": 4197,
      "mart": 4198,
      "fort": 4199,
      "##isch": 4200,
      "contrary": 4201,
      "moving": 4202,
      "pure": 4203,
      "window": 4204,
      "unacceptable": 4205,
      "consumption": 4206,
      "stable": 4207,
      "profession": 4208,
      "advertising": 4209,
      "continued": 4210,
      "notice": 4211,
      "snow": 4212,
      "weight": 4213,
      "interface": 4214,
      "story": 4215,
      "reasonable": 4216,
      "champ": 4217,
      "african": 4218,
      "europeans": 4219,
      "participate": 4220,
      "match": 4221,
      "##ky": 4222,
      "delic": 4223,
      "charged": 4224,
      "privacy": 4225,
      "##mer": 4226,
      "rh": 4227,
      "arab": 4228,
      "##ste": 4229,
      "bound": 4230,
      "unf": 4231,
      "introduce": 4232,
      "allowing": 4233,
      "appeal": 4234,
      "patent": 4235,
      "bag": 4236,
      "surface": 4237,
      "communities": 4238,
      "##ishing": 4239,
      "bott": 4240,
      "desire": 4241,
      "enables": 4242,
      "turkish": 4243,
      "device": 4244,
      "greatest": 4245,
      "closer": 4246,
      "race": 4247,
      "##ellig": 4248,
      "irish": 4249,
      "rac": 4250,
      "replace": 4251,
      "multi": 4252,
      "exclud": 4253,
      "skills": 4254,
      "completed": 4255,
      "fruit": 4256,
      "raise": 4257,
      "##back": 4258,
      "continues": 4259,
      "category": 4260,
      "zone": 4261,
      "institution": 4262,
      "##att": 4263,
      "##ads": 4264,
      "##tenance": 4265,
      "claims": 4266,
      "fash": 4267,
      "interact": 4268,
      "ba": 4269,
      "strongly": 4270,
      "election": 4271,
      "##reme": 4272,
      "prep": 4273,
      "expend": 4274,
      "hom": 4275,
      "cold": 4276,
      "extended": 4277,
      "surrounded": 4278,
      "surrounding": 4279,
      "manager": 4280,
      "dedicated": 4281,
      "##agen": 4282,
      "artists": 4283,
      "establishing": 4284,
      "interpret": 4285,
      "compat": 4286,
      "honourable": 4287,
      "entitled": 4288,
      "reliable": 4289,
      "engineering": 4290,
      "installed": 4291,
      "department": 4292,
      "iron": 4293,
      "route": 4294,
      "labor": 4295,
      "totally": 4296,
      "maintenance": 4297,
      "les": 4298,
      "##coming": 4299,
      "flight": 4300,
      "balanced": 4301,
      "emerg": 4302,
      "##asts": 4303,
      "relaxing": 4304,
      "disease": 4305,
      "meters": 4306,
      "kept": 4307,
      "ukraine": 4308,
      "##bert": 4309,
      "profit": 4310,
      "individuals": 4311,
      "##ilst": 4312,
      "sud": 4313,
      "liter": 4314,
      "exercise": 4315,
      "##cia": 4316,
      "blog": 4317,
      "fab": 4318,
      "nar": 4319,
      "promotion": 4320,
      "definition": 4321,
      "sensitive": 4322,
      "buffet": 4323,
      "enormous": 4324,
      "fashion": 4325,
      "registration": 4326,
      "sanct": 4327,
      "title": 4328,
      "##ode": 4329,
      "urgent": 4330,
      "signal": 4331,
      "prevention": 4332,
      "wto": 4333,
      "##osed": 4334,
      "analy": 4335,
      "audio": 4336,
      "##quis": 4337,
      "forth": 4338,
      "inspect": 4339,
      "conclusions": 4340,
      "controls": 4341,
      "##ensus": 4342,
      "wild": 4343,
      "saw": 4344,
      "prison": 4345,
      "independence": 4346,
      "whilst": 4347,
      "renov": 4348,
      "sched": 4349,
      "##pro": 4350,
      "elected": 4351,
      "appar": 4352,
      "switch": 4353,
      "drawn": 4354,
      "nether": 4355,
      "chain": 4356,
      "divid": 4357,
      "diplom": 4358,
      "hit": 4359,
      "aircraft": 4360,
      "alt": 4361,
      "cool": 4362,
      "vehicle": 4363,
      "##set": 4364,
      "journal": 4365,
      "residence": 4366,
      "nation": 4367,
      "approximately": 4368,
      "destroy": 4369,
      "forced": 4370,
      "convinced": 4371,
      "kosovo": 4372,
      "granted": 4373,
      "changing": 4374,
      "academ": 4375,
      "meant": 4376,
      "loun": 4377,
      "rig": 4378,
      "transparent": 4379,
      "stands": 4380,
      "cab": 4381,
      "dimension": 4382,
      "payments": 4383,
      "##ga": 4384,
      "attractions": 4385,
      "weapons": 4386,
      "license": 4387,
      "intellig": 4388,
      "kore": 4389,
      "symp": 4390,
      "##rid": 4391,
      "biggest": 4392,
      "whate": 4393,
      "expression": 4394,
      "whatever": 4395,
      "organised": 4396,
      "spending": 4397,
      "sides": 4398,
      "advice": 4399,
      "##ias": 4400,
      "hostel": 4401,
      "gi": 4402,
      "cath": 4403,
      "##soft": 4404,
      "##ille": 4405,
      "perfectly": 4406,
      "bulg": 4407,
      "subsequ": 4408,
      "fraud": 4409,
      "passed": 4410,
      "##ione": 4411,
      "von": 4412,
      "greek": 4413,
      "achieving": 4414,
      "alliance": 4415,
      "##icking": 4416,
      "unable": 4417,
      "failed": 4418,
      "vienna": 4419,
      "ms": 4420,
      "outstanding": 4421,
      "articles": 4422,
      "ton": 4423,
      "continuing": 4424,
      "ru": 4425,
      "croat": 4426,
      "economies": 4427,
      "##ield": 4428,
      "pension": 4429,
      "chosen": 4430,
      "candidate": 4431,
      "afgh": 4432,
      "factors": 4433,
      "satellite": 4434,
      "netherlands": 4435,
      "participants": 4436,
      "##itage": 4437,
      "rightly": 4438,
      "##crib": 4439,
      "##va": 4440,
      "instruct": 4441,
      "##iscal": 4442,
      "contemporary": 4443,
      "##ette": 4444,
      "examples": 4445,
      "##fe": 4446,
      "gn": 4447,
      "contents": 4448,
      "pill": 4449,
      "pact": 4450,
      "notes": 4451,
      "expos": 4452,
      "multiple": 4453,
      "heating": 4454,
      "##inate": 4455,
      "liability": 4456,
      "physical": 4457,
      "books": 4458,
      "consol": 4459,
      "##ych": 4460,
      "philos": 4461,
      "##arter": 4462,
      "commitments": 4463,
      "someone": 4464,
      "declaration": 4465,
      "obst": 4466,
      "ambitious": 4467,
      "intervention": 4468,
      "executive": 4469,
      "unto": 4470,
      "laid": 4471,
      "shut": 4472,
      "governance": 4473,
      "explan": 4474,
      "palestinian": 4475,
      "gd": 4476,
      "tried": 4477,
      "provin": 4478,
      "portugal": 4479,
      "limits": 4480,
      "diver": 4481,
      "mechanism": 4482,
      "reb": 4483,
      "constantly": 4484,
      "pul": 4485,
      "outcome": 4486,
      "ther": 4487,
      "dynamic": 4488,
      "institute": 4489,
      "nearly": 4490,
      "password": 4491,
      "ball": 4492,
      "##ervations": 4493,
      "##iger": 4494,
      "doll": 4495,
      "##igrants": 4496,
      "plug": 4497,
      "occasion": 4498,
      "revolution": 4499,
      "cheap": 4500,
      "obligations": 4501,
      "write": 4502,
      "##enh": 4503,
      "species": 4504,
      "colleague": 4505,
      "whe": 4506,
      "cra": 4507,
      "acts": 4508,
      "fiscal": 4509,
      "pil": 4510,
      "detect": 4511,
      "intention": 4512,
      "reserve": 4513,
      "austrian": 4514,
      "landscape": 4515,
      "skin": 4516,
      "journey": 4517,
      "afghan": 4518,
      "reci": 4519,
      "##arks": 4520,
      "surv": 4521,
      "sover": 4522,
      "##apers": 4523,
      "recovery": 4524,
      "casino": 4525,
      "pu": 4526,
      "mit": 4527,
      "##oker": 4528,
      "accessible": 4529,
      "library": 4530,
      "sight": 4531,
      "deposit": 4532,
      "##alle": 4533,
      "##ruption": 4534,
      "budgets": 4535,
      "##pa": 4536,
      "##ett": 4537,
      "glad": 4538,
      "recommendations": 4539,
      "previously": 4540,
      "fuel": 4541,
      "contained": 4542,
      "stone": 4543,
      "compliance": 4544,
      "##lantic": 4545,
      "manufacturing": 4546,
      "successfully": 4547,
      "trib": 4548,
      "phase": 4549,
      "wealth": 4550,
      "##nic": 4551,
      "putting": 4552,
      "extend": 4553,
      "amongst": 4554,
      "letter": 4555,
      "expenditure": 4556,
      "distin": 4557,
      "industries": 4558,
      "##aza": 4559,
      "proport": 4560,
      "sovereign": 4561,
      "bab": 4562,
      "remove": 4563,
      "count": 4564,
      "driving": 4565,
      "situations": 4566,
      "bor": 4567,
      "flat": 4568,
      "testing": 4569,
      "targets": 4570,
      "advent": 4571,
      "latin": 4572,
      "guaranteed": 4573,
      "asking": 4574,
      "outdo": 4575,
      "##mal": 4576,
      "eye": 4577,
      "heritage": 4578,
      "wed": 4579,
      "operate": 4580,
      "mode": 4581,
      "##table": 4582,
      "factor": 4583,
      "##zy": 4584,
      "overlo": 4585,
      "patients": 4586,
      "bringing": 4587,
      "furnished": 4588,
      "##ooth": 4589,
      "##ania": 4590,
      "rome": 4591,
      "truth": 4592,
      "lie": 4593,
      "theat": 4594,
      "merely": 4595,
      "assign": 4596,
      "binding": 4597,
      "waiting": 4598,
      "default": 4599,
      "##iques": 4600,
      "strengthening": 4601,
      "orders": 4602,
      "afford": 4603,
      "veget": 4604,
      "dub": 4605,
      "ale": 4606,
      "ye": 4607,
      "##going": 4608,
      "identity": 4609,
      "dia": 4610,
      "technological": 4611,
      "personally": 4612,
      "dele": 4613,
      "consensus": 4614,
      "planned": 4615,
      "##view": 4616,
      "##asing": 4617,
      "rol": 4618,
      "##urb": 4619,
      "smaller": 4620,
      "depending": 4621,
      "bars": 4622,
      "evaluation": 4623,
      "palace": 4624,
      "vent": 4625,
      "cancell": 4626,
      "consists": 4627,
      "blood": 4628,
      "lob": 4629,
      "prospect": 4630,
      "##pal": 4631,
      "##onia": 4632,
      "disposal": 4633,
      "##sch": 4634,
      "##ba": 4635,
      "suites": 4636,
      "approval": 4637,
      "gir": 4638,
      "##can": 4639,
      "classic": 4640,
      "elimin": 4641,
      "##book": 4642,
      "##tic": 4643,
      "seeking": 4644,
      "sets": 4645,
      "valu": 4646,
      "withdraw": 4647,
      "##ifications": 4648,
      "pd": 4649,
      "##licit": 4650,
      "territor": 4651,
      "capable": 4652,
      "reve": 4653,
      "slight": 4654,
      "##charge": 4655,
      "cash": 4656,
      "pointed": 4657,
      "grounds": 4658,
      "schools": 4659,
      "substantial": 4660,
      "primary": 4661,
      "sac": 4662,
      "##anging": 4663,
      "##abil": 4664,
      "leads": 4665,
      "pleasure": 4666,
      "album": 4667,
      "universal": 4668,
      "automatic": 4669,
      "acceptable": 4670,
      "vice": 4671,
      "##asters": 4672,
      "spaces": 4673,
      "creative": 4674,
      "balcon": 4675,
      "newsp": 4676,
      "qualified": 4677,
      "entertainment": 4678,
      "kilomet": 4679,
      "responsibilities": 4680,
      "diversity": 4681,
      "causes": 4682,
      "ze": 4683,
      "resulting": 4684,
      "retain": 4685,
      "stim": 4686,
      "##ola": 4687,
      "mini": 4688,
      "constant": 4689,
      "domain": 4690,
      "##lich": 4691,
      "conclude": 4692,
      "consolid": 4693,
      "defend": 4694,
      "##ko": 4695,
      "brings": 4696,
      "waters": 4697,
      "thereby": 4698,
      "safeguard": 4699,
      "cry": 4700,
      "ice": 4701,
      "##ube": 4702,
      "studio": 4703,
      "##anim": 4704,
      "##lim": 4705,
      "keeping": 4706,
      "sweden": 4707,
      "##inating": 4708,
      "spot": 4709,
      "leis": 4710,
      "corner": 4711,
      "voc": 4712,
      "intellect": 4713,
      "mutual": 4714,
      "inhab": 4715,
      "od": 4716,
      "congress": 4717,
      "##entially": 4718,
      "primarily": 4719,
      "##inations": 4720,
      "##iced": 4721,
      "versions": 4722,
      "copyright": 4723,
      "heavy": 4724,
      "battle": 4725,
      "##ray": 4726,
      "named": 4727,
      "discussing": 4728,
      "manufacturers": 4729,
      "adequate": 4730,
      "vulner": 4731,
      "attacks": 4732,
      "dvd": 4733,
      "tours": 4734,
      "##ny": 4735,
      "piece": 4736,
      "fourth": 4737,
      "arms": 4738,
      "solar": 4739,
      "determined": 4740,
      "script": 4741,
      "rul": 4742,
      "##idential": 4743,
      "sen": 4744,
      "ist": 4745,
      "talks": 4746,
      "cart": 4747,
      "lam": 4748,
      "leisure": 4749,
      "father": 4750,
      "##ancy": 4751,
      "##ulating": 4752,
      "investments": 4753,
      "exception": 4754,
      "microsoft": 4755,
      "##ja": 4756,
      "addressed": 4757,
      "parad": 4758,
      "customs": 4759,
      "prepare": 4760,
      "visa": 4761,
      "romania": 4762,
      "fill": 4763,
      "mount": 4764,
      "seat": 4765,
      "##road": 4766,
      "accounts": 4767,
      "rental": 4768,
      "bill": 4769,
      "##ql": 4770,
      "##inks": 4771,
      "drugs": 4772,
      "delegation": 4773,
      "browser": 4774,
      "imper": 4775,
      "competence": 4776,
      "philosoph": 4777,
      "##uls": 4778,
      "decades": 4779,
      "presentation": 4780,
      "dutch": 4781,
      "##vent": 4782,
      "##je": 4783,
      "straight": 4784,
      "protest": 4785,
      "braz": 4786,
      "##tered": 4787,
      "birth": 4788,
      "john": 4789,
      "thor": 4790,
      "panor": 4791,
      "alp": 4792,
      "##ipping": 4793,
      "kinds": 4794,
      "requested": 4795,
      "lord": 4796,
      "rub": 4797,
      "websites": 4798,
      "existence": 4799,
      "consultation": 4800,
      "chap": 4801,
      "opposite": 4802,
      "metal": 4803,
      "barri": 4804,
      "##ront": 4805,
      "dark": 4806,
      "restric": 4807,
      "communications": 4808,
      "geograph": 4809,
      "delivered": 4810,
      "unanim": 4811,
      "output": 4812,
      "convenient": 4813,
      "fem": 4814,
      "dealt": 4815,
      "leadership": 4816,
      "besides": 4817,
      "tob": 4818,
      "improvements": 4819,
      "dri": 4820,
      "eg": 4821,
      "finding": 4822,
      "recommended": 4823,
      "turned": 4824,
      "tend": 4825,
      "magaz": 4826,
      "feeling": 4827,
      "refugees": 4828,
      "faced": 4829,
      "charming": 4830,
      "urge": 4831,
      "mas": 4832,
      "shape": 4833,
      "marked": 4834,
      "army": 4835,
      "units": 4836,
      "mechanisms": 4837,
      "##iring": 4838,
      "##here": 4839,
      "##ham": 4840,
      "goog": 4841,
      "noise": 4842,
      "amaz": 4843,
      "lounge": 4844,
      "equally": 4845,
      "mel": 4846,
      "reply": 4847,
      "speakers": 4848,
      "repeated": 4849,
      "treated": 4850,
      "centres": 4851,
      "sail": 4852,
      "##mann": 4853,
      "compensation": 4854,
      "requests": 4855,
      "##ius": 4856,
      "dinner": 4857,
      "sor": 4858,
      "furniture": 4859,
      "trou": 4860,
      "onto": 4861,
      "runs": 4862,
      "brazil": 4863,
      "##rum": 4864,
      "php": 4865,
      "heads": 4866,
      "error": 4867,
      "visual": 4868,
      "represented": 4869,
      "extension": 4870,
      "gender": 4871,
      "experiences": 4872,
      "helping": 4873,
      "chairman": 4874,
      "royal": 4875,
      "trees": 4876,
      "sanctions": 4877,
      "wi": 4878,
      "##za": 4879,
      "google": 4880,
      "supplement": 4881,
      "expertise": 4882,
      "##kt": 4883,
      "trend": 4884,
      "temporary": 4885,
      "knows": 4886,
      "destination": 4887,
      "pm": 4888,
      "wait": 4889,
      "##onom": 4890,
      "##ela": 4891,
      "exceed": 4892,
      "attitude": 4893,
      "combating": 4894,
      "deuts": 4895,
      "significantly": 4896,
      "consistent": 4897,
      "launched": 4898,
      "volume": 4899,
      "##bre": 4900,
      "obligation": 4901,
      "##oman": 4902,
      "directives": 4903,
      "##usion": 4904,
      "insist": 4905,
      "##ata": 4906,
      "bridge": 4907,
      "##abilities": 4908,
      "objects": 4909,
      "mobility": 4910,
      "streets": 4911,
      "quarter": 4912,
      "##furt": 4913,
      "renewable": 4914,
      "##uries": 4915,
      "operators": 4916,
      "reprod": 4917,
      "intellectual": 4918,
      "older": 4919,
      "pick": 4920,
      "proof": 4921,
      "prize": 4922,
      "settings": 4923,
      "moved": 4924,
      "bran": 4925,
      "mex": 4926,
      "euros": 4927,
      "temperature": 4928,
      "tests": 4929,
      "division": 4930,
      "recognise": 4931,
      "outdoor": 4932,
      "convers": 4933,
      "dishes": 4934,
      "edition": 4935,
      "boat": 4936,
      "peoples": 4937,
      "ky": 4938,
      "substances": 4939,
      "poker": 4940,
      "expensive": 4941,
      "##omed": 4942,
      "bedrooms": 4943,
      "holding": 4944,
      "dict": 4945,
      "emphasis": 4946,
      "org": 4947,
      "politicians": 4948,
      "passengers": 4949,
      "emphasise": 4950,
      "vess": 4951,
      "advis": 4952,
      "##oms": 4953,
      "rejected": 4954,
      "proud": 4955,
      "expectations": 4956,
      "mother": 4957,
      "shad": 4958,
      "stream": 4959,
      "consequently": 4960,
      "dining": 4961,
      "contrast": 4962,
      "minim": 4963,
      "##iny": 4964,
      "estim": 4965,
      "applicable": 4966,
      "advantages": 4967,
      "gallery": 4968,
      "latter": 4969,
      "texts": 4970,
      "disabled": 4971,
      "millions": 4972,
      "stations": 4973,
      "fat": 4974,
      "weather": 4975,
      "wit": 4976,
      "globalisation": 4977,
      "exists": 4978,
      "gather": 4979,
      "ben": 4980,
      "comply": 4981,
      "##cks": 4982,
      "handling": 4983,
      "helps": 4984,
      "channel": 4985,
      "breat": 4986,
      "fasc": 4987,
      "##matic": 4988,
      "##ded": 4989,
      "taxes": 4990,
      "vast": 4991,
      "munich": 4992,
      "##elled": 4993,
      "bos": 4994,
      "resolve": 4995,
      "cloth": 4996,
      "hair": 4997,
      "enth": 4998,
      "appreciate": 4999,
      "ped": 5000,
      "##yc": 5001,
      "disaster": 5002,
      "sleep": 5003,
      "offices": 5004,
      "famili": 5005,
      "entered": 5006,
      "suffering": 5007,
      "burn": 5008,
      "relatively": 5009,
      "heat": 5010,
      "##arus": 5011,
      "##avour": 5012,
      "http": 5013,
      "##ustr": 5014,
      "serb": 5015,
      "figure": 5016,
      "az": 5017,
      "ultimately": 5018,
      "wellness": 5019,
      "##onym": 5020,
      "##iking": 5021,
      "fighting": 5022,
      "carbon": 5023,
      "##ita": 5024,
      "arrest": 5025,
      "enhance": 5026,
      "esc": 5027,
      "fitness": 5028,
      "valuable": 5029,
      "recognised": 5030,
      "arrangements": 5031,
      "leaving": 5032,
      "compr": 5033,
      "##ansion": 5034,
      "respective": 5035,
      "label": 5036,
      "exclusively": 5037,
      "gardens": 5038,
      "fantastic": 5039,
      "repeat": 5040,
      "involving": 5041,
      "conditioning": 5042,
      "danger": 5043,
      "sauna": 5044,
      "pret": 5045,
      "sund": 5046,
      "diseases": 5047,
      "virtual": 5048,
      "pak": 5049,
      "##ourage": 5050,
      "felt": 5051,
      "protecting": 5052,
      "bol": 5053,
      "listen": 5054,
      "standing": 5055,
      "##sibly": 5056,
      "nos": 5057,
      "thorough": 5058,
      "covers": 5059,
      "##abling": 5060,
      "prosper": 5061,
      "egy": 5062,
      "happens": 5063,
      "lt": 5064,
      "complic": 5065,
      "georg": 5066,
      "##enses": 5067,
      "lose": 5068,
      "rain": 5069,
      "treaties": 5070,
      "collective": 5071,
      "privile": 5072,
      "poly": 5073,
      "criticism": 5074,
      "hospit": 5075,
      "wireless": 5076,
      "hence": 5077,
      "provider": 5078,
      "planet": 5079,
      "burden": 5080,
      "amp": 5081,
      "faith": 5082,
      "exceptional": 5083,
      "swedish": 5084,
      "accompan": 5085,
      "saint": 5086,
      "polish": 5087,
      "##urd": 5088,
      "marit": 5089,
      "cable": 5090,
      "fee": 5091,
      "opposed": 5092,
      "bureauc": 5093,
      "solve": 5094,
      "producing": 5095,
      "reaching": 5096,
      "preparation": 5097,
      "##rel": 5098,
      "##place": 5099,
      "confirmed": 5100,
      "##ught": 5101,
      "eyes": 5102,
      "hardware": 5103,
      "obtained": 5104,
      "disapp": 5105,
      "discovered": 5106,
      "##ado": 5107,
      "artist": 5108,
      "extraord": 5109,
      "##itely": 5110,
      "lunch": 5111,
      "##vely": 5112,
      "##oke": 5113,
      "##anged": 5114,
      "psych": 5115,
      "volunt": 5116,
      "##uting": 5117,
      "##areness": 5118,
      "raw": 5119,
      "healthy": 5120,
      "applause": 5121,
      "impl": 5122,
      "egypt": 5123,
      "controlled": 5124,
      "##ae": 5125,
      "newly": 5126,
      "interior": 5127,
      "##cipl": 5128,
      "helped": 5129,
      "flag": 5130,
      "stars": 5131,
      "constructive": 5132,
      "determine": 5133,
      "reven": 5134,
      "spectac": 5135,
      "awareness": 5136,
      "reconst": 5137,
      "##vak": 5138,
      "##quir": 5139,
      "gran": 5140,
      "extreme": 5141,
      "tickets": 5142,
      "involvement": 5143,
      "remark": 5144,
      "operational": 5145,
      "##iders": 5146,
      "advoc": 5147,
      "serves": 5148,
      "offic": 5149,
      "impressive": 5150,
      "obstac": 5151,
      "nom": 5152,
      "debates": 5153,
      "recommendation": 5154,
      "discharge": 5155,
      "strategies": 5156,
      "phr": 5157,
      "push": 5158,
      "liberalisation": 5159,
      "transportation": 5160,
      "contributions": 5161,
      "##ker": 5162,
      "contracts": 5163,
      "increases": 5164,
      "looks": 5165,
      "rapporteurs": 5166,
      "removed": 5167,
      "complain": 5168,
      "strugg": 5169,
      "flash": 5170,
      "nord": 5171,
      "frid": 5172,
      "announce": 5173,
      "mandate": 5174,
      "jam": 5175,
      "larg": 5176,
      "organizations": 5177,
      "afghanistan": 5178,
      "##certain": 5179,
      "ju": 5180,
      "ethnic": 5181,
      "cleaning": 5182,
      "hundreds": 5183,
      "ng": 5184,
      "stake": 5185,
      "##anges": 5186,
      "opinions": 5187,
      "tail": 5188,
      "officials": 5189,
      "##oe": 5190,
      "util": 5191,
      "mi": 5192,
      "om": 5193,
      "worksh": 5194,
      "amounts": 5195,
      "happening": 5196,
      "pattern": 5197,
      "##zen": 5198,
      "incent": 5199,
      "socialist": 5200,
      "resolutions": 5201,
      "navig": 5202,
      "alco": 5203,
      "prohib": 5204,
      "restrictions": 5205,
      "luxem": 5206,
      "nato": 5207,
      "##fers": 5208,
      "drawing": 5209,
      "depth": 5210,
      "dav": 5211,
      "largely": 5212,
      "##ented": 5213,
      "charges": 5214,
      "properties": 5215,
      "isol": 5216,
      "meat": 5217,
      "##anda": 5218,
      "vacation": 5219,
      "certific": 5220,
      "inhabit": 5221,
      "impression": 5222,
      "emergency": 5223,
      "thirdly": 5224,
      "statistics": 5225,
      "coher": 5226,
      "##ips": 5227,
      "parliaments": 5228,
      "frankfurt": 5229,
      "engage": 5230,
      "massive": 5231,
      "costa": 5232,
      "drug": 5233,
      "remaining": 5234,
      "cutting": 5235,
      "parents": 5236,
      "formal": 5237,
      "oly": 5238,
      "britain": 5239,
      "explore": 5240,
      "acquis": 5241,
      "##ocket": 5242,
      "creates": 5243,
      "jur": 5244,
      "messages": 5245,
      "entre": 5246,
      "japanese": 5247,
      "phen": 5248,
      "sexual": 5249,
      "abroad": 5250,
      "warrant": 5251,
      "requirement": 5252,
      "##idden": 5253,
      "abol": 5254,
      "maritime": 5255,
      "hill": 5256,
      "##fol": 5257,
      "das": 5258,
      "worse": 5259,
      "olymp": 5260,
      "renovated": 5261,
      "precise": 5262,
      "frequently": 5263,
      "profile": 5264,
      "upper": 5265,
      "enthus": 5266,
      "##aper": 5267,
      "regulatory": 5268,
      "submit": 5269,
      "maintained": 5270,
      "croatia": 5271,
      "doesn": 5272,
      "##comm": 5273,
      "characteristics": 5274,
      "witness": 5275,
      "string": 5276,
      "issued": 5277,
      "ib": 5278,
      "decis": 5279,
      "monu": 5280,
      "belarus": 5281,
      "attend": 5282,
      "##ova": 5283,
      "driver": 5284,
      "favor": 5285,
      "underm": 5286,
      "trial": 5287,
      "migration": 5288,
      "towns": 5289,
      "depends": 5290,
      "edge": 5291,
      "##edia": 5292,
      "prove": 5293,
      "couple": 5294,
      "owner": 5295,
      "continent": 5296,
      "proportion": 5297,
      "##cont": 5298,
      "familiar": 5299,
      "wik": 5300,
      "domin": 5301,
      "enforce": 5302,
      "fax": 5303,
      "identify": 5304,
      "jac": 5305,
      "##fs": 5306,
      "intend": 5307,
      "conflicts": 5308,
      "gone": 5309,
      "##tedly": 5310,
      "##ateful": 5311,
      "gets": 5312,
      "chief": 5313,
      "walls": 5314,
      "seeing": 5315,
      "career": 5316,
      "##ocr": 5317,
      "bulgaria": 5318,
      "returned": 5319,
      "meps": 5320,
      "absolute": 5321,
      "welf": 5322,
      "##see": 5323,
      "lovely": 5324,
      "balk": 5325,
      "contacts": 5326,
      "##stood": 5327,
      "organized": 5328,
      "regularly": 5329,
      "afterno": 5330,
      "minority": 5331,
      "documentation": 5332,
      "ran": 5333,
      "##appe": 5334,
      "aqu": 5335,
      "##chen": 5336,
      "accom": 5337,
      "miles": 5338,
      "##ennis": 5339,
      "##andon": 5340,
      "surroundings": 5341,
      "topic": 5342,
      "welfare": 5343,
      "##cast": 5344,
      "##bar": 5345,
      "configuration": 5346,
      "passenger": 5347,
      "gdp": 5348,
      "fal": 5349,
      "##govern": 5350,
      "##illa": 5351,
      "disappoint": 5352,
      "printing": 5353,
      "toler": 5354,
      "shar": 5355,
      "dol": 5356,
      "coal": 5357,
      "reserves": 5358,
      "answers": 5359,
      "ta": 5360,
      "updated": 5361,
      "dates": 5362,
      "colon": 5363,
      "metro": 5364,
      "electricity": 5365,
      "balcony": 5366,
      "iv": 5367,
      "functioning": 5368,
      "elev": 5369,
      "mostly": 5370,
      "connections": 5371,
      "dur": 5372,
      "##sman": 5373,
      "awa": 5374,
      "zu": 5375,
      "##ole": 5376,
      "define": 5377,
      "mir": 5378,
      "root": 5379,
      "##endum": 5380,
      "thir": 5381,
      "reveal": 5382,
      "lag": 5383,
      "facilitate": 5384,
      "austral": 5385,
      "remote": 5386,
      "reported": 5387,
      "arg": 5388,
      "cycle": 5389,
      "##inder": 5390,
      "facility": 5391,
      "##what": 5392,
      "wines": 5393,
      "theme": 5394,
      "exit": 5395,
      "deals": 5396,
      "settlement": 5397,
      "pursu": 5398,
      "shap": 5399,
      "index": 5400,
      "drivers": 5401,
      "bug": 5402,
      "performed": 5403,
      "conducted": 5404,
      "displayed": 5405,
      "committees": 5406,
      "luxembourg": 5407,
      "functional": 5408,
      "phenomen": 5409,
      "##ns": 5410,
      "roma": 5411,
      "oral": 5412,
      "unfor": 5413,
      "bush": 5414,
      "somewhat": 5415,
      "compatible": 5416,
      "tourists": 5417,
      "faster": 5418,
      "##esty": 5419,
      "input": 5420,
      "supposed": 5421,
      "complement": 5422,
      "ought": 5423,
      "abandon": 5424,
      "trafficking": 5425,
      "bottom": 5426,
      "demanding": 5427,
      "joined": 5428,
      "investors": 5429,
      "magnific": 5430,
      "decorated": 5431,
      "pakistan": 5432,
      "hat": 5433,
      "##viet": 5434,
      "smes": 5435,
      "none": 5436,
      "techniques": 5437,
      "pollution": 5438,
      "intens": 5439,
      "behavi": 5440,
      "kr": 5441,
      "##ancing": 5442,
      "focused": 5443,
      "resistance": 5444,
      "swe": 5445,
      "invite": 5446,
      "maintaining": 5447,
      "##erts": 5448,
      "margin": 5449,
      "##alt": 5450,
      "compact": 5451,
      "bright": 5452,
      "cypr": 5453,
      "entrance": 5454,
      "wars": 5455,
      "flights": 5456,
      "arrive": 5457,
      "##holders": 5458,
      "##vi": 5459,
      "thr": 5460,
      "surely": 5461,
      "##azz": 5462,
      "relaxation": 5463,
      "divided": 5464,
      "noted": 5465,
      "grateful": 5466,
      "freedoms": 5467,
      "municip": 5468,
      "##lav": 5469,
      "oce": 5470,
      "sus": 5471,
      "intergovern": 5472,
      "finished": 5473,
      "fulfil": 5474,
      "smooth": 5475,
      "follows": 5476,
      "effectiveness": 5477,
      "alcohol": 5478,
      "cyprus": 5479,
      "honour": 5480,
      "intergovernmental": 5481,
      "##cher": 5482,
      "personnel": 5483,
      "##bor": 5484,
      "worry": 5485,
      "era": 5486,
      "canada": 5487,
      "stylish": 5488,
      "ok": 5489,
      "##ague": 5490,
      "educational": 5491,
      "terrorist": 5492,
      "##verse": 5493,
      "delighted": 5494,
      "inhabitants": 5495,
      "aer": 5496,
      "portugues": 5497,
      "liqu": 5498,
      "cup": 5499,
      "courage": 5500,
      "signs": 5501,
      "corruption": 5502,
      "##asse": 5503,
      "##aught": 5504,
      "starts": 5505,
      "por": 5506,
      "reservations": 5507,
      "visible": 5508,
      "citizen": 5509,
      "collaboration": 5510,
      "visiting": 5511,
      "sugar": 5512,
      "careful": 5513,
      "##enhagen": 5514,
      "cin": 5515,
      "subsidies": 5516,
      "ros": 5517,
      "##iform": 5518,
      "guard": 5519,
      "channels": 5520,
      "packaging": 5521,
      "locations": 5522,
      "##son": 5523,
      "##eller": 5524,
      "afternoon": 5525,
      "##otel": 5526,
      "speaker": 5527,
      "portuguese": 5528,
      "corresponding": 5529,
      "##enary": 5530,
      "##ige": 5531,
      "##oto": 5532,
      "lan": 5533,
      "wro": 5534,
      "expansion": 5535,
      "football": 5536,
      "##iest": 5537,
      "consulting": 5538,
      "##grade": 5539,
      "slovak": 5540,
      "boot": 5541,
      "forg": 5542,
      "soviet": 5543,
      "accident": 5544,
      "referendum": 5545,
      "presents": 5546,
      "widely": 5547,
      "##orse": 5548,
      "stored": 5549,
      "exciting": 5550,
      "boost": 5551,
      "involves": 5552,
      "showing": 5553,
      "behaviour": 5554,
      "mp": 5555,
      "trek": 5556,
      "prest": 5557,
      "manual": 5558,
      "fan": 5559,
      "##uous": 5560,
      "##ager": 5561,
      "israeli": 5562,
      "horse": 5563,
      "scheme": 5564,
      "friday": 5565,
      "sto": 5566,
      "restruct": 5567,
      "suffer": 5568,
      "appointed": 5569,
      "poss": 5570,
      "##acing": 5571,
      "disk": 5572,
      "disappe": 5573,
      "pdf": 5574,
      "##opol": 5575,
      "module": 5576,
      "indicated": 5577,
      "catch": 5578,
      "washing": 5579,
      "judicial": 5580,
      "tennis": 5581,
      "bio": 5582,
      "visited": 5583,
      "##engen": 5584,
      "diss": 5585,
      "##iliation": 5586,
      "considering": 5587,
      "##eters": 5588,
      "demonstrate": 5589,
      "understood": 5590,
      "woman": 5591,
      "accompanied": 5592,
      "##stit": 5593,
      "eat": 5594,
      "surf": 5595,
      "hu": 5596,
      "cm": 5597,
      "sd": 5598,
      "##iled": 5599,
      "##aves": 5600,
      "##ald": 5601,
      "distingu": 5602,
      "films": 5603,
      "demonstrated": 5604,
      "dro": 5605,
      "managing": 5606,
      "cosy": 5607,
      "lau": 5608,
      "autonom": 5609,
      "##liers": 5610,
      "##utor": 5611,
      "possibly": 5612,
      "luxur": 5613,
      "##point": 5614,
      "minorities": 5615,
      "shipping": 5616,
      "benefic": 5617,
      "teams": 5618,
      "iso": 5619,
      "##nam": 5620,
      "arts": 5621,
      "professionals": 5622,
      "##ney": 5623,
      "##fa": 5624,
      "awarded": 5625,
      "proved": 5626,
      "airlines": 5627,
      "superior": 5628,
      "##met": 5629,
      "fly": 5630,
      "roll": 5631,
      "ongoing": 5632,
      "##arters": 5633,
      "##rical": 5634,
      "spoken": 5635,
      "spectacular": 5636,
      "turning": 5637,
      "banking": 5638,
      "pi": 5639,
      "authent": 5640,
      "##igen": 5641,
      "bilateral": 5642,
      "prague": 5643,
      "renown": 5644,
      "contrad": 5645,
      "recorded": 5646,
      "silver": 5647,
      "##oral": 5648,
      "supplier": 5649,
      "copenhagen": 5650,
      "eventually": 5651,
      "##ym": 5652,
      "##acco": 5653,
      "manufacturer": 5654,
      "pt": 5655,
      "##orf": 5656,
      "crimes": 5657,
      "imposed": 5658,
      "component": 5659,
      "##gi": 5660,
      "pic": 5661,
      "twenty": 5662,
      "na": 5663,
      "province": 5664,
      "explicit": 5665,
      "concluded": 5666,
      "courts": 5667,
      "emot": 5668,
      "supervis": 5669,
      "facts": 5670,
      "lobby": 5671,
      "containing": 5672,
      "vat": 5673,
      "immigrants": 5674,
      "lots": 5675,
      "plenty": 5676,
      "##iano": 5677,
      "extraordinary": 5678,
      "suppliers": 5679,
      "subsidiarity": 5680,
      "competent": 5681,
      "baltic": 5682,
      "routes": 5683,
      "pharm": 5684,
      "##ema": 5685,
      "sharing": 5686,
      "##box": 5687,
      "theatre": 5688,
      "dies": 5689,
      "schengen": 5690,
      "phrase": 5691,
      "firms": 5692,
      "sending": 5693,
      "inflation": 5694,
      "korea": 5695,
      "cul": 5696,
      "editor": 5697,
      "tower": 5698,
      "proven": 5699,
      "destruction": 5700,
      "prop": 5701,
      "providers": 5702,
      "aus": 5703,
      "##ador": 5704,
      "milk": 5705,
      "paint": 5706,
      "oriented": 5707,
      "##los": 5708,
      "musical": 5709,
      "originally": 5710,
      "respected": 5711,
      "vit": 5712,
      "##aking": 5713,
      "unw": 5714,
      "partly": 5715,
      "tackle": 5716,
      "transactions": 5717,
      "artistic": 5718,
      "taxation": 5719,
      "occasions": 5720,
      "infring": 5721,
      "societ": 5722,
      "determination": 5723,
      "voluntary": 5724,
      "ni": 5725,
      "nine": 5726,
      "scan": 5727,
      "assume": 5728,
      "flood": 5729,
      "desired": 5730,
      "adopting": 5731,
      "paul": 5732,
      "ath": 5733,
      "motiv": 5734,
      "theory": 5735,
      "stabil": 5736,
      "ax": 5737,
      "conserv": 5738,
      "uniform": 5739,
      "vary": 5740,
      "replaced": 5741,
      "hungary": 5742,
      "whereas": 5743,
      "##oub": 5744,
      "pieces": 5745,
      "philosophy": 5746,
      "dos": 5747,
      "promp": 5748,
      "smart": 5749,
      "golden": 5750,
      "authentic": 5751,
      "tobacco": 5752,
      "magnificent": 5753,
      "ko": 5754,
      "belgium": 5755,
      "updates": 5756,
      "federation": 5757,
      "scr": 5758,
      "rapidly": 5759,
      "assum": 5760,
      "saving": 5761,
      "ecu": 5762,
      "##ura": 5763,
      "centuries": 5764,
      "shares": 5765,
      "overcome": 5766,
      "secretary": 5767,
      "plenary": 5768,
      "madrid": 5769,
      "##iel": 5770,
      "addresses": 5771,
      "correctly": 5772,
      "definitely": 5773,
      "newslet": 5774,
      "endorse": 5775,
      "assets": 5776,
      "premium": 5777,
      "moral": 5778,
      "movie": 5779,
      "icon": 5780,
      "nights": 5781,
      "hungarian": 5782,
      "credibility": 5783,
      "satisfied": 5784,
      "bike": 5785,
      "uncertain": 5786,
      "soph": 5787,
      "beg": 5788,
      "imagine": 5789,
      "repair": 5790,
      "weekend": 5791,
      "formed": 5792,
      "diam": 5793,
      "everybody": 5794,
      "drop": 5795,
      "declared": 5796,
      "barro": 5797,
      "vig": 5798,
      "usual": 5799,
      "preparing": 5800,
      "finish": 5801,
      "distributed": 5802,
      "##stein": 5803,
      "thousand": 5804,
      "thurs": 5805,
      "tea": 5806,
      "stronger": 5807,
      "panel": 5808,
      "encouraging": 5809,
      "dign": 5810,
      "scand": 5811,
      "hamb": 5812,
      "##iant": 5813,
      "auditors": 5814,
      "adults": 5815,
      "inclusion": 5816,
      "hes": 5817,
      "regardless": 5818,
      "trips": 5819,
      "semin": 5820,
      "directory": 5821,
      "hyd": 5822,
      "retail": 5823,
      "nic": 5824,
      "died": 5825,
      "plays": 5826,
      "intensive": 5827,
      "luxurious": 5828,
      "emerging": 5829,
      "jack": 5830,
      "##cul": 5831,
      "roads": 5832,
      "##umin": 5833,
      "narrow": 5834,
      "argument": 5835,
      "zur": 5836,
      "tree": 5837,
      "mexico": 5838,
      "skiing": 5839,
      "thumb": 5840,
      "slightly": 5841,
      "defect": 5842,
      "resource": 5843,
      "applying": 5844,
      "##time": 5845,
      "earn": 5846,
      "identified": 5847,
      "proposes": 5848,
      "horiz": 5849,
      "##atures": 5850,
      "suit": 5851,
      "##jo": 5852,
      "consent": 5853,
      "noneth": 5854,
      "##inent": 5855,
      "nonetheless": 5856,
      "resolved": 5857,
      "##bus": 5858,
      "radical": 5859,
      "concepts": 5860,
      "##cd": 5861,
      "everyday": 5862,
      "illustr": 5863,
      "##eds": 5864,
      "departure": 5865,
      "##ache": 5866,
      "pin": 5867,
      "tab": 5868,
      "substance": 5869,
      "inj": 5870,
      "##aci": 5871,
      "belief": 5872,
      "renowned": 5873,
      "gh": 5874,
      "ensures": 5875,
      "actively": 5876,
      "lists": 5877,
      "owned": 5878,
      "generated": 5879,
      "##sem": 5880,
      "decre": 5881,
      "##roll": 5882,
      "##sc": 5883,
      "topics": 5884,
      "ak": 5885,
      "carrying": 5886,
      "supplies": 5887,
      "overview": 5888,
      "winning": 5889,
      "##band": 5890,
      "lessons": 5891,
      "examine": 5892,
      "ports": 5893,
      "museums": 5894,
      "##fl": 5895,
      "crew": 5896,
      "dependent": 5897,
      "duties": 5898,
      "indo": 5899,
      "mys": 5900,
      "opera": 5901,
      "elsewhere": 5902,
      "sie": 5903,
      "ships": 5904,
      "decisive": 5905,
      "##cure": 5906,
      "##orate": 5907,
      "roof": 5908,
      "villages": 5909,
      "entrepr": 5910,
      "discipl": 5911,
      "decent": 5912,
      "infect": 5913,
      "sunday": 5914,
      "recall": 5915,
      "eld": 5916,
      "subjects": 5917,
      "lift": 5918,
      "##ched": 5919,
      "housing": 5920,
      "##icht": 5921,
      "paralle": 5922,
      "maybe": 5923,
      "gramm": 5924,
      "religion": 5925,
      "traditions": 5926,
      "representation": 5927,
      "assure": 5928,
      "satisfaction": 5929,
      "concert": 5930,
      "distort": 5931,
      "proposing": 5932,
      "extract": 5933,
      "solely": 5934,
      "acting": 5935,
      "diverse": 5936,
      "##top": 5937,
      "abuse": 5938,
      "##ael": 5939,
      "acp": 5940,
      "romantic": 5941,
      "thursday": 5942,
      "employed": 5943,
      "attempts": 5944,
      "savings": 5945,
      "interpretation": 5946,
      "organic": 5947,
      "##iro": 5948,
      "aviation": 5949,
      "gear": 5950,
      "ram": 5951,
      "deploy": 5952,
      "alarm": 5953,
      "orch": 5954,
      "##encing": 5955,
      "tradem": 5956,
      "santa": 5957,
      "##outh": 5958,
      "filter": 5959,
      "sum": 5960,
      "magazine": 5961,
      "spons": 5962,
      "drinks": 5963,
      "info": 5964,
      "portfol": 5965,
      "forests": 5966,
      "exports": 5967,
      "farming": 5968,
      "suggestions": 5969,
      "wrote": 5970,
      "excurs": 5971,
      "excessive": 5972,
      "deter": 5973,
      "vulnerable": 5974,
      "vic": 5975,
      "murder": 5976,
      "revision": 5977,
      "wheel": 5978,
      "##uces": 5979,
      "tran": 5980,
      "ot": 5981,
      "scene": 5982,
      "attrib": 5983,
      "legitimate": 5984,
      "layer": 5985,
      "fleet": 5986,
      "fifth": 5987,
      "massage": 5988,
      "tight": 5989,
      "unforget": 5990,
      "##pet": 5991,
      "ingr": 5992,
      "satur": 5993,
      "absence": 5994,
      "comparison": 5995,
      "##uk": 5996,
      "enabled": 5997,
      "champions": 5998,
      "cater": 5999,
      "continuous": 6000,
      "england": 6001,
      "##oon": 6002,
      "condemn": 6003,
      "impose": 6004,
      "clin": 6005,
      "eads": 6006,
      "filled": 6007,
      "countryside": 6008,
      "arrived": 6009,
      "doors": 6010,
      "##erate": 6011,
      "colours": 6012,
      "hamburg": 6013,
      "therap": 6014,
      "prox": 6015,
      "entreprene": 6016,
      "delicious": 6017,
      "greatly": 6018,
      "##bl": 6019,
      "##ationally": 6020,
      "salz": 6021,
      "atlantic": 6022,
      "thermal": 6023,
      "specialist": 6024,
      "batter": 6025,
      "luc": 6026,
      "acknowledge": 6027,
      "fans": 6028,
      "una": 6029,
      "judge": 6030,
      "gained": 6031,
      "tables": 6032,
      "##ails": 6033,
      "receiving": 6034,
      "appeared": 6035,
      "kh": 6036,
      "##ement": 6037,
      "politically": 6038,
      "confirmation": 6039,
      "regarded": 6040,
      "fisherm": 6041,
      "rising": 6042,
      "tort": 6043,
      "deficit": 6044,
      "diagn": 6045,
      "amen": 6046,
      "invited": 6047,
      "preced": 6048,
      "factory": 6049,
      "gate": 6050,
      "lod": 6051,
      "reaction": 6052,
      "specified": 6053,
      "##sl": 6054,
      "ech": 6055,
      "instructions": 6056,
      "alex": 6057,
      "monday": 6058,
      "##fin": 6059,
      "##pes": 6060,
      "equival": 6061,
      "difficulty": 6062,
      "##while": 6063,
      "realistic": 6064,
      "clubs": 6065,
      "programming": 6066,
      "undoub": 6067,
      "homes": 6068,
      "lugg": 6069,
      "permitted": 6070,
      "records": 6071,
      "publication": 6072,
      "sounds": 6073,
      "##ifies": 6074,
      "passion": 6075,
      "sustainability": 6076,
      "##ander": 6077,
      "shuttle": 6078,
      "prol": 6079,
      "underground": 6080,
      "rd": 6081,
      "spoke": 6082,
      "harmonisation": 6083,
      "ox": 6084,
      "wider": 6085,
      "commissioners": 6086,
      "breach": 6087,
      "laund": 6088,
      "unp": 6089,
      "surve": 6090,
      "fortun": 6091,
      "##zone": 6092,
      "##erb": 6093,
      "accel": 6094,
      "tib": 6095,
      "nd": 6096,
      "suggested": 6097,
      "##eva": 6098,
      "enabling": 6099,
      "selling": 6100,
      "##yer": 6101,
      "gross": 6102,
      "bonus": 6103,
      "patient": 6104,
      "handle": 6105,
      "arguments": 6106,
      "periods": 6107,
      "chapter": 6108,
      "##ellers": 6109,
      "modules": 6110,
      "paying": 6111,
      "lit": 6112,
      "nut": 6113,
      "ri": 6114,
      "cathed": 6115,
      "##ystem": 6116,
      "simult": 6117,
      "enjoyed": 6118,
      "introducing": 6119,
      "normally": 6120,
      "anonym": 6121,
      "pursue": 6122,
      "didn": 6123,
      "jer": 6124,
      "peak": 6125,
      "##bel": 6126,
      "supervision": 6127,
      "fabric": 6128,
      "ocean": 6129,
      "##lined": 6130,
      "cancer": 6131,
      "mobil": 6132,
      "craft": 6133,
      "legally": 6134,
      "caf": 6135,
      "conce": 6136,
      "ordinary": 6137,
      "proceedings": 6138,
      "asp": 6139,
      "harbour": 6140,
      "leaves": 6141,
      "dism": 6142,
      "para": 6143,
      "exclusion": 6144,
      "luggage": 6145,
      "destroyed": 6146,
      "kern": 6147,
      "societies": 6148,
      "##ull": 6149,
      "plastic": 6150,
      "labelling": 6151,
      "accordingly": 6152,
      "enhanced": 6153,
      "carri": 6154,
      "imports": 6155,
      "rely": 6156,
      "ride": 6157,
      "rare": 6158,
      "videos": 6159,
      "gift": 6160,
      "distinct": 6161,
      "##oli": 6162,
      "##aughter": 6163,
      "universities": 6164,
      "aside": 6165,
      "hospitality": 6166,
      "unforgettable": 6167,
      "sv": 6168,
      "reconstruction": 6169,
      "lou": 6170,
      "unc": 6171,
      "refers": 6172,
      "shadow": 6173,
      "usb": 6174,
      "cooperate": 6175,
      "simultane": 6176,
      "interview": 6177,
      "travelling": 6178,
      "constitute": 6179,
      "##las": 6180,
      "obliged": 6181,
      "##gence": 6182,
      "trail": 6183,
      "stun": 6184,
      "amazing": 6185,
      "cock": 6186,
      "reput": 6187,
      "breath": 6188,
      "##inger": 6189,
      "stras": 6190,
      "##sk": 6191,
      "justified": 6192,
      "cells": 6193,
      "##ida": 6194,
      "dialog": 6195,
      "observ": 6196,
      "##unic": 6197,
      "characters": 6198,
      "indirect": 6199,
      "directed": 6200,
      "tu": 6201,
      "tel": 6202,
      "##care": 6203,
      "##hl": 6204,
      "lasting": 6205,
      "negotiating": 6206,
      "conciliation": 6207,
      "##ascript": 6208,
      "hiking": 6209,
      "omb": 6210,
      "computers": 6211,
      "sup": 6212,
      "sequ": 6213,
      "rotary": 6214,
      "lived": 6215,
      "medicine": 6216,
      "##aling": 6217,
      "significance": 6218,
      "evident": 6219,
      "discount": 6220,
      "prosperity": 6221,
      "javascript": 6222,
      "alban": 6223,
      "hardly": 6224,
      "preventing": 6225,
      "lastly": 6226,
      "strasbourg": 6227,
      "##cs": 6228,
      "fees": 6229,
      "combine": 6230,
      "splend": 6231,
      "parameters": 6232,
      "sought": 6233,
      "##oles": 6234,
      "female": 6235,
      "##advant": 6236,
      "exempt": 6237,
      "welcomed": 6238,
      "killed": 6239,
      "##opes": 6240,
      "tested": 6241,
      "finland": 6242,
      "sections": 6243,
      "student": 6244,
      "moroc": 6245,
      "pad": 6246,
      "neighbourhood": 6247,
      "ring": 6248,
      "disadvant": 6249,
      "annivers": 6250,
      "##osis": 6251,
      "missing": 6252,
      "transmission": 6253,
      "newsletter": 6254,
      "welcomes": 6255,
      "appearance": 6256,
      "forthcoming": 6257,
      "##bur": 6258,
      "classes": 6259,
      "communist": 6260,
      "##icing": 6261,
      "stick": 6262,
      "complicated": 6263,
      "unlike": 6264,
      "undoubtedly": 6265,
      "eco": 6266,
      "dance": 6267,
      "beings": 6268,
      "parallel": 6269,
      "dog": 6270,
      "devot": 6271,
      "alleg": 6272,
      "ende": 6273,
      "floors": 6274,
      "hun": 6275,
      "songs": 6276,
      "auf": 6277,
      "memor": 6278,
      "barroso": 6279,
      "warning": 6280,
      "accurate": 6281,
      "mirr": 6282,
      "acceptance": 6283,
      "errors": 6284,
      "arbit": 6285,
      "codec": 6286,
      "allocated": 6287,
      "##gic": 6288,
      "##enth": 6289,
      "juris": 6290,
      "##eline": 6291,
      "##ais": 6292,
      "portal": 6293,
      "calend": 6294,
      "suffered": 6295,
      "liquid": 6296,
      "cathedral": 6297,
      "##zer": 6298,
      "##fall": 6299,
      "toile": 6300,
      "contributed": 6301,
      "##pol": 6302,
      "html": 6303,
      "investigation": 6304,
      "acknowled": 6305,
      "hus": 6306,
      "remarks": 6307,
      "functionality": 6308,
      "barriers": 6309,
      "indian": 6310,
      "alongside": 6311,
      "tourn": 6312,
      "opens": 6313,
      "firmly": 6314,
      "hearing": 6315,
      "ecological": 6316,
      "recognized": 6317,
      "realise": 6318,
      "##icks": 6319,
      "saturday": 6320,
      "till": 6321,
      "internationally": 6322,
      "tibet": 6323,
      "novel": 6324,
      "vib": 6325,
      "ly": 6326,
      "column": 6327,
      "ranging": 6328,
      "cuts": 6329,
      "marine": 6330,
      "##iner": 6331,
      "##ieval": 6332,
      "remained": 6333,
      "indicate": 6334,
      "christmas": 6335,
      "sheet": 6336,
      "kl": 6337,
      "##ahn": 6338,
      "ombud": 6339,
      "prosec": 6340,
      "productivity": 6341,
      "movements": 6342,
      "peter": 6343,
      "islamic": 6344,
      "cot": 6345,
      "checks": 6346,
      "cf": 6347,
      "pump": 6348,
      "##wing": 6349,
      "welcoming": 6350,
      "##wan": 6351,
      "##ographic": 6352,
      "cs": 6353,
      "##ronom": 6354,
      "serbia": 6355,
      "vessels": 6356,
      "clause": 6357,
      "covering": 6358,
      "stocks": 6359,
      "tag": 6360,
      "obstacles": 6361,
      "hills": 6362,
      "drag": 6363,
      "timet": 6364,
      "adapted": 6365,
      "##ora": 6366,
      "michael": 6367,
      "bern": 6368,
      "##da": 6369,
      "##ante": 6370,
      "##teen": 6371,
      "asian": 6372,
      "gap": 6373,
      "inev": 6374,
      "whenever": 6375,
      "exploitation": 6376,
      "saved": 6377,
      "stret": 6378,
      "##ista": 6379,
      "kg": 6380,
      "incred": 6381,
      "inquir": 6382,
      "collected": 6383,
      "encoun": 6384,
      "generations": 6385,
      "pip": 6386,
      "americans": 6387,
      "trends": 6388,
      "generate": 6389,
      "##ulf": 6390,
      "##ello": 6391,
      "disasters": 6392,
      "nu": 6393,
      "bic": 6394,
      "##aft": 6395,
      "supervisory": 6396,
      "liv": 6397,
      "legitim": 6398,
      "operator": 6399,
      "explained": 6400,
      "sloven": 6401,
      "##ben": 6402,
      "cryst": 6403,
      "reliability": 6404,
      "##ography": 6405,
      "penalty": 6406,
      "predict": 6407,
      "##otic": 6408,
      "looked": 6409,
      "schedul": 6410,
      "pilot": 6411,
      "layout": 6412,
      "##vo": 6413,
      "##lets": 6414,
      "excluded": 6415,
      "##ido": 6416,
      "cyc": 6417,
      "olive": 6418,
      "subsequent": 6419,
      "considerably": 6420,
      "gast": 6421,
      "cultures": 6422,
      "aids": 6423,
      "dignity": 6424,
      "violations": 6425,
      "##water": 6426,
      "##esco": 6427,
      "bot": 6428,
      "##ii": 6429,
      "deliber": 6430,
      "anniversary": 6431,
      "driven": 6432,
      "shoot": 6433,
      "showed": 6434,
      "panoramic": 6435,
      "overlooking": 6436,
      "incident": 6437,
      "calm": 6438,
      "broadcast": 6439,
      "##gar": 6440,
      "marina": 6441,
      "sophistic": 6442,
      "##pay": 6443,
      "rational": 6444,
      "reflected": 6445,
      "initially": 6446,
      "hyp": 6447,
      "##oslav": 6448,
      "fishermen": 6449,
      "kir": 6450,
      "amenities": 6451,
      "enem": 6452,
      "designs": 6453,
      "venice": 6454,
      "armed": 6455,
      "native": 6456,
      "lith": 6457,
      "clock": 6458,
      "sharp": 6459,
      "##ints": 6460,
      "damages": 6461,
      "chat": 6462,
      "nobody": 6463,
      "implic": 6464,
      "##ulous": 6465,
      "##usal": 6466,
      "magic": 6467,
      "shortly": 6468,
      "portfolio": 6469,
      "##haus": 6470,
      "newspapers": 6471,
      "worst": 6472,
      "une": 6473,
      "pretty": 6474,
      "##hips": 6475,
      "tan": 6476,
      "recover": 6477,
      "coordinated": 6478,
      "transferred": 6479,
      "raising": 6480,
      "##ho": 6481,
      "geneva": 6482,
      "tracks": 6483,
      "immun": 6484,
      "alpine": 6485,
      "believes": 6486,
      "stages": 6487,
      "height": 6488,
      "cla": 6489,
      "teaching": 6490,
      "liked": 6491,
      "restructuring": 6492,
      "hd": 6493,
      "vine": 6494,
      "concentrate": 6495,
      "beat": 6496,
      "restored": 6497,
      "supplied": 6498,
      "mort": 6499,
      "annex": 6500,
      "nap": 6501,
      "everywhere": 6502,
      "balkans": 6503,
      "yug": 6504,
      "anticip": 6505,
      "mouse": 6506,
      "ppe": 6507,
      "reserved": 6508,
      "##cession": 6509,
      "multilateral": 6510,
      "commerce": 6511,
      "interm": 6512,
      "ombudsman": 6513,
      "heading": 6514,
      "engines": 6515,
      "##heim": 6516,
      "sovereignty": 6517,
      "desktop": 6518,
      "usage": 6519,
      "governing": 6520,
      "freely": 6521,
      "climb": 6522,
      "satisfy": 6523,
      "##wood": 6524,
      "restore": 6525,
      "neut": 6526,
      "australia": 6527,
      "##ani": 6528,
      "bearing": 6529,
      "alle": 6530,
      "compuls": 6531,
      "camps": 6532,
      "briefly": 6533,
      "losses": 6534,
      "kill": 6535,
      "severe": 6536,
      "scientists": 6537,
      "##onic": 6538,
      "highlights": 6539,
      "manufacture": 6540,
      "superb": 6541,
      "subscrib": 6542,
      "undertaken": 6543,
      "plain": 6544,
      "unfair": 6545,
      "##cap": 6546,
      "college": 6547,
      "reflects": 6548,
      "ended": 6549,
      "adjustment": 6550,
      "##condition": 6551,
      "strengthened": 6552,
      "recording": 6553,
      "##rovers": 6554,
      "targeted": 6555,
      "##ram": 6556,
      "blind": 6557,
      "pour": 6558,
      "shift": 6559,
      "##ras": 6560,
      "martin": 6561,
      "dollar": 6562,
      "anywhere": 6563,
      "rid": 6564,
      "##nia": 6565,
      "essentially": 6566,
      "##erted": 6567,
      "dar": 6568,
      "##iti": 6569,
      "##ocking": 6570,
      "ecb": 6571,
      "adventure": 6572,
      "stuff": 6573,
      "treatments": 6574,
      "absor": 6575,
      "learned": 6576,
      "yugoslav": 6577,
      "marks": 6578,
      "neighbouring": 6579,
      "##ek": 6580,
      "coin": 6581,
      "##club": 6582,
      "inspired": 6583,
      "compress": 6584,
      "arise": 6585,
      "ideally": 6586,
      "##hof": 6587,
      "pillar": 6588,
      "attached": 6589,
      "##otive": 6590,
      "territorial": 6591,
      "servers": 6592,
      "soul": 6593,
      "ordered": 6594,
      "medieval": 6595,
      "entering": 6596,
      "pod": 6597,
      "##rent": 6598,
      "individually": 6599,
      "downt": 6600,
      "listings": 6601,
      "printed": 6602,
      "equivalent": 6603,
      "execution": 6604,
      "##communic": 6605,
      "tang": 6606,
      "##kes": 6607,
      "inade": 6608,
      "associations": 6609,
      "mysql": 6610,
      "beer": 6611,
      "processed": 6612,
      "tranqu": 6613,
      "constitu": 6614,
      "inadequ": 6615,
      "hidden": 6616,
      "honest": 6617,
      "sudden": 6618,
      "gb": 6619,
      "reporting": 6620,
      "presenting": 6621,
      "approve": 6622,
      "##uits": 6623,
      "survey": 6624,
      "holds": 6625,
      "suffici": 6626,
      "sorry": 6627,
      "##stream": 6628,
      "jurisd": 6629,
      "guided": 6630,
      "picturesque": 6631,
      "bomb": 6632,
      "recre": 6633,
      "licens": 6634,
      "graphics": 6635,
      "disag": 6636,
      "##ford": 6637,
      "tough": 6638,
      "adds": 6639,
      "varied": 6640,
      "sights": 6641,
      "deeply": 6642,
      "explanation": 6643,
      "split": 6644,
      "##car": 6645,
      "kernel": 6646,
      "colors": 6647,
      "decade": 6648,
      "treas": 6649,
      "refund": 6650,
      "producer": 6651,
      "formats": 6652,
      "argent": 6653,
      "forgot": 6654,
      "fo": 6655,
      "sensible": 6656,
      "indoor": 6657,
      "ml": 6658,
      "steam": 6659,
      "profits": 6660,
      "cad": 6661,
      "##rew": 6662,
      "geographical": 6663,
      "wer": 6664,
      "referring": 6665,
      "luck": 6666,
      "##iration": 6667,
      "controvers": 6668,
      "empire": 6669,
      "telecommunic": 6670,
      "threats": 6671,
      "bout": 6672,
      "##elle": 6673,
      "falls": 6674,
      "##zard": 6675,
      "intelligent": 6676,
      "airports": 6677,
      "unne": 6678,
      "twin": 6679,
      "##cht": 6680,
      "stunning": 6681,
      "##chant": 6682,
      "##ibly": 6683,
      "interpre": 6684,
      "##down": 6685,
      "seas": 6686,
      "upgrade": 6687,
      "flu": 6688,
      "##med": 6689,
      "ash": 6690,
      "camer": 6691,
      "riv": 6692,
      "classical": 6693,
      "unnecess": 6694,
      "denmark": 6695,
      "georgia": 6696,
      "skype": 6697,
      "java": 6698,
      "contest": 6699,
      "incorporated": 6700,
      "adding": 6701,
      "##po": 6702,
      "specialists": 6703,
      "necessarily": 6704,
      "developers": 6705,
      "bathrooms": 6706,
      "ministry": 6707,
      "strictly": 6708,
      "reputation": 6709,
      "teachers": 6710,
      "belgian": 6711,
      "wave": 6712,
      "##ario": 6713,
      "appropriations": 6714,
      "##ala": 6715,
      "engaged": 6716,
      "islam": 6717,
      "serving": 6718,
      "merc": 6719,
      "ngos": 6720,
      "conventional": 6721,
      "##ima": 6722,
      "agents": 6723,
      "democrat": 6724,
      "nik": 6725,
      "##uctions": 6726,
      "arising": 6727,
      "certified": 6728,
      "##ams": 6729,
      "##ua": 6730,
      "statute": 6731,
      "arc": 6732,
      "twice": 6733,
      "traged": 6734,
      "taxi": 6735,
      "liable": 6736,
      "virtually": 6737,
      "conferences": 6738,
      "macro": 6739,
      "composition": 6740,
      "hospital": 6741,
      "wides": 6742,
      "fairly": 6743,
      "iii": 6744,
      "cookies": 6745,
      "##itar": 6746,
      "dal": 6747,
      "intends": 6748,
      "clicking": 6749,
      "seats": 6750,
      "kilometres": 6751,
      "begins": 6752,
      "acquired": 6753,
      "mold": 6754,
      "revenue": 6755,
      "struggle": 6756,
      "greens": 6757,
      "efficiently": 6758,
      "gradually": 6759,
      "bow": 6760,
      "meets": 6761,
      "pas": 6762,
      "##olic": 6763,
      "meal": 6764,
      "urgently": 6765,
      "conscious": 6766,
      "promised": 6767,
      "phenomenon": 6768,
      "##ris": 6769,
      "reinfor": 6770,
      "promise": 6771,
      "rough": 6772,
      "basically": 6773,
      "##orous": 6774,
      "prospects": 6775,
      "decline": 6776,
      "asset": 6777,
      "relates": 6778,
      "grown": 6779,
      "doctor": 6780,
      "deutsche": 6781,
      "sophisticated": 6782,
      "diet": 6783,
      "participating": 6784,
      "candidates": 6785,
      "produces": 6786,
      "sphere": 6787,
      "##essions": 6788,
      "taxpay": 6789,
      "captain": 6790,
      "diving": 6791,
      "headqu": 6792,
      "tai": 6793,
      "stem": 6794,
      "soil": 6795,
      "terminal": 6796,
      "surprise": 6797,
      "vel": 6798,
      "##ll": 6799,
      "##gies": 6800,
      "hal": 6801,
      "##olo": 6802,
      "##uild": 6803,
      "##wa": 6804,
      "manif": 6805,
      "##page": 6806,
      "diplomatic": 6807,
      "blow": 6808,
      "throw": 6809,
      "breed": 6810,
      "cultiv": 6811,
      "academy": 6812,
      "feet": 6813,
      "combines": 6814,
      "wooden": 6815,
      "baby": 6816,
      "navigation": 6817,
      "##irable": 6818,
      "resid": 6819,
      "edit": 6820,
      "accounting": 6821,
      "jose": 6822,
      "##inn": 6823,
      "presidents": 6824,
      "passing": 6825,
      "fault": 6826,
      "highlighted": 6827,
      "dun": 6828,
      "ends": 6829,
      "oldest": 6830,
      "mistake": 6831,
      "##inet": 6832,
      "specialized": 6833,
      "meals": 6834,
      "environmentally": 6835,
      "bell": 6836,
      "##rypt": 6837,
      "sacr": 6838,
      "consequence": 6839,
      "succeeded": 6840,
      "certificate": 6841,
      "endeavour": 6842,
      "occurred": 6843,
      "orchest": 6844,
      "##ycle": 6845,
      "blocks": 6846,
      "affili": 6847,
      "ltd": 6848,
      "nl": 6849,
      "##mes": 6850,
      "restricted": 6851,
      "mall": 6852,
      "considers": 6853,
      "##haust": 6854,
      "math": 6855,
      "resulted": 6856,
      "reiter": 6857,
      "py": 6858,
      "resc": 6859,
      "inher": 6860,
      "victory": 6861,
      "lakes": 6862,
      "##itate": 6863,
      "legend": 6864,
      "inequ": 6865,
      "##amm": 6866,
      "prisoners": 6867,
      "accidents": 6868,
      "achievement": 6869,
      "millenn": 6870,
      "convergence": 6871,
      "affects": 6872,
      "subsequently": 6873,
      "##inely": 6874,
      "certification": 6875,
      "##conds": 6876,
      "unus": 6877,
      "jes": 6878,
      "##irt": 6879,
      "##ago": 6880,
      "##cow": 6881,
      "convert": 6882,
      "##night": 6883,
      "quote": 6884,
      "gradu": 6885,
      "troops": 6886,
      "mouth": 6887,
      "##quet": 6888,
      "autumn": 6889,
      "maria": 6890,
      "permit": 6891,
      "causing": 6892,
      "wear": 6893,
      "angel": 6894,
      "##pread": 6895,
      "##edy": 6896,
      "mt": 6897,
      "stories": 6898,
      "medicines": 6899,
      "hydro": 6900,
      "contextual": 6901,
      "compulsory": 6902,
      "danish": 6903,
      "relative": 6904,
      "audi": 6905,
      "extending": 6906,
      "##ito": 6907,
      "ga": 6908,
      "encouraged": 6909,
      "imperial": 6910,
      "fro": 6911,
      "riding": 6912,
      "##erving": 6913,
      "nov": 6914,
      "lock": 6915,
      "widespread": 6916,
      "##oul": 6917,
      "dispute": 6918,
      "coach": 6919,
      "pia": 6920,
      "##using": 6921,
      "thumbn": 6922,
      "##mat": 6923,
      "additionally": 6924,
      "zero": 6925,
      "habit": 6926,
      "ultimate": 6927,
      "seeks": 6928,
      "harmful": 6929,
      "##mo": 6930,
      "##gg": 6931,
      "##utors": 6932,
      "girls": 6933,
      "accompl": 6934,
      "quotas": 6935,
      "clarify": 6936,
      "preserve": 6937,
      "trig": 6938,
      "##riage": 6939,
      "utmost": 6940,
      "##omas": 6941,
      "##inity": 6942,
      "commod": 6943,
      "puts": 6944,
      "defe": 6945,
      "##quisite": 6946,
      "automotive": 6947,
      "##apse": 6948,
      "dublin": 6949,
      "plaza": 6950,
      "permission": 6951,
      "conditioned": 6952,
      "calendar": 6953,
      "dump": 6954,
      "mb": 6955,
      "hect": 6956,
      "um": 6957,
      "accompany": 6958,
      "interf": 6959,
      "choices": 6960,
      "lithu": 6961,
      "##rible": 6962,
      "##alities": 6963,
      "##rous": 6964,
      "toward": 6965,
      "purely": 6966,
      "##unction": 6967,
      "##cription": 6968,
      "auto": 6969,
      "managers": 6970,
      "observed": 6971,
      "cancellation": 6972,
      "pap": 6973,
      "empty": 6974,
      "featuring": 6975,
      "surprised": 6976,
      "vocational": 6977,
      "spite": 6978,
      "nowad": 6979,
      "splendid": 6980,
      "inner": 6981,
      "enjoying": 6982,
      "paci": 6983,
      "nowadays": 6984,
      "stores": 6985,
      "mixed": 6986,
      "##bed": 6987,
      "amended": 6988,
      "choos": 6989,
      "capabilities": 6990,
      "electrical": 6991,
      "disagree": 6992,
      "##inter": 6993,
      "##utt": 6994,
      "logistics": 6995,
      "plate": 6996,
      "staying": 6997,
      "coherent": 6998,
      "##nish": 6999,
      "##arts": 7000,
      "similarly": 7001,
      "blan": 7002,
      "centr": 7003,
      "enforcement": 7004,
      "##flow": 7005,
      "integrate": 7006,
      "elevator": 7007,
      "communicate": 7008,
      "vert": 7009,
      "operates": 7010,
      "enthusi": 7011,
      "grass": 7012,
      "dress": 7013,
      "##hor": 7014,
      "estimated": 7015,
      "##istical": 7016,
      "references": 7017,
      "confidential": 7018,
      "anonymous": 7019,
      "invent": 7020,
      "##itative": 7021,
      "unity": 7022,
      "frequency": 7023,
      "##eff": 7024,
      "flows": 7025,
      "scheduled": 7026,
      "studied": 7027,
      "hopes": 7028,
      "boats": 7029,
      "refres": 7030,
      "##new": 7031,
      "rand": 7032,
      "ig": 7033,
      "exhaust": 7034,
      "biod": 7035,
      "settle": 7036,
      "seconds": 7037,
      "sunny": 7038,
      "lect": 7039,
      "tus": 7040,
      "trop": 7041,
      "##pass": 7042,
      "##atch": 7043,
      "##grad": 7044,
      "recognize": 7045,
      "mira": 7046,
      "obama": 7047,
      "alter": 7048,
      "##lusive": 7049,
      "publishing": 7050,
      "fost": 7051,
      "prodi": 7052,
      "edited": 7053,
      "audience": 7054,
      "ger": 7055,
      "##bi": 7056,
      "sufficiently": 7057,
      "formula": 7058,
      "broken": 7059,
      "adj": 7060,
      "percentage": 7061,
      "stad": 7062,
      "##tress": 7063,
      "##edients": 7064,
      "jean": 7065,
      "secondary": 7066,
      "ultra": 7067,
      "joining": 7068,
      "journalists": 7069,
      "branch": 7070,
      "promises": 7071,
      "gentoo": 7072,
      "dynam": 7073,
      "schemes": 7074,
      "franc": 7075,
      "surprising": 7076,
      "forec": 7077,
      "ingredients": 7078,
      "##gments": 7079,
      "spr": 7080,
      "assigned": 7081,
      "rank": 7082,
      "conveni": 7083,
      "officer": 7084,
      "##ishment": 7085,
      "gor": 7086,
      "wing": 7087,
      "addressing": 7088,
      "kong": 7089,
      "negotiation": 7090,
      "templ": 7091,
      "thick": 7092,
      "unre": 7093,
      "expense": 7094,
      "principal": 7095,
      "crow": 7096,
      "relationships": 7097,
      "sample": 7098,
      "meaningfully": 7099,
      "theor": 7100,
      "##utical": 7101,
      "concentration": 7102,
      "eliminate": 7103,
      "campaigns": 7104,
      "crises": 7105,
      "escape": 7106,
      "senior": 7107,
      "abstain": 7108,
      "##agn": 7109,
      "neighbours": 7110,
      "parks": 7111,
      "describe": 7112,
      "interactive": 7113,
      "##roph": 7114,
      "technique": 7115,
      "jewish": 7116,
      "prompt": 7117,
      "inspection": 7118,
      "##aga": 7119,
      "##active": 7120,
      "folder": 7121,
      "ratification": 7122,
      "motorway": 7123,
      "bund": 7124,
      "roots": 7125,
      "textile": 7126,
      "tariff": 7127,
      "##oked": 7128,
      "translated": 7129,
      "##endo": 7130,
      "upload": 7131,
      "kyoto": 7132,
      "voy": 7133,
      "##iones": 7134,
      "synth": 7135,
      "ease": 7136,
      "approaches": 7137,
      "persist": 7138,
      "holy": 7139,
      "excursions": 7140,
      "operated": 7141,
      "foundations": 7142,
      "tap": 7143,
      "envis": 7144,
      "implications": 7145,
      "constitutes": 7146,
      "organise": 7147,
      "measurement": 7148,
      "naz": 7149,
      "authors": 7150,
      "aggress": 7151,
      "ownership": 7152,
      "##life": 7153,
      "##wr": 7154,
      "virus": 7155,
      "violation": 7156,
      "aven": 7157,
      "satisfactory": 7158,
      "appointment": 7159,
      "coastal": 7160,
      "wednes": 7161,
      "sar": 7162,
      "logic": 7163,
      "believed": 7164,
      "remarkable": 7165,
      "hong": 7166,
      "contextually": 7167,
      "##lers": 7168,
      "grammatically": 7169,
      "cancel": 7170,
      "invo": 7171,
      "whereby": 7172,
      "insuff": 7173,
      "completion": 7174,
      "timetable": 7175,
      "residential": 7176,
      "bought": 7177,
      "enjoys": 7178,
      "uss": 7179,
      "examination": 7180,
      "cuba": 7181,
      "awards": 7182,
      "millennium": 7183,
      "imf": 7184,
      "accessories": 7185,
      "therapy": 7186,
      "buses": 7187,
      "bm": 7188,
      "##uzz": 7189,
      "professor": 7190,
      "urgency": 7191,
      "preferred": 7192,
      "chees": 7193,
      "alps": 7194,
      "ts": 7195,
      "listening": 7196,
      "transfers": 7197,
      "grat": 7198,
      "travellers": 7199,
      "##gart": 7200,
      "forem": 7201,
      "machin": 7202,
      "cosm": 7203,
      "strike": 7204,
      "dw": 7205,
      "usd": 7206,
      "archive": 7207,
      "paradise": 7208,
      "bread": 7209,
      "lor": 7210,
      "league": 7211,
      "##har": 7212,
      "thres": 7213,
      "snack": 7214,
      "swift": 7215,
      "pools": 7216,
      "##arians": 7217,
      "prevail": 7218,
      "mere": 7219,
      "yach": 7220,
      "checked": 7221,
      "poorest": 7222,
      "##ika": 7223,
      "##aceutical": 7224,
      "progressive": 7225,
      "intr": 7226,
      "fewer": 7227,
      "##ati": 7228,
      "keys": 7229,
      "underlying": 7230,
      "observe": 7231,
      "fascinating": 7232,
      "florence": 7233,
      "bench": 7234,
      "##oty": 7235,
      "hero": 7236,
      "rubber": 7237,
      "mine": 7238,
      "##vest": 7239,
      "mechanical": 7240,
      "conform": 7241,
      "incentives": 7242,
      "##stitutional": 7243,
      "dc": 7244,
      "sailing": 7245,
      "thumbnail": 7246,
      "moscow": 7247,
      "actors": 7248,
      "poet": 7249,
      "scul": 7250,
      "epis": 7251,
      "compliment": 7252,
      "david": 7253,
      "hr": 7254,
      "presidential": 7255,
      "considerations": 7256,
      "intelligence": 7257,
      "designer": 7258,
      "slovakia": 7259,
      "openness": 7260,
      "dictators": 7261,
      "reconcil": 7262,
      "flying": 7263,
      "buyer": 7264,
      "codecision": 7265,
      "artific": 7266,
      "##uv": 7267,
      "agent": 7268,
      "##under": 7269,
      "deserves": 7270,
      "economically": 7271,
      "laser": 7272,
      "goth": 7273,
      "scar": 7274,
      "jump": 7275,
      "row": 7276,
      "persu": 7277,
      "optimal": 7278,
      "##isp": 7279,
      "representing": 7280,
      "productive": 7281,
      "##ogen": 7282,
      "leban": 7283,
      "debating": 7284,
      "favourable": 7285,
      "exposed": 7286,
      "oppon": 7287,
      "guaranteeing": 7288,
      "identification": 7289,
      "moments": 7290,
      "sculpt": 7291,
      "dramatic": 7292,
      "muslim": 7293,
      "##ogne": 7294,
      "informal": 7295,
      "letters": 7296,
      "returns": 7297,
      "spectrum": 7298,
      "dup": 7299,
      "sul": 7300,
      "catalogue": 7301,
      "sizes": 7302,
      "trained": 7303,
      "apple": 7304,
      "viet": 7305,
      "indones": 7306,
      "sweet": 7307,
      "joy": 7308,
      "healthcare": 7309,
      "impr": 7310,
      "transaction": 7311,
      "evol": 7312,
      "termin": 7313,
      "delete": 7314,
      "busy": 7315,
      "reinforce": 7316,
      "foremost": 7317,
      "wednesday": 7318,
      "##ni": 7319,
      "faces": 7320,
      "freight": 7321,
      "arranged": 7322,
      "unnecessary": 7323,
      "lingu": 7324,
      "##eto": 7325,
      "canon": 7326,
      "characteristic": 7327,
      "exhibitions": 7328,
      "##zza": 7329,
      "ages": 7330,
      "wife": 7331,
      "multim": 7332,
      "postal": 7333,
      "simultaneously": 7334,
      "inadequate": 7335,
      "jul": 7336,
      "bid": 7337,
      "dual": 7338,
      "mes": 7339,
      "speeches": 7340,
      "centers": 7341,
      "camping": 7342,
      "pharmaceutical": 7343,
      "manifest": 7344,
      "relief": 7345,
      "stip": 7346,
      "instantly": 7347,
      "logo": 7348,
      "legitimacy": 7349,
      "george": 7350,
      "elder": 7351,
      "recyc": 7352,
      "##ava": 7353,
      "victor": 7354,
      "genuinely": 7355,
      "arena": 7356,
      "repeatedly": 7357,
      "##eli": 7358,
      "boasts": 7359,
      "importantly": 7360,
      "occupation": 7361,
      "complaints": 7362,
      "begun": 7363,
      "compete": 7364,
      "morocco": 7365,
      "lively": 7366,
      "specially": 7367,
      "reward": 7368,
      "conservation": 7369,
      "expanded": 7370,
      "gt": 7371,
      "recru": 7372,
      "gym": 7373,
      "rose": 7374,
      "echo": 7375,
      "expenses": 7376,
      "sap": 7377,
      "vacc": 7378,
      "painting": 7379,
      "incomp": 7380,
      "destinations": 7381,
      "gnu": 7382,
      "transitional": 7383,
      "convey": 7384,
      "suspect": 7385,
      "##ville": 7386,
      "sessions": 7387,
      "wolf": 7388,
      "winner": 7389,
      "respects": 7390,
      "electoral": 7391,
      "array": 7392,
      "conventions": 7393,
      "false": 7394,
      "jurisdiction": 7395,
      "sympath": 7396,
      "bav": 7397,
      "clarity": 7398,
      "spec": 7399,
      "slopes": 7400,
      "bou": 7401,
      "residents": 7402,
      "evolution": 7403,
      "jointly": 7404,
      "examined": 7405,
      "trouble": 7406,
      "##bles": 7407,
      "intentions": 7408,
      "monte": 7409,
      "horn": 7410,
      "lets": 7411,
      "procure": 7412,
      "literature": 7413,
      "reass": 7414,
      "fib": 7415,
      "bigger": 7416,
      "chemicals": 7417,
      "typically": 7418,
      "weakness": 7419,
      "##off": 7420,
      "tragic": 7421,
      "##richt": 7422,
      "tech": 7423,
      "wherever": 7424,
      "ges": 7425,
      "seemed": 7426,
      "proxim": 7427,
      "##etically": 7428,
      "transit": 7429,
      "washington": 7430,
      "forgotten": 7431,
      "##arged": 7432,
      "precision": 7433,
      "ku": 7434,
      "alph": 7435,
      "composed": 7436,
      "telecommunications": 7437,
      "pocket": 7438,
      "apparently": 7439,
      "kon": 7440,
      "airbus": 7441,
      "purchasing": 7442,
      "alumin": 7443,
      "##umes": 7444,
      "moz": 7445,
      "regulated": 7446,
      "manufactured": 7447,
      "territories": 7448,
      "scot": 7449,
      "gulf": 7450,
      "##icially": 7451,
      "convenience": 7452,
      "##igu": 7453,
      "##institutional": 7454,
      "bosnia": 7455,
      "observation": 7456,
      "laundry": 7457,
      "hi": 7458,
      "hier": 7459,
      "ds": 7460,
      "##soever": 7461,
      "possess": 7462,
      "##erto": 7463,
      "purchased": 7464,
      "dimensions": 7465,
      "automation": 7466,
      "vin": 7467,
      "privat": 7468,
      "interinstitutional": 7469,
      "accuracy": 7470,
      "modify": 7471,
      "continuously": 7472,
      "paths": 7473,
      "girl": 7474,
      "##ellow": 7475,
      "pace": 7476,
      "suited": 7477,
      "willingness": 7478,
      "##ester": 7479,
      "devoted": 7480,
      "pacific": 7481,
      "terrible": 7482,
      "bureaucr": 7483,
      "suggests": 7484,
      "##take": 7485,
      "researchers": 7486,
      "circle": 7487,
      "revised": 7488,
      "##auer": 7489,
      "behavior": 7490,
      "trace": 7491,
      "removal": 7492,
      "contradict": 7493,
      "kal": 7494,
      "##atz": 7495,
      "expressly": 7496,
      "workshop": 7497,
      "trains": 7498,
      "confident": 7499,
      "booked": 7500,
      "taiwan": 7501,
      "robert": 7502,
      "buying": 7503,
      "brands": 7504,
      "chic": 7505,
      "movies": 7506,
      "finnish": 7507,
      "financed": 7508,
      "fried": 7509,
      "tunis": 7510,
      "crystal": 7511,
      "maxim": 7512,
      "machinery": 7513,
      "sevent": 7514,
      "tragedy": 7515,
      "conj": 7516,
      "youn": 7517,
      "preserved": 7518,
      "socialists": 7519,
      "salt": 7520,
      "integrity": 7521,
      "deadline": 7522,
      "apparent": 7523,
      "hans": 7524,
      "pensions": 7525,
      "stead": 7526,
      "##ikes": 7527,
      "variable": 7528,
      "academic": 7529,
      "conversion": 7530,
      "beef": 7531,
      "##raid": 7532,
      "doubts": 7533,
      "vietnam": 7534,
      "amending": 7535,
      "ethical": 7536,
      "arrangement": 7537,
      "directors": 7538,
      "encrypt": 7539,
      "monuments": 7540,
      "manip": 7541,
      "joh": 7542,
      "##tes": 7543,
      "##gage": 7544,
      "winds": 7545,
      "##net": 7546,
      "##aker": 7547,
      "segment": 7548,
      "noon": 7549,
      "assurance": 7550,
      "installations": 7551,
      "landscap": 7552,
      "wil": 7553,
      "##ading": 7554,
      "preparations": 7555,
      "ado": 7556,
      "admitted": 7557,
      "elig": 7558,
      "constructed": 7559,
      "spell": 7560,
      "delays": 7561,
      "cameras": 7562,
      "##gers": 7563,
      "thy": 7564,
      "falling": 7565,
      "granting": 7566,
      "logical": 7567,
      "##wer": 7568,
      "##ales": 7569,
      "economics": 7570,
      "embar": 7571,
      "##isk": 7572,
      "shel": 7573,
      "whatsoever": 7574,
      "brid": 7575,
      "duration": 7576,
      "precious": 7577,
      "##known": 7578,
      "employers": 7579,
      "viney": 7580,
      "entrepreneurs": 7581,
      "disturb": 7582,
      "promoted": 7583,
      "##illance": 7584,
      "constra": 7585,
      "ceiling": 7586,
      "gay": 7587,
      "finds": 7588,
      "##inational": 7589,
      "visits": 7590,
      "quantity": 7591,
      "afraid": 7592,
      "airline": 7593,
      "refused": 7594,
      "mental": 7595,
      "zo": 7596,
      "guitar": 7597,
      "oppose": 7598,
      "pursuant": 7599,
      "palestinians": 7600,
      "shock": 7601,
      "publications": 7602,
      "schedule": 7603,
      "governmental": 7604,
      "surveillance": 7605,
      "sandy": 7606,
      "newspaper": 7607,
      "concerts": 7608,
      "losing": 7609,
      "renewed": 7610,
      "embed": 7611,
      "##cript": 7612,
      "##iva": 7613,
      "cha": 7614,
      "officially": 7615,
      "meanwhile": 7616,
      "catalog": 7617,
      "adri": 7618,
      "perpet": 7619,
      "drives": 7620,
      "feedback": 7621,
      "brother": 7622,
      "pressing": 7623,
      "fon": 7624,
      "bang": 7625,
      "##igious": 7626,
      "##ungs": 7627,
      "violent": 7628,
      "salzburg": 7629,
      "##ami": 7630,
      "focusing": 7631,
      "affecting": 7632,
      "soldiers": 7633,
      "##the": 7634,
      "correspond": 7635,
      "sudan": 7636,
      "acquisition": 7637,
      "continental": 7638,
      "##ference": 7639,
      "belongs": 7640,
      "maps": 7641,
      "frequent": 7642,
      "sake": 7643,
      "##ilation": 7644,
      "##rees": 7645,
      "spare": 7646,
      "funded": 7647,
      "##beit": 7648,
      "stressed": 7649,
      "tropical": 7650,
      "##via": 7651,
      "piano": 7652,
      "sid": 7653,
      "brain": 7654,
      "##oning": 7655,
      "inquiry": 7656,
      "##emed": 7657,
      "spiritual": 7658,
      "collapse": 7659,
      "vene": 7660,
      "##hi": 7661,
      "##apest": 7662,
      "profound": 7663,
      "focuses": 7664,
      "##ician": 7665,
      "fert": 7666,
      "advise": 7667,
      "refuse": 7668,
      "stopped": 7669,
      "##lad": 7670,
      "##ighter": 7671,
      "declare": 7672,
      "turns": 7673,
      "supplementary": 7674,
      "james": 7675,
      "irre": 7676,
      "alternatives": 7677,
      "##ipt": 7678,
      "##isy": 7679,
      "budapest": 7680,
      "reflection": 7681,
      "architectural": 7682,
      "##ingly": 7683,
      "##mon": 7684,
      "##ulates": 7685,
      "cologne": 7686,
      "broader": 7687,
      "leather": 7688,
      "distinction": 7689,
      "kids": 7690,
      "kee": 7691,
      "##acin": 7692,
      "defense": 7693,
      "innovations": 7694,
      "##holm": 7695,
      "knew": 7696,
      "rou": 7697,
      "passport": 7698,
      "milan": 7699,
      "discrimin": 7700,
      "greenhouse": 7701,
      "cockt": 7702,
      "leon": 7703,
      "##ounds": 7704,
      "gaza": 7705,
      "##itan": 7706,
      "achievements": 7707,
      "relaxed": 7708,
      "##cking": 7709,
      "charles": 7710,
      "rating": 7711,
      "cerem": 7712,
      "measuring": 7713,
      "migr": 7714,
      "sony": 7715,
      "maced": 7716,
      "loans": 7717,
      "wage": 7718,
      "affordable": 7719,
      "multinational": 7720,
      "##akers": 7721,
      "deserve": 7722,
      "headquarters": 7723,
      "releases": 7724,
      "trigger": 7725,
      "rod": 7726,
      "patents": 7727,
      "posts": 7728,
      "procurement": 7729,
      "##udes": 7730,
      "semi": 7731,
      "##market": 7732,
      "male": 7733,
      "##ders": 7734,
      "visitor": 7735,
      "nationals": 7736,
      "downtown": 7737,
      "churches": 7738,
      "hen": 7739,
      "mc": 7740,
      "##sole": 7741,
      "##ropol": 7742,
      "catering": 7743,
      "eurozone": 7744,
      "beneficial": 7745,
      "##urity": 7746,
      "shot": 7747,
      "europol": 7748,
      "civilian": 7749,
      "prestigious": 7750,
      "citizenship": 7751,
      "##irts": 7752,
      "meg": 7753,
      "humanity": 7754,
      "ignore": 7755,
      "barb": 7756,
      "advertise": 7757,
      "olympic": 7758,
      "ineff": 7759,
      "##opard": 7760,
      "photography": 7761,
      "toilet": 7762,
      "corporation": 7763,
      "photographs": 7764,
      "cancelled": 7765,
      "signals": 7766,
      "partition": 7767,
      "organize": 7768,
      "##iversity": 7769,
      "pays": 7770,
      "undertake": 7771,
      "inject": 7772,
      "schn": 7773,
      "yellow": 7774,
      "##head": 7775,
      "##aser": 7776,
      "##rain": 7777,
      "explicitly": 7778,
      "unusual": 7779,
      "applicant": 7780,
      "##gon": 7781,
      "debated": 7782,
      "congratulations": 7783,
      "replacement": 7784,
      "pse": 7785,
      "wake": 7786,
      "stops": 7787,
      "fron": 7788,
      "##card": 7789,
      "unknown": 7790,
      "suspended": 7791,
      "##sen": 7792,
      "blu": 7793,
      "reader": 7794,
      "summary": 7795,
      "cooking": 7796,
      "##bb": 7797,
      "biological": 7798,
      "neu": 7799,
      "score": 7800,
      "folk": 7801,
      "##itter": 7802,
      "honor": 7803,
      "zurich": 7804,
      "mol": 7805,
      "tub": 7806,
      "lev": 7807,
      "chron": 7808,
      "##ourse": 7809,
      "perce": 7810,
      "signing": 7811,
      "inclusive": 7812,
      "indicators": 7813,
      "vend": 7814,
      "##igned": 7815,
      "displays": 7816,
      "thomas": 7817,
      "phones": 7818,
      "budd": 7819,
      "necessity": 7820,
      "horizont": 7821,
      "deterior": 7822,
      "hostelsclub": 7823,
      "populations": 7824,
      "ups": 7825,
      "prevented": 7826,
      "##jan": 7827,
      "maast": 7828,
      "petitions": 7829,
      "##ando": 7830,
      "quark": 7831,
      "clothing": 7832,
      "hur": 7833,
      "##bach": 7834,
      "##enburg": 7835,
      "als": 7836,
      "orientation": 7837,
      "centrally": 7838,
      "chocol": 7839,
      "stayed": 7840,
      "mandatory": 7841,
      "taxpayers": 7842,
      "enrich": 7843,
      "adobe": 7844,
      "maastricht": 7845,
      "tank": 7846,
      "thanking": 7847,
      "performing": 7848,
      "negotiated": 7849,
      "farms": 7850,
      "##atlantic": 7851,
      "specify": 7852,
      "biodiversity": 7853,
      "##uster": 7854,
      "favourite": 7855,
      "proximity": 7856,
      "bond": 7857,
      "##connect": 7858,
      "uncertainty": 7859,
      "attended": 7860,
      "##cas": 7861,
      "##otechn": 7862,
      "insufficient": 7863,
      "admit": 7864,
      "lighting": 7865,
      "creativity": 7866,
      "multimedia": 7867,
      "lovers": 7868,
      "qualifications": 7869,
      "imported": 7870,
      "##eck": 7871,
      "minimal": 7872,
      "##irs": 7873,
      "##odes": 7874,
      "substit": 7875,
      "persec": 7876,
      "ham": 7877,
      "ruling": 7878,
      "alike": 7879,
      "signature": 7880,
      "tips": 7881,
      "drinking": 7882,
      "moves": 7883,
      "##udi": 7884,
      "transatlantic": 7885,
      "patterns": 7886,
      "closing": 7887,
      "contractual": 7888,
      "silence": 7889,
      "cord": 7890,
      "##oni": 7891,
      "certainty": 7892,
      "##ede": 7893,
      "clim": 7894,
      "chose": 7895,
      "threatened": 7896,
      "mistakes": 7897,
      "##bling": 7898,
      "papers": 7899,
      "perspect": 7900,
      "cant": 7901,
      "rivers": 7902,
      "reloc": 7903,
      "ratified": 7904,
      "trem": 7905,
      "contam": 7906,
      "##whel": 7907,
      "##zu": 7908,
      "generous": 7909,
      "realize": 7910,
      "afterwards": 7911,
      "robust": 7912,
      "racism": 7913,
      "workshops": 7914,
      "privileged": 7915,
      "jazz": 7916,
      "##iler": 7917,
      "schol": 7918,
      "##unk": 7919,
      "##stad": 7920,
      "dear": 7921,
      "graphic": 7922,
      "dj": 7923,
      "pier": 7924,
      "notably": 7925,
      "revealed": 7926,
      "stain": 7927,
      "depress": 7928,
      "##aken": 7929,
      "systematic": 7930,
      "fails": 7931,
      "conveniently": 7932,
      "##ipher": 7933,
      "behold": 7934,
      "explor": 7935,
      "jet": 7936,
      "evaluate": 7937,
      "racing": 7938,
      "comprises": 7939,
      "bureaucracy": 7940,
      "hole": 7941,
      "##orses": 7942,
      "hesitate": 7943,
      "overwhel": 7944,
      "exposure": 7945,
      "capture": 7946,
      "recession": 7947,
      "##fle": 7948,
      "avo": 7949,
      "withdrawal": 7950,
      "##jud": 7951,
      "placing": 7952,
      "favorite": 7953,
      "##agon": 7954,
      "accum": 7955,
      "securities": 7956,
      "statistical": 7957,
      "het": 7958,
      "handed": 7959,
      "indicates": 7960,
      "illness": 7961,
      "disappear": 7962,
      "##ener": 7963,
      "shr": 7964,
      "confront": 7965,
      "negotiate": 7966,
      "##unte": 7967,
      "##asm": 7968,
      "ray": 7969,
      "niger": 7970,
      "choosing": 7971,
      "bse": 7972,
      "duplic": 7973,
      "hyper": 7974,
      "demonstrates": 7975,
      "slowly": 7976,
      "allocation": 7977,
      "perspectives": 7978,
      "heated": 7979,
      "andre": 7980,
      "preferences": 7981,
      "fifteen": 7982,
      "worrying": 7983,
      "##iev": 7984,
      "casa": 7985,
      "posted": 7986,
      "consistently": 7987,
      "premises": 7988,
      "discl": 7989,
      "dollars": 7990,
      "##yers": 7991,
      "thin": 7992,
      "seal": 7993,
      "##iera": 7994,
      "coc": 7995,
      "gest": 7996,
      "##alling": 7997,
      "##izer": 7998,
      "justify": 7999,
      "judgment": 8000,
      "pine": 8001,
      "rect": 8002,
      "contributing": 8003,
      "occurs": 8004,
      "downloaded": 8005,
      "deaths": 8006,
      "heavily": 8007,
      "##taking": 8008,
      "colonial": 8009,
      "sq": 8010,
      "valle": 8011,
      "temple": 8012,
      "##encia": 8013,
      "##ifi": 8014,
      "receipt": 8015,
      "emerged": 8016,
      "occupied": 8017,
      "formation": 8018,
      "surpl": 8019,
      "circuit": 8020,
      "tues": 8021,
      "neutral": 8022,
      "pav": 8023,
      "creature": 8024,
      "intermedi": 8025,
      "screens": 8026,
      "dating": 8027,
      "fisch": 8028,
      "coordinate": 8029,
      "tox": 8030,
      "notified": 8031,
      "copies": 8032,
      "timely": 8033,
      "##isen": 8034,
      "##ushing": 8035,
      "enchant": 8036,
      "zones": 8037,
      "##nings": 8038,
      "attain": 8039,
      "setup": 8040,
      "weekly": 8041,
      "artificial": 8042,
      "##hen": 8043,
      "transpos": 8044,
      "battery": 8045,
      "partial": 8046,
      "pix": 8047,
      "michel": 8048,
      "##fu": 8049,
      "compare": 8050,
      "intense": 8051,
      "unanimously": 8052,
      "intervene": 8053,
      "elderly": 8054,
      "##ship": 8055,
      "preca": 8056,
      "ratio": 8057,
      "##ti": 8058,
      "fitted": 8059,
      "tonnes": 8060,
      "interim": 8061,
      "claimed": 8062,
      "keen": 8063,
      "zimb": 8064,
      "##gor": 8065,
      "hazard": 8066,
      "unst": 8067,
      "harmony": 8068,
      "integral": 8069,
      "initiated": 8070,
      "monaster": 8071,
      "structured": 8072,
      "victim": 8073,
      "tram": 8074,
      "controlling": 8075,
      "villas": 8076,
      "imposing": 8077,
      "teacher": 8078,
      "converted": 8079,
      "ti": 8080,
      "##asion": 8081,
      "##esth": 8082,
      "competences": 8083,
      "putin": 8084,
      "caught": 8085,
      "isn": 8086,
      "experiencing": 8087,
      "engineers": 8088,
      "burma": 8089,
      "crown": 8090,
      "brut": 8091,
      "brown": 8092,
      "entries": 8093,
      "##ws": 8094,
      "##ivals": 8095,
      "terrorists": 8096,
      "likewise": 8097,
      "##ungen": 8098,
      "electronics": 8099,
      "##umed": 8100,
      "##abwe": 8101,
      "credible": 8102,
      "cinema": 8103,
      "cheese": 8104,
      "##elve": 8105,
      "haird": 8106,
      "practically": 8107,
      "login": 8108,
      "directions": 8109,
      "licence": 8110,
      "arbitrary": 8111,
      "lithuania": 8112,
      "coordin": 8113,
      "slovenia": 8114,
      "##ente": 8115,
      "willi": 8116,
      "volunte": 8117,
      "chan": 8118,
      "assured": 8119,
      "equity": 8120,
      "zimbabwe": 8121,
      "argue": 8122,
      "emission": 8123,
      "coverage": 8124,
      "chairs": 8125,
      "deficits": 8126,
      "vor": 8127,
      "temperatures": 8128,
      "abst": 8129,
      "sensor": 8130,
      "laboratory": 8131,
      "lifesty": 8132,
      "##bul": 8133,
      "herm": 8134,
      "irreg": 8135,
      "##hard": 8136,
      "prelim": 8137,
      "disputes": 8138,
      "nordic": 8139,
      "##isse": 8140,
      "yugoslavia": 8141,
      "##itra": 8142,
      "depr": 8143,
      "specifications": 8144,
      "bour": 8145,
      "##imited": 8146,
      "redund": 8147,
      "preliminary": 8148,
      "unions": 8149,
      "makers": 8150,
      "explos": 8151,
      "batt": 8152,
      "mirror": 8153,
      "irregular": 8154,
      "minds": 8155,
      "audit": 8156,
      "expanding": 8157,
      "johann": 8158,
      "refurb": 8159,
      "convince": 8160,
      "ster": 8161,
      "imbal": 8162,
      "partnerships": 8163,
      "##eneg": 8164,
      "warmly": 8165,
      "##radic": 8166,
      "pig": 8167,
      "combining": 8168,
      "essence": 8169,
      "sentence": 8170,
      "##xi": 8171,
      "quart": 8172,
      "##ju": 8173,
      "##iox": 8174,
      "specialities": 8175,
      "birds": 8176,
      "findings": 8177,
      "defining": 8178,
      "keeps": 8179,
      "eradic": 8180,
      "pedest": 8181,
      "calif": 8182,
      "potentially": 8183,
      "malta": 8184,
      "resorts": 8185,
      "##uzzi": 8186,
      "answered": 8187,
      "degrees": 8188,
      "mn": 8189,
      "marquis": 8190,
      "discovery": 8191,
      "pione": 8192,
      "agrees": 8193,
      "proph": 8194,
      "syria": 8195,
      "solo": 8196,
      "automated": 8197,
      "optical": 8198,
      "torture": 8199,
      "sporting": 8200,
      "##etical": 8201,
      "lowest": 8202,
      "stance": 8203,
      "##erson": 8204,
      "embra": 8205,
      "transformation": 8206,
      "conservative": 8207,
      "ave": 8208,
      "nest": 8209,
      "stays": 8210,
      "experiment": 8211,
      "shareholders": 8212,
      "palm": 8213,
      "pursued": 8214,
      "storm": 8215,
      "abb": 8216,
      "accommodate": 8217,
      "platforms": 8218,
      "dust": 8219,
      "counterp": 8220,
      "subscribe": 8221,
      "viewed": 8222,
      "ambition": 8223,
      "celebrate": 8224,
      "scrut": 8225,
      "##ran": 8226,
      "suggestion": 8227,
      "argentina": 8228,
      "shif": 8229,
      "premier": 8230,
      "hopefully": 8231,
      "themes": 8232,
      "respectively": 8233,
      "gaming": 8234,
      "stockholm": 8235,
      "exchanges": 8236,
      "demonst": 8237,
      "collabor": 8238,
      "handled": 8239,
      "guidance": 8240,
      "blame": 8241,
      "threshold": 8242,
      "scotland": 8243,
      "dir": 8244,
      "performances": 8245,
      "##ilingual": 8246,
      "voters": 8247,
      "sensit": 8248,
      "gun": 8249,
      "##iqu": 8250,
      "##emic": 8251,
      "detri": 8252,
      "optional": 8253,
      "beside": 8254,
      "recip": 8255,
      "sab": 8256,
      "unemployed": 8257,
      "tribute": 8258,
      "##cop": 8259,
      "garage": 8260,
      "dive": 8261,
      "##uing": 8262,
      "iranian": 8263,
      "bicycle": 8264,
      "paintings": 8265,
      "##inian": 8266,
      "##atis": 8267,
      "##chron": 8268,
      "##ardo": 8269,
      "este": 8270,
      "enlarged": 8271,
      "californ": 8272,
      "strange": 8273,
      "ending": 8274,
      "tempor": 8275,
      "umb": 8276,
      "##rog": 8277,
      "sees": 8278,
      "undertaking": 8279,
      "##rition": 8280,
      "guides": 8281,
      "horr": 8282,
      "##greg": 8283,
      "##urf": 8284,
      "comparable": 8285,
      "seaf": 8286,
      "grants": 8287,
      "viable": 8288,
      "emphasised": 8289,
      "describes": 8290,
      "kle": 8291,
      "rum": 8292,
      "twelve": 8293,
      "tempt": 8294,
      "returning": 8295,
      "cargo": 8296,
      "##laf": 8297,
      "tournament": 8298,
      "mining": 8299,
      "solved": 8300,
      "hide": 8301,
      "patch": 8302,
      "##oly": 8303,
      "desirable": 8304,
      "downloading": 8305,
      "warranty": 8306,
      "receives": 8307,
      "thread": 8308,
      "wise": 8309,
      "excellence": 8310,
      "##rome": 8311,
      "worthy": 8312,
      "##ji": 8313,
      "outs": 8314,
      "##seeing": 8315,
      "incredible": 8316,
      "sel": 8317,
      "alexander": 8318,
      "##ensible": 8319,
      "searching": 8320,
      "meantime": 8321,
      "broch": 8322,
      "parameter": 8323,
      "shaped": 8324,
      "mcc": 8325,
      "prote": 8326,
      "crops": 8327,
      "declarations": 8328,
      "puerto": 8329,
      "bmw": 8330,
      "##ez": 8331,
      "codes": 8332,
      "explains": 8333,
      "tuesday": 8334,
      "unlimited": 8335,
      "alger": 8336,
      "wis": 8337,
      "lights": 8338,
      "incorrect": 8339,
      "beij": 8340,
      "##uctive": 8341,
      "myth": 8342,
      "som": 8343,
      "wet": 8344,
      "highway": 8345,
      "sciences": 8346,
      "boards": 8347,
      "basket": 8348,
      "founding": 8349,
      "encounter": 8350,
      "talked": 8351,
      "autonomy": 8352,
      "##how": 8353,
      "##aux": 8354,
      "translations": 8355,
      "finest": 8356,
      "flowers": 8357,
      "foods": 8358,
      "thoroughly": 8359,
      "nach": 8360,
      "##aya": 8361,
      "peripher": 8362,
      "##print": 8363,
      "##text": 8364,
      "sich": 8365,
      "booth": 8366,
      "##stone": 8367,
      "disord": 8368,
      "develops": 8369,
      "homepage": 8370,
      "shame": 8371,
      "cease": 8372,
      "settled": 8373,
      "##oric": 8374,
      "han": 8375,
      "loyal": 8376,
      "retire": 8377,
      "appreciated": 8378,
      "chocolate": 8379,
      "desert": 8380,
      "##vin": 8381,
      "knowing": 8382,
      "scenery": 8383,
      "##ein": 8384,
      "aller": 8385,
      "evil": 8386,
      "##erne": 8387,
      "undermine": 8388,
      "genetic": 8389,
      "scott": 8390,
      "gif": 8391,
      "rs": 8392,
      "##asis": 8393,
      "pron": 8394,
      "drafting": 8395,
      "width": 8396,
      "breathtaking": 8397,
      "adriatic": 8398,
      "demographic": 8399,
      "watching": 8400,
      "##proof": 8401,
      "dolom": 8402,
      "beijing": 8403,
      "ci": 8404,
      "##rit": 8405,
      "kirk": 8406,
      "##astroph": 8407,
      "measured": 8408,
      "sixth": 8409,
      "eb": 8410,
      "conqu": 8411,
      "devast": 8412,
      "doctors": 8413,
      "controversial": 8414,
      "cig": 8415,
      "hire": 8416,
      "prere": 8417,
      "tolerance": 8418,
      "suddenly": 8419,
      "fate": 8420,
      "##pie": 8421,
      "feas": 8422,
      "regulate": 8423,
      "embedded": 8424,
      "##hear": 8425,
      "##ila": 8426,
      "sincer": 8427,
      "expressing": 8428,
      "isolated": 8429,
      "disappointed": 8430,
      "avoided": 8431,
      "sr": 8432,
      "vista": 8433,
      "crimin": 8434,
      "substantially": 8435,
      "undertakings": 8436,
      "tailored": 8437,
      "##pool": 8438,
      "shell": 8439,
      "controller": 8440,
      "neglect": 8441,
      "rar": 8442,
      "confusion": 8443,
      "##ophob": 8444,
      "queen": 8445,
      "prohibited": 8446,
      "editing": 8447,
      "damaged": 8448,
      "stretch": 8449,
      "crash": 8450,
      "packed": 8451,
      "##look": 8452,
      "humans": 8453,
      "prominent": 8454,
      "derived": 8455,
      "junior": 8456,
      "crossing": 8457,
      "cycling": 8458,
      "finances": 8459,
      "irres": 8460,
      "borrow": 8461,
      "styles": 8462,
      "##isa": 8463,
      "acquire": 8464,
      "executed": 8465,
      "belonging": 8466,
      "glaci": 8467,
      "catastroph": 8468,
      "infringement": 8469,
      "##asting": 8470,
      "iphone": 8471,
      "railways": 8472,
      "bureaucratic": 8473,
      "lesson": 8474,
      "incentive": 8475,
      "discipline": 8476,
      "md": 8477,
      "render": 8478,
      "sheets": 8479,
      "checking": 8480,
      "fears": 8481,
      "instant": 8482,
      "automob": 8483,
      "##stuff": 8484,
      "horizontal": 8485,
      "raises": 8486,
      "environments": 8487,
      "neglig": 8488,
      "iraqi": 8489,
      "bak": 8490,
      "ry": 8491,
      "abund": 8492,
      "penins": 8493,
      "championship": 8494,
      "acknowledged": 8495,
      "##eeping": 8496,
      "departments": 8497,
      "survival": 8498,
      "lebanon": 8499,
      "##imp": 8500,
      "##ouses": 8501,
      "designated": 8502,
      "ware": 8503,
      "exceptions": 8504,
      "canal": 8505,
      "sof": 8506,
      "oh": 8507,
      "monthly": 8508,
      "prolif": 8509,
      "finger": 8510,
      "spots": 8511,
      "tact": 8512,
      "##iana": 8513,
      "giant": 8514,
      "orchestra": 8515,
      "dumping": 8516,
      "reverse": 8517,
      "moon": 8518,
      "portra": 8519,
      "innoc": 8520,
      "##ersed": 8521,
      "warming": 8522,
      "fallen": 8523,
      "seminars": 8524,
      "nan": 8525,
      "##ican": 8526,
      "fought": 8527,
      "##working": 8528,
      "rescue": 8529,
      "trails": 8530,
      "jeopard": 8531,
      "ferr": 8532,
      "branches": 8533,
      "restoration": 8534,
      "regrettable": 8535,
      "wages": 8536,
      "jacuzzi": 8537,
      "forb": 8538,
      "jr": 8539,
      "##feld": 8540,
      "complexity": 8541,
      "rend": 8542,
      "yield": 8543,
      "challenging": 8544,
      "della": 8545,
      "minib": 8546,
      "tells": 8547,
      "defects": 8548,
      "colomb": 8549,
      "scandal": 8550,
      "carrier": 8551,
      "macedonia": 8552,
      "wifi": 8553,
      "wash": 8554,
      "loved": 8555,
      "gem": 8556,
      "tube": 8557,
      "thoughts": 8558,
      "incur": 8559,
      "writ": 8560,
      "boxes": 8561,
      "fulfilled": 8562,
      "subsidiary": 8563,
      "##amed": 8564,
      "hosts": 8565,
      "officers": 8566,
      "recycling": 8567,
      "gri": 8568,
      "characterized": 8569,
      "ignored": 8570,
      "hoped": 8571,
      "acceler": 8572,
      "mile": 8573,
      "propag": 8574,
      "rio": 8575,
      "##comings": 8576,
      "advisory": 8577,
      "kam": 8578,
      "wc": 8579,
      "##aud": 8580,
      "##min": 8581,
      "shortcomings": 8582,
      "##isons": 8583,
      "mixt": 8584,
      "##endous": 8585,
      "##hal": 8586,
      "monitored": 8587,
      "condemned": 8588,
      "explanations": 8589,
      "gastronom": 8590,
      "venture": 8591,
      "fortunately": 8592,
      "rejection": 8593,
      "plugin": 8594,
      "alleged": 8595,
      "reun": 8596,
      "extr": 8597,
      "publicly": 8598,
      "##lessly": 8599,
      "eine": 8600,
      "##aus": 8601,
      "invitation": 8602,
      "palestine": 8603,
      "##pc": 8604,
      "chal": 8605,
      "california": 8606,
      "simplification": 8607,
      "vegetables": 8608,
      "chile": 8609,
      "fuels": 8610,
      "francis": 8611,
      "##idad": 8612,
      "accepts": 8613,
      "accepting": 8614,
      "enemy": 8615,
      "aesth": 8616,
      "dish": 8617,
      "##ancies": 8618,
      "anton": 8619,
      "##hel": 8620,
      "notion": 8621,
      "outset": 8622,
      "woods": 8623,
      "unpre": 8624,
      "kid": 8625,
      "pon": 8626,
      "bird": 8627,
      "alm": 8628,
      "unesco": 8629,
      "playa": 8630,
      "adjusted": 8631,
      "reper": 8632,
      "##imm": 8633,
      "bin": 8634,
      "spam": 8635,
      "burning": 8636,
      "theater": 8637,
      "striking": 8638,
      "delicate": 8639,
      "thirty": 8640,
      "culinary": 8641,
      "##itudes": 8642,
      "discret": 8643,
      "governed": 8644,
      "incorporate": 8645,
      "mul": 8646,
      "county": 8647,
      "butt": 8648,
      "separately": 8649,
      "configure": 8650,
      "interaction": 8651,
      "##erable": 8652,
      "characterised": 8653,
      "abandoned": 8654,
      "hamas": 8655,
      "glob": 8656,
      "simplify": 8657,
      "reduces": 8658,
      "forums": 8659,
      "penalties": 8660,
      "arom": 8661,
      "##ilitation": 8662,
      "conjunction": 8663,
      "missions": 8664,
      "carib": 8665,
      "ambass": 8666,
      "optimum": 8667,
      "unfortunate": 8668,
      "taught": 8669,
      "##eror": 8670,
      "lacking": 8671,
      "albania": 8672,
      "##amin": 8673,
      "landscapes": 8674,
      "connecting": 8675,
      "univer": 8676,
      "realized": 8677,
      "sustained": 8678,
      "dreams": 8679,
      "coinc": 8680,
      "xp": 8681,
      "##aks": 8682,
      "tension": 8683,
      "quota": 8684,
      "##dr": 8685,
      "tyrol": 8686,
      "respecting": 8687,
      "studios": 8688,
      "veter": 8689,
      "barn": 8690,
      "weapon": 8691,
      "telling": 8692,
      "random": 8693,
      "dil": 8694,
      "##eper": 8695,
      "indication": 8696,
      "tiss": 8697,
      "responses": 8698,
      "bless": 8699,
      "defending": 8700,
      "reductions": 8701,
      "celebrated": 8702,
      "trademark": 8703,
      "orange": 8704,
      "brill": 8705,
      "norway": 8706,
      "drafted": 8707,
      "gm": 8708,
      "##esis": 8709,
      "##char": 8710,
      "outlook": 8711,
      "diox": 8712,
      "bib": 8713,
      "##di": 8714,
      "##holds": 8715,
      "survive": 8716,
      "##oa": 8717,
      "##win": 8718,
      "libr": 8719,
      "filling": 8720,
      "rear": 8721,
      "wording": 8722,
      "excel": 8723,
      "flavour": 8724,
      "exploring": 8725,
      "liberties": 8726,
      "pull": 8727,
      "indigen": 8728,
      "winners": 8729,
      "piazza": 8730,
      "##gl": 8731,
      "chip": 8732,
      "iz": 8733,
      "anyway": 8734,
      "modes": 8735,
      "kra": 8736,
      "upcoming": 8737,
      "lady": 8738,
      "sofa": 8739,
      "##weg": 8740,
      "linguistic": 8741,
      "##erce": 8742,
      "##ropri": 8743,
      "##rix": 8744,
      "##imo": 8745,
      "continually": 8746,
      "separated": 8747,
      "emerge": 8748,
      "mathem": 8749,
      "##oft": 8750,
      "##lev": 8751,
      "##rium": 8752,
      "thro": 8753,
      "utility": 8754,
      "champion": 8755,
      "distric": 8756,
      "labels": 8757,
      "cens": 8758,
      "consistency": 8759,
      "founder": 8760,
      "##orca": 8761,
      "##rig": 8762,
      "##inos": 8763,
      "announcement": 8764,
      "tape": 8765,
      "silent": 8766,
      "deck": 8767,
      "adaptation": 8768,
      "trademarks": 8769,
      "imprison": 8770,
      "inex": 8771,
      "##asp": 8772,
      "walks": 8773,
      "consisting": 8774,
      "pir": 8775,
      "indigenous": 8776,
      "##ailand": 8777,
      "##ahr": 8778,
      "##stadt": 8779,
      "universe": 8780,
      "##eland": 8781,
      "##ours": 8782,
      "emu": 8783,
      "failing": 8784,
      "##atile": 8785,
      "unequ": 8786,
      "##nen": 8787,
      "##iment": 8788,
      "regimes": 8789,
      "archae": 8790,
      "synchron": 8791,
      "calculated": 8792,
      "borne": 8793,
      "dens": 8794,
      "anth": 8795,
      "hang": 8796,
      "grey": 8797,
      "circulation": 8798,
      "##rupted": 8799,
      "indonesia": 8800,
      "districts": 8801,
      "commend": 8802,
      "feels": 8803,
      "dominated": 8804,
      "derog": 8805,
      "reiterate": 8806,
      "##anes": 8807,
      "dogs": 8808,
      "refined": 8809,
      "globalization": 8810,
      "identical": 8811,
      "nicht": 8812,
      "alive": 8813,
      "ads": 8814,
      "breaking": 8815,
      "ken": 8816,
      "profiles": 8817,
      "fragment": 8818,
      "thailand": 8819,
      "##idity": 8820,
      "confron": 8821,
      "unr": 8822,
      "canc": 8823,
      "tackling": 8824,
      "##burgh": 8825,
      "authorisation": 8826,
      "analyses": 8827,
      "autonomous": 8828,
      "adher": 8829,
      "##iza": 8830,
      "appart": 8831,
      "denied": 8832,
      "bases": 8833,
      "earthqu": 8834,
      "seminar": 8835,
      "boy": 8836,
      "ensured": 8837,
      "quantities": 8838,
      "##iasm": 8839,
      "##ih": 8840,
      "##bod": 8841,
      "##erver": 8842,
      "specialised": 8843,
      "##gery": 8844,
      "panorama": 8845,
      "clothes": 8846,
      "tone": 8847,
      "authorised": 8848,
      "fare": 8849,
      "rav": 8850,
      "##pg": 8851,
      "helic": 8852,
      "motions": 8853,
      "designers": 8854,
      "passes": 8855,
      "louis": 8856,
      "lens": 8857,
      "underline": 8858,
      "kat": 8859,
      "##peg": 8860,
      "pled": 8861,
      "incom": 8862,
      "preventive": 8863,
      "translate": 8864,
      "participated": 8865,
      "oder": 8866,
      "stutt": 8867,
      "deleted": 8868,
      "##ifiable": 8869,
      "modest": 8870,
      "wedding": 8871,
      "demonstration": 8872,
      "##hop": 8873,
      "sir": 8874,
      "##abe": 8875,
      "descript": 8876,
      "isolation": 8877,
      "cav": 8878,
      "notification": 8879,
      "distinguished": 8880,
      "cheaper": 8881,
      "badly": 8882,
      "assumed": 8883,
      "peninsula": 8884,
      "##ooms": 8885,
      "boutique": 8886,
      "requiring": 8887,
      "listened": 8888,
      "employee": 8889,
      "concentrated": 8890,
      "kit": 8891,
      "commonly": 8892,
      "lifestyle": 8893,
      "##ucks": 8894,
      "sick": 8895,
      "##zar": 8896,
      "stood": 8897,
      "##ached": 8898,
      "skill": 8899,
      "mailing": 8900,
      "sightseeing": 8901,
      "enthusiasm": 8902,
      "##yth": 8903,
      "virgin": 8904,
      "investigate": 8905,
      "cabin": 8906,
      "coalition": 8907,
      "presentations": 8908,
      "closure": 8909,
      "danube": 8910,
      "sau": 8911,
      "##etus": 8912,
      "developer": 8913,
      "##arked": 8914,
      "prejud": 8915,
      "obtaining": 8916,
      "unstable": 8917,
      "installing": 8918,
      "observers": 8919,
      "daughter": 8920,
      "##och": 8921,
      "fortress": 8922,
      "posit": 8923,
      "mineral": 8924,
      "cow": 8925,
      "loud": 8926,
      "##zig": 8927,
      "##issance": 8928,
      "estimates": 8929,
      "sis": 8930,
      "elite": 8931,
      "pride": 8932,
      "insert": 8933,
      "eating": 8934,
      "##bc": 8935,
      "influenced": 8936,
      "haven": 8937,
      "plane": 8938,
      "##bean": 8939,
      "pursuing": 8940,
      "overwhelming": 8941,
      "xen": 8942,
      "##cp": 8943,
      "desper": 8944,
      "angle": 8945,
      "transformed": 8946,
      "climbing": 8947,
      "sacrif": 8948,
      "nick": 8949,
      "##oque": 8950,
      "upgrad": 8951,
      "removing": 8952,
      "discretion": 8953,
      "owing": 8954,
      "##cal": 8955,
      "hamm": 8956,
      "enfor": 8957,
      "permanently": 8958,
      "reproduction": 8959,
      "migrants": 8960,
      "piz": 8961,
      "tiny": 8962,
      "abolition": 8963,
      "vicinity": 8964,
      "reconciliation": 8965,
      "banned": 8966,
      "prag": 8967,
      "##wall": 8968,
      "retr": 8969,
      "pear": 8970,
      "##oust": 8971,
      "##irms": 8972,
      "##ression": 8973,
      "investigations": 8974,
      "ay": 8975,
      "nit": 8976,
      "##elli": 8977,
      "printer": 8978,
      "seller": 8979,
      "spy": 8980,
      "continuation": 8981,
      "harvest": 8982,
      "ferry": 8983,
      "exploit": 8984,
      "revolutionary": 8985,
      "helicop": 8986,
      "overlook": 8987,
      "explorer": 8988,
      "proliferation": 8989,
      "tens": 8990,
      "##play": 8991,
[...]
